{
  "version": "1.0",
  "truncation": null,
  "padding": null,
  "added_tokens": [
    {
      "id": 0,
      "content": "[PAD]",
      "single_word": false,
      "lstrip": false,
      "rstrip": false,
      "normalized": false,
      "special": true
    },
    {
      "id": 1,
      "content": "[UNK]",
      "single_word": false,
      "lstrip": false,
      "rstrip": false,
      "normalized": false,
      "special": true
    },
    {
      "id": 2,
      "content": "[SOS]",
      "single_word": false,
      "lstrip": false,
      "rstrip": false,
      "normalized": false,
      "special": true
    },
    {
      "id": 3,
      "content": "[EOS]",
      "single_word": false,
      "lstrip": false,
      "rstrip": false,
      "normalized": false,
      "special": true
    }
  ],
  "normalizer": null,
  "pre_tokenizer": {
    "type": "Whitespace"
  },
  "post_processor": null,
  "decoder": null,
  "model": {
    "type": "BPE",
    "dropout": null,
    "unk_token": "[UNK]",
    "continuing_subword_prefix": null,
    "end_of_word_suffix": null,
    "fuse_unk": false,
    "vocab": {
      "[PAD]": 0,
      "[UNK]": 1,
      "[SOS]": 2,
      "[EOS]": 3,
      "\b": 4,
      "\u000e": 5,
      "\u0013": 6,
      "!": 7,
      "\"": 8,
      "#": 9,
      "$": 10,
      "%": 11,
      "&": 12,
      "'": 13,
      "(": 14,
      ")": 15,
      "*": 16,
      "+": 17,
      ",": 18,
      "-": 19,
      ".": 20,
      "/": 21,
      "0": 22,
      "1": 23,
      "2": 24,
      "3": 25,
      "4": 26,
      "5": 27,
      "6": 28,
      "7": 29,
      "8": 30,
      "9": 31,
      ":": 32,
      ";": 33,
      "<": 34,
      "=": 35,
      ">": 36,
      "?": 37,
      "@": 38,
      "A": 39,
      "B": 40,
      "C": 41,
      "D": 42,
      "E": 43,
      "F": 44,
      "G": 45,
      "H": 46,
      "I": 47,
      "J": 48,
      "K": 49,
      "L": 50,
      "M": 51,
      "N": 52,
      "O": 53,
      "P": 54,
      "Q": 55,
      "R": 56,
      "S": 57,
      "T": 58,
      "U": 59,
      "V": 60,
      "W": 61,
      "X": 62,
      "Y": 63,
      "Z": 64,
      "[": 65,
      "\\": 66,
      "]": 67,
      "^": 68,
      "_": 69,
      "`": 70,
      "a": 71,
      "b": 72,
      "c": 73,
      "d": 74,
      "e": 75,
      "f": 76,
      "g": 77,
      "h": 78,
      "i": 79,
      "j": 80,
      "k": 81,
      "l": 82,
      "m": 83,
      "n": 84,
      "o": 85,
      "p": 86,
      "q": 87,
      "r": 88,
      "s": 89,
      "t": 90,
      "u": 91,
      "v": 92,
      "w": 93,
      "x": 94,
      "y": 95,
      "z": 96,
      "{": 97,
      "|": 98,
      "}": 99,
      "~": 100,
      "in": 101,
      "int": 102,
      "on": 103,
      ");": 104,
      "st": 105,
      "or": 106,
      "ong": 107,
      "long": 108,
      "re": 109,
      "<<": 110,
      "ll": 111,
      "00": 112,
      "++": 113,
      ">>": 114,
      "if": 115,
      "){": 116,
      "for": 117,
      "ou": 118,
      "rn": 119,
      "ret": 120,
      "se": 121,
      "ing": 122,
      "urn": 123,
      "return": 124,
      "us": 125,
      "ma": 126,
      "cou": 127,
      "en": 128,
      "an": 129,
      "cin": 130,
      "cout": 131,
      "ve": 132,
      "pa": 133,
      "ct": 134,
      "using": 135,
      "()": 136,
      "==": 137,
      "std": 138,
      "am": 139,
      "con": 140,
      "te": 141,
      "ans": 142,
      "de": 143,
      "end": 144,
      "];": 145,
      "ctor": 146,
      "ty": 147,
      "ame": 148,
      "vector": 149,
      "lse": 150,
      "ce": 151,
      "typ": 152,
      "endl": 153,
      "const": 154,
      "le": 155,
      "main": 156,
      "name": 157,
      "__": 158,
      "names": 159,
      "++)": 160,
      "pace": 161,
      "namespace": 162,
      "si": 163,
      "][": 164,
      "mp": 165,
      "type": 166,
      "def": 167,
      "la": 168,
      "0000": 169,
      "typedef": 170,
      "str": 171,
      "ch": 172,
      "id": 173,
      "ar": 174,
      "else": 175,
      "um": 176,
      "ir": 177,
      "nt": 178,
      "++){": 179,
      "<=": 180,
      "ue": 181,
      "ol": 182,
      "+=": 183,
      "ze": 184,
      "at": 185,
      "size": 186,
      "::": 187,
      "vo": 188,
      "fa": 189,
      "it": 190,
      "void": 191,
      "();": 192,
      "dp": 193,
      "pr": 194,
      "max": 195,
      "pair": 196,
      "os": 197,
      "temp": 198,
      "ck": 199,
      "h_": 200,
      "string": 201,
      "--": 202,
      "++;": 203,
      "hi": 204,
      "sum": 205,
      "ba": 206,
      "bo": 207,
      "mo": 208,
      "(\"": 209,
      "to": 210,
      "char": 211,
      "ow": 212,
      "late": 213,
      "&&": 214,
      "bool": 215,
      "].": 216,
      "cnt": 217,
      "template": 218,
      "min": 219,
      "\",": 220,
      "whi": 221,
      "_t": 222,
      "(){": 223,
      "while": 224,
      "false": 225,
      "\";": 226,
      "res": 227,
      "ex": 228,
      "])": 229,
      "ed": 230,
      "10": 231,
      "tr": 232,
      "er": 233,
      "ss": 234,
      "ble": 235,
      "ti": 236,
      "??": 237,
      "!=": 238,
      "]=": 239,
      "mod": 240,
      "pus": 241,
      "],": 242,
      "10000": 243,
      "back": 244,
      "rea": 245,
      "print": 246,
      "dou": 247,
      "1e": 248,
      "cla": 249,
      "class": 250,
      "double": 251,
      "//": 252,
      "ge": 253,
      "be": 254,
      "IN": 255,
      "]);": 256,
      "((": 257,
      "cond": 258,
      "100": 259,
      "num": 260,
      "))": 261,
      "irst": 262,
      "true": 263,
      ">=": 264,
      "c_": 265,
      "un": 266,
      "(\"%": 267,
      "};": 268,
      "tie": 269,
      "ff": 270,
      "second": 271,
      "push_": 272,
      "gin": 273,
      "first": 274,
      "OD": 275,
      "(),": 276,
      "MOD": 277,
      "begin": 278,
      ">;": 279,
      "push_back": 280,
      "INF": 281,
      ";}": 282,
      "op": 283,
      "gn": 284,
      "io": 285,
      "al": 286,
      "LL": 287,
      "));": 288,
      "ine": 289,
      "ename": 290,
      "sy": 291,
      "tmp": 292,
      "printf": 293,
      "typename": 294,
      ")(": 295,
      "<<\"": 296,
      "sc": 297,
      "di": 298,
      "line": 299,
      "co": 300,
      "wit": 301,
      "sign": 302,
      "vi": 303,
      "tern": 304,
      "ream": 305,
      "());": 306,
      "..": 307,
      "stream": 308,
      "extern": 309,
      "with_": 310,
      "stdio": 311,
      "syn": 312,
      "sync_": 313,
      "with_stdio": 314,
      "sync_with_stdio": 315,
      "100000000": 316,
      "ios": 317,
      "gc": 318,
      "signed": 319,
      "reak": 320,
      "break": 321,
      "64": 322,
      "me": 323,
      "inline": 324,
      "au": 325,
      "';": 326,
      "th": 327,
      "')": 328,
      "ort": 329,
      "<(": 330,
      "count": 331,
      "),": 332,
      "auto": 333,
      "LE": 334,
      "gcd": 335,
      "anf": 336,
      "scanf": 337,
      "||": 338,
      "set": 339,
      "ri": 340,
      "FI": 341,
      "1000000007": 342,
      "1e9": 343,
      "len": 344,
      "FILE": 345,
      "]==": 346,
      "????": 347,
      "=(": 348,
      "vec": 349,
      "que": 350,
      "ke": 351,
      "No": 352,
      "sol": 353,
      "ro": 354,
      "sort": 355,
      "es": 356,
      "pu": 357,
      "lo": 358,
      "ad": 359,
      "solve": 360,
      "ap": 361,
      "ab": 362,
      "--;": 363,
      "__re": 364,
      "stri": 365,
      "gh": 366,
      "strict": 367,
      "__restrict": 368,
      "li": 369,
      "get": 370,
      "now": 371,
      "MA": 372,
      "pos": 373,
      "put": 374,
      "pre": 375,
      ").": 376,
      "unsigned": 377,
      "ght": 378,
      "is": 379,
      "MAX": 380,
      "cont": 381,
      "pi": 382,
      "fin": 383,
      "64_t": 384,
      "arr": 385,
      "ld": 386,
      "\");": 387,
      "]-": 388,
      "IO": 389,
      "ur": 390,
      "fi": 391,
      "no": 392,
      "_IO": 393,
      "val": 394,
      "_IO_": 395,
      "contin": 396,
      "continue": 397,
      "bu": 398,
      "99": 399,
      "ok": 400,
      "base": 401,
      "fs": 402,
      "Yes": 403,
      "(!": 404,
      "pri": 405,
      "abs": 406,
      "\"<<": 407,
      "rt": 408,
      "]+": 409,
      "ot": 410,
      "ft": 411,
      "cur": 412,
      "-=": 413,
      "]++;": 414,
      "uct": 415,
      ",-": 416,
      "ull": 417,
      "struct": 418,
      "mid": 419,
      "pow": 420,
      "...": 421,
      "map": 422,
      "left": 423,
      "out": 424,
      "size_t": 425,
      "chmax": 426,
      "chmin": 427,
      "->": 428,
      "lag": 429,
      "ter": 430,
      "right": 431,
      "flag": 432,
      "ator": 433,
      "'\\": 434,
      "_base": 435,
      "dfs": 436,
      "root": 437,
      ">(": 438,
      "ion": 439,
      "su": 440,
      "row": 441,
      ")%": 442,
      "__stream": 443,
      "*(": 444,
      "]){": 445,
      "int64_t": 446,
      ")/": 447,
      "ul": 448,
      "up": 449,
      "node": 450,
      "*=": 451,
      "ta": 452,
      "ios_base": 453,
      "push": 454,
      "dist": 455,
      "ree": 456,
      "ostream": 457,
      "%=": 458,
      "par": 459,
      "__n": 460,
      "inv": 461,
      "ffff": 462,
      "())": 463,
      "1LL": 464,
      "vv": 465,
      "dx": 466,
      "pii": 467,
      "----": 468,
      "dy": 469,
      "pop": 470,
      "]=='": 471,
      "oper": 472,
      "32": 473,
      "1000": 474,
      "inf": 475,
      "rr": 476,
      "cost": 477,
      "operator": 478,
      "\")": 479,
      "throw": 480,
      "emp": 481,
      "18": 482,
      "**": 483,
      "make": 484,
      "ase": 485,
      "26": 486,
      "\",&": 487,
      "15": 488,
      "ext": 489,
      "itr": 490,
      "20": 491,
      "????????": 492,
      "find": 493,
      "dat": 494,
      "ac": 495,
      ";++": 496,
      "ay": 497,
      "3f": 498,
      "lld": 499,
      "nd": 500,
      "mat": 501,
      "/=": 502,
      "--)": 503,
      "\"\\": 504,
      "lock": 505,
      "make_": 506,
      "prime": 507,
      "ci": 508,
      "queue": 509,
      "60": 510,
      "inse": 511,
      "mx": 512,
      "next": 513,
      "ver": 514,
      "ron": 515,
      "edge": 516,
      "read": 517,
      "bit": 518,
      "il": 519,
      "<<(": 520,
      "35": 521,
      "'){": 522,
      "idx": 523,
      "insert": 524,
      "fac": 525,
      "100100": 526,
      "data": 527,
      "he": 528,
      "PI": 529,
      "key": 530,
      "top": 531,
      "ate": 532,
      "sw": 533,
      "list": 534,
      "_f": 535,
      "of": 536,
      "expr": 537,
      "rap": 538,
      "dex": 539,
      "constexpr": 540,
      "orde": 541,
      "raph": 542,
      "rent": 543,
      ");}": 544,
      "ES": 545,
      "fact": 546,
      "col": 547,
      "as": 548,
      "cerr": 549,
      "(-": 550,
      "3f3f": 551,
      "cm": 552,
      "NO": 553,
      "14": 554,
      "com": 555,
      "sub": 556,
      "_IO_FILE": 557,
      "ind": 558,
      "ne": 559,
      "gth": 560,
      "make_pair": 561,
      "ront": 562,
      "od": 563,
      "swap": 564,
      ")*": 565,
      "sion": 566,
      "]={": 567,
      "30": 568,
      "length": 569,
      "pll": 570,
      ">>;": 571,
      ");++": 572,
      "__null": 573,
      "__s": 574,
      "]]": 575,
      "tot": 576,
      "arg": 577,
      "YES": 578,
      "index": 579,
      "cision": 580,
      "ati": 581,
      ">&": 582,
      ")+": 583,
      "precision": 584,
      "add": 585,
      "to_": 586,
      "che": 587,
      "fix": 588,
      "po": 589,
      "vll": 590,
      "000": 591,
      "off": 592,
      "front": 593,
      "_b": 594,
      "vl": 595,
      "ii": 596,
      "lcm": 597,
      "ult": 598,
      "',": 599,
      "buf": 600,
      "low": 601,
      "setprecision": 602,
      "format": 603,
      "1e18": 604,
      "[]": 605,
      "__format": 606,
      "check": 607,
      "stati": 608,
      "tree": 609,
      "empty": 610,
      "finv": 611,
      "11": 612,
      "open": 613,
      "nx": 614,
      "use": 615,
      "verse": 616,
      "fixed": 617,
      "puts": 618,
      "sq": 619,
      "0x": 620,
      "12": 621,
      "result": 622,
      "max_": 623,
      "ard": 624,
      "case": 625,
      "T1": 626,
      "T2": 627,
      "]!=": 628,
      "to_string": 629,
      "init": 630,
      "mi": 631,
      "--){": 632,
      "ound": 633,
      "getchar": 634,
      "sz": 635,
      "maxn": 636,
      "()-": 637,
      "a_": 638,
      "s1": 639,
      "50": 640,
      "s2": 641,
      "order": 642,
      "24": 643,
      "ori": 644,
      "');": 645,
      "100000": 646,
      "20000": 647,
      ")-": 648,
      "sizeof": 649,
      "input": 650,
      "parent": 651,
      "Node": 652,
      "vis": 653,
      "lace": 654,
      "});": 655,
      "i_": 656,
      "fre": 657,
      "per": 658,
      "reverse": 659,
      "resize": 660,
      "({": 661,
      "time": 662,
      "ran": 663,
      "====": 664,
      "value": 665,
      ",&": 666,
      "In": 667,
      "ry": 668,
      ")){": 669,
      "--------": 670,
      "grea": 671,
      "tri": 672,
      "_c": 673,
      "dge": 674,
      "greater": 675,
      "pl": 676,
      "]*": 677,
      "sh": 678,
      "_back": 679,
      "d_": 680,
      "<<\"\\": 681,
      "_queue": 682,
      "gnu": 683,
      "__gnu": 684,
      "__off": 685,
      "art": 686,
      "dif": 687,
      "ie": 688,
      "ority": 689,
      "ai": 690,
      "acos": 691,
      "sta": 692,
      "priority": 693,
      "=='": 694,
      "priority_queue": 695,
      "tx": 696,
      "Graph": 697,
      "pq": 698,
      "mul": 699,
      "last": 700,
      "dig": 701,
      "used": 702,
      "79": 703,
      "ight": 704,
      "start": 705,
      "159": 706,
      "14159": 707,
      "s_": 708,
      "color": 709,
      "mem": 710,
      "static": 711,
      "sk": 712,
      "vs": 713,
      "1415926": 714,
      "cook": 715,
      "14159265": 716,
      "cookie": 717,
      "wri": 718,
      "freopen": 719,
      "unlock": 720,
      "memo": 721,
      ">>=": 722,
      "sqrt": 723,
      "vvi": 724,
      "},": 725,
      "1415926535": 726,
      "int32": 727,
      "array": 728,
      "rom": 729,
      "mn": 730,
      "89": 731,
      ">,": 732,
      "all": 733,
      "ted": 734,
      "Se": 735,
      "ep": 736,
      "write": 737,
      "().": 738,
      "_bound": 739,
      "lint": 740,
      "MAX_": 741,
      "dis": 742,
      "substr": 743,
      "=-": 744,
      "VI": 745,
      "Un": 746,
      "adj": 747,
      "ber": 748,
      "9999": 749,
      "ction": 750,
      "one": 751,
      "lim": 752,
      "__f": 753,
      "141592653589": 754,
      "('": 755,
      "unlocked": 756,
      "()){": 757,
      "total": 758,
      "ptr": 759,
      "Ma": 760,
      "istream": 761,
      "int32_t": 762,
      "err": 763,
      "upd": 764,
      "ist": 765,
      "]>": 766,
      "ore": 767,
      "x1": 768,
      "emplace": 769,
      "He": 770,
      "from": 771,
      "]+=": 772,
      "i_len": 773,
      "cal": 774,
      ")*(": 775,
      "AB": 776,
      "head": 777,
      "14159265358979": 778,
      "Find": 779,
      "ent": 780,
      "ite": 781,
      "]<<": 782,
      "va_": 783,
      "##": 784,
      "va_list": 785,
      ");(": 786,
      "1ll": 787,
      "visi": 788,
      "power": 789,
      "bute": 790,
      "998": 791,
      "digit": 792,
      "tribute": 793,
      "attribute": 794,
      "__attribute": 795,
      "__attribute__": 796,
      "244": 797,
      "lower": 798,
      "353": 799,
      "erase": 800,
      "998244": 801,
      "lli": 802,
      "998244353": 803,
      "????????????????": 804,
      "38": 805,
      "Union": 806,
      "]--;": 807,
      "100005": 808,
      "is_": 809,
      ")));": 810,
      "ny": 811,
      "__c": 812,
      "[(": 813,
      "****": 814,
      "stack": 815,
      "min_": 816,
      "////": 817,
      "diff": 818,
      "EP": 819,
      "txt": 820,
      "ob": 821,
      "update": 822,
      "can": 823,
      "prev": 824,
      "MAXN": 825,
      ")=": 826,
      "]%": 827,
      "xx": 828,
      "__u": 829,
      "':": 830,
      "mer": 831,
      "IT": 832,
      "uple": 833,
      ")<(": 834,
      "table": 835,
      "LINF": 836,
      "rank": 837,
      "x2": 838,
      "fl": 839,
      "graph": 840,
      "sa": 841,
      "new": 842,
      "2e": 843,
      "memset": 844,
      "__print": 845,
      "UnionFind": 846,
      "number": 847,
      "EPS": 848,
      "bl": 849,
      "comb": 850,
      "]-'": 851,
      "point": 852,
      "16": 853,
      "0x7": 854,
      "c_va_list": 855,
      "__gnuc_va_list": 856,
      "Int": 857,
      "Edge": 858,
      "\":": 859,
      "mask": 860,
      "qu": 861,
      "GC": 862,
      "stdin": 863,
      "fff": 864,
      "dep": 865,
      "'#": 866,
      "200": 867,
      "fffffff": 868,
      "gr": 869,
      "y1": 870,
      "*/": 871,
      "iter": 872,
      "factor": 873,
      "p1": 874,
      "comp": 875,
      ")<<": 876,
      "\",\"": 877,
      ";;": 878,
      "aa": 879,
      "p2": 880,
      "score": 881,
      "emplace_back": 882,
      "test": 883,
      "we": 884,
      "__io": 885,
      "1415926535897932": 886,
      "3f3f3f3f": 887,
      "Num": 888,
      "]<": 889,
      "t1": 890,
      "@@": 891,
      "500": 892,
      "1e5": 893,
      "1001": 894,
      "_s": 895,
      "mode": 896,
      "Di": 897,
      "ek": 898,
      "1000000": 899,
      "Ta": 900,
      "unction": 901,
      "dd": 902,
      "ation": 903,
      "ild": 904,
      "cl": 905,
      "100010": 906,
      "ord": 907,
      "):": 908,
      "/*": 909,
      "card": 910,
      "]];": 911,
      "tuple": 912,
      "13": 913,
      "','": 914,
      ")==": 915,
      "lower_bound": 916,
      "_fn": 917,
      "cle": 918,
      "modint": 919,
      "visited": 920,
      "file": 921,
      "]));": 922,
      ">::": 923,
      "y2": 924,
      "00000000": 925,
      "__format__": 926,
      "__off64_t": 927,
      "-(": 928,
      "bug": 929,
      "v2": 930,
      "ele": 931,
      "=\"": 932,
      "bi": 933,
      "go": 934,
      "MAX_N": 935,
      "]]++;": 936,
      "46": 937,
      "ment": 938,
      "t_": 939,
      "odd": 940,
      "Sort": 941,
      "lic": 942,
      "19": 943,
      "141592653589793238": 944,
      "Max": 945,
      "(*": 946,
      ")))": 947,
      "stdout": 948,
      "my": 949,
      "101": 950,
      "ULL": 951,
      "SI": 952,
      "tt": 953,
      "day": 954,
      "(),(": 955,
      "merge": 956,
      "+=(": 957,
      ");;": 958,
      "rg": 959,
      "cookie_": 960,
      "_unlocked": 961,
      "+(": 962,
      "modp": 963,
      "vb": 964,
      "...);": 965,
      "GCD": 966,
      "debug": 967,
      "Co": 968,
      "31": 969,
      "dice": 970,
      "wer": 971,
      "rx": 972,
      "cmp": 973,
      "i64": 974,
      "n2": 975,
      "pe": 976,
      "ordere": 977,
      "========": 978,
      "ag": 979,
      "Mod": 980,
      "14159265358979323846": 981,
      "state": 982,
      "siz": 983,
      "modpow": 984,
      "cum": 985,
      "putchar": 986,
      "blic": 987,
      "1000000000": 988,
      "public": 989,
      "seek": 990,
      "calc": 991,
      "lf": 992,
      "mar": 993,
      "ts": 994,
      "ak": 995,
      "ven": 996,
      "\";}": 997,
      "33": 998,
      "lose": 999,
      "query": 1000,
      "answer": 1001,
      ")++)": 1002,
      "Tail": 1003,
      "ng": 1004,
      "a1": 1005,
      "__arg": 1006,
      ">());": 1007,
      "VV": 1008,
      "yes": 1009,
      "output": 1010,
      "tail": 1011,
      "ordered_": 1012,
      "div": 1013,
      "n1": 1014,
      "__mode": 1015,
      "tar": 1016,
      "vc": 1017,
      "DP": 1018,
      "Pri": 1019,
      "upper": 1020,
      "fill": 1021,
      "der": 1022,
      "_num": 1023,
      "ps": 1024,
      "move": 1025,
      "CO": 1026,
      "v1": 1027,
      "depth": 1028,
      "_type": 1029,
      "48": 1030,
      "Head": 1031,
      "[],": 1032,
      "tion": 1033,
      "2000": 1034,
      "argc": 1035,
      "nxt": 1036,
      "flg": 1037,
      "argv": 1038,
      "vp": 1039,
      "wa": 1040,
      "bin": 1041,
      "'&&": 1042,
      "{-": 1043,
      "Po": 1044,
      "----------------": 1045,
      "ns": 1046,
      "mod_": 1047,
      "NI": 1048,
      "_v": 1049,
      "(;": 1050,
      "same": 1051,
      "mini": 1052,
      "{};": 1053,
      "55": 1054,
      "ju": 1055,
      "deg": 1056,
      "22": 1057,
      "seg": 1058,
      "coun": 1059,
      "(((": 1060,
      ">>(": 1061,
      "Prime": 1062,
      "bs": 1063,
      "fast": 1064,
      "0LL": 1065,
      "hs": 1066,
      "flo": 1067,
      "_function": 1068,
      "<<'": 1069,
      "...)": 1070,
      "ds": 1071,
      "c1": 1072,
      "First": 1073,
      "]>>": 1074,
      "__printf": 1075,
      "__ssize_t": 1076,
      "__io_": 1077,
      "__modes": 1078,
      "__printf__": 1079,
      "child": 1080,
      "*)": 1081,
      "==\"": 1082,
      "unite": 1083,
      "``": 1084,
      "_sum": 1085,
      "uf": 1086,
      "rem": 1087,
      "ance": 1088,
      "NULL": 1089,
      "do": 1090,
      "-'": 1091,
      "ic": 1092,
      "1001001001": 1093,
      "sr": 1094,
      "Arg": 1095,
      ";(": 1096,
      "mark": 1097,
      "ca": 1098,
      "yy": 1099,
      "ain": 1100,
      "counter": 1101,
      "a2": 1102,
      "plus": 1103,
      "^=": 1104,
      "vvl": 1105,
      "c2": 1106,
      "maxi": 1107,
      "_a": 1108,
      "]))": 1109,
      "INT": 1110,
      "ABC": 1111,
      "NIL": 1112,
      "unc": 1113,
      "<<'\\": 1114,
      "iterator": 1115,
      "his": 1116,
      "'.": 1117,
      "\"}": 1118,
      "PII": 1119,
      "weight": 1120,
      "AC": 1121,
      "Tree": 1122,
      "ans2": 1123,
      "cc": 1124,
      "ize": 1125,
      "eps": 1126,
      "_p": 1127,
      "ans1": 1128,
      "rbegin": 1129,
      "arch": 1130,
      "36": 1131,
      "xy": 1132,
      "\":\"": 1133,
      "vvll": 1134,
      "Sum": 1135,
      "<=(": 1136,
      "curr": 1137,
      "____": 1138,
      "rest": 1139,
      "code": 1140,
      "\"){": 1141,
      "ary": 1142,
      "oi": 1143,
      "COM": 1144,
      "sible": 1145,
      "red": 1146,
      "exp": 1147,
      "multi": 1148,
      "rev": 1149,
      "limit": 1150,
      "-')": 1151,
      "0x7fffffff": 1152,
      "])%": 1153,
      "lar": 1154,
      "edges": 1155,
      "even": 1156,
      "less": 1157,
      "this": 1158,
      "kai": 1159,
      "[])": 1160,
      "21": 1161,
      "_n": 1162,
      "]>=": 1163,
      "short": 1164,
      "ms": 1165,
      "exit": 1166,
      "[]={": 1167,
      "d1": 1168,
      ")];": 1169,
      "t2": 1170,
      "0x3f3f3f3f": 1171,
      "rec": 1172,
      "log": 1173,
      "uint64_t": 1174,
      "bb": 1175,
      "\"{": 1176,
      "n_": 1177,
      "has": 1178,
      "Ve": 1179,
      "200005": 1180,
      "fget": 1181,
      "1e6": 1182,
      "fil": 1183,
      "define": 1184,
      "keta": 1185,
      "element": 1186,
      "sx": 1187,
      "ut": 1188,
      "2e5": 1189,
      "nC": 1190,
      "00000": 1191,
      "))%": 1192,
      "null": 1193,
      "rep": 1194,
      "mb": 1195,
      "\"\";": 1196,
      "reg": 1197,
      "]=(": 1198,
      "';}": 1199,
      "]][": 1200,
      "mall": 1201,
      "]<=": 1202,
      "fe": 1203,
      "100001": 1204,
      "s_t": 1205,
      ")=(": 1206,
      "ha": 1207,
      "(\"\\": 1208,
      "abc": 1209,
      "int64": 1210,
      "1010": 1211,
      "mt": 1212,
      "300": 1213,
      "by": 1214,
      "{}": 1215,
      "sin": 1216,
      "loop": 1217,
      "large": 1218,
      "unordered_": 1219,
      "stringstream": 1220,
      "seen": 1221,
      "__pos": 1222,
      "nums": 1223,
      "__w": 1224,
      "17": 1225,
      "__ptr": 1226,
      "_IO_cookie_": 1227,
      "obstack": 1228,
      "ui": 1229,
      "ial": 1230,
      "ni": 1231,
      "pp": 1232,
      "25": 1233,
      "////////": 1234,
      "d2": 1235,
      "dir": 1236,
      "_e": 1237,
      "ub": 1238,
      "rb": 1239,
      "####": 1240,
      "cy": 1241,
      "_1": 1242,
      "pop_back": 1243,
      "rend": 1244,
      "Pa": 1245,
      "'+": 1246,
      "ki": 1247,
      "__gcd": 1248,
      ")?": 1249,
      "********": 1250,
      "m1": 1251,
      "path": 1252,
      "next_": 1253,
      "m_": 1254,
      "_tree": 1255,
      "\"}\";": 1256,
      "distance": 1257,
      "ossible": 1258,
      "wo": 1259,
      "200000": 1260,
      "ra": 1261,
      "md": 1262,
      "regist": 1263,
      "*,": 1264,
      "PO": 1265,
      "Re": 1266,
      ",(": 1267,
      "judge": 1268,
      "ho": 1269,
      "(\"%.": 1270,
      "jk": 1271,
      "pw": 1272,
      "_mod": 1273,
      "is_prime": 1274,
      "register": 1275,
      "node_": 1276,
      "current": 1277,
      "fpos": 1278,
      "db": 1279,
      "clear": 1280,
      "cr": 1281,
      "]),": 1282,
      "Card": 1283,
      ")+(": 1284,
      "PQ": 1285,
      "80": 1286,
      "ka": 1287,
      "ew": 1288,
      "han": 1289,
      "ount": 1290,
      "cv": 1291,
      "Point": 1292,
      "chron": 1293,
      "chrono": 1294,
      "rint": 1295,
      "__size": 1296,
      "Str": 1297,
      "error": 1298,
      "['": 1299,
      "__buf": 1300,
      "ic_": 1301,
      "ZE": 1302,
      "_tag": 1303,
      "'#')": 1304,
      "'||": 1305,
      "AR": 1306,
      "bfs": 1307,
      "()+": 1308,
      "__off_t": 1309,
      "b1": 1310,
      "_i": 1311,
      "numer": 1312,
      "\");}": 1313,
      "_MAX": 1314,
      "search": 1315,
      "target": 1316,
      "word": 1317,
      "();}": 1318,
      "40": 1319,
      "our": 1320,
      "dp2": 1321,
      "ition": 1322,
      "sum2": 1323,
      "assign": 1324,
      "dele": 1325,
      "nv": 1326,
      "Args": 1327,
      "m2": 1328,
      "cs": 1329,
      "ime": 1330,
      "pint": 1331,
      "order_": 1332,
      "height": 1333,
      "upper_bound": 1334,
      "largest": 1335,
      "fie": 1336,
      "SIZE": 1337,
      "tree_": 1338,
      "vd": 1339,
      "==-": 1340,
      "Com": 1341,
      "']": 1342,
      "DE": 1343,
      "()));": 1344,
      "BIT": 1345,
      "func": 1346,
      "oc": 1347,
      "vf": 1348,
      "Pll": 1349,
      "perm": 1350,
      "ang": 1351,
      "37": 1352,
      "cnt2": 1353,
      "105": 1354,
      "grid": 1355,
      "_end": 1356,
      "dp1": 1357,
      "sum_": 1358,
      "nn": 1359,
      "MM": 1360,
      "rhs": 1361,
      "sm": 1362,
      "]].": 1363,
      "lb": 1364,
      "isdigit": 1365,
      "comma": 1366,
      "delete": 1367,
      "alp": 1368,
      "field": 1369,
      "args": 1370,
      "]&&": 1371,
      "cnt1": 1372,
      "cx": 1373,
      "sum1": 1374,
      "&(": 1375,
      "75": 1376,
      "ste": 1377,
      "zero": 1378,
      "ffffffff": 1379,
      "/(": 1380,
      "ence": 1381,
      "zy": 1382,
      "multiset": 1383,
      "Min": 1384,
      "filename": 1385,
      "Fa": 1386,
      "pt": 1387,
      "ange": 1388,
      "]<<\"": 1389,
      "_max": 1390,
      "_out": 1391,
      "fffffffffffffff": 1392,
      "ceil": 1393,
      "pref": 1394,
      "47": 1395,
      "]]=": 1396,
      "accum": 1397,
      "cn": 1398,
      "nodes": 1399,
      "src": 1400,
      "110": 1401,
      "stic": 1402,
      "neg": 1403,
      "codecv": 1404,
      "py": 1405,
      "node_update": 1406,
      "\"{\";": 1407,
      "?\"": 1408,
      "big": 1409,
      ")>": 1410,
      "sp": 1411,
      "uni": 1412,
      "statistic": 1413,
      "s_node_update": 1414,
      "rb_tree": 1415,
      "order_statistic": 1416,
      "tree_order_statistic": 1417,
      "rb_tree_tag": 1418,
      "tree_order_statistics_node_update": 1419,
      "oup": 1420,
      "Second": 1421,
      "ulate": 1422,
      "jo": 1423,
      "(!(": 1424,
      "0x7fffffffffffffff": 1425,
      "_clock": 1426,
      "++,": 1427,
      "\"(\"": 1428,
      "close": 1429,
      "blk": 1430,
      "Ans": 1431,
      "isPrime": 1432,
      "limits": 1433,
      "\"]": 1434,
      "prime_": 1435,
      "()==": 1436,
      "ush": 1437,
      "deque": 1438,
      "10000000000000000": 1439,
      "id_t": 1440,
      "rd": 1441,
      "Ty": 1442,
      "__filename": 1443,
      "clu": 1444,
      "<='": 1445,
      "__codecv": 1446,
      "__codecvt_": 1447,
      "99999999": 1448,
      "ic_limits": 1449,
      "numeric_limits": 1450,
      "null_type": 1451,
      "the": 1452,
      "62": 1453,
      "__pa": 1454,
      "__fs": 1455,
      "__cookie": 1456,
      "io_function": 1457,
      "_IO_f": 1458,
      "__fp": 1459,
      "__u_": 1460,
      "io_functions_t": 1461,
      "et": 1462,
      "b2": 1463,
      "mint": 1464,
      "mon": 1465,
      "'<<": 1466,
      "two": 1467,
      "heap": 1468,
      "clude": 1469,
      "Pi": 1470,
      "pare": 1471,
      "_len": 1472,
      "]/": 1473,
      "xs": 1474,
      "]='": 1475,
      "$$": 1476,
      "lt": 1477,
      "witch": 1478,
      "in_": 1479,
      "vii": 1480,
      "ON": 1481,
      "@@@@": 1482,
      "modinv": 1483,
      "are": 1484,
      "Ts": 1485,
      "lock_t": 1486,
      "__int": 1487,
      "sout": 1488,
      "bds": 1489,
      "--,": 1490,
      "Type": 1491,
      "0x7fffffffffffffffLL": 1492,
      "[++": 1493,
      "switch": 1494,
      "Set": 1495,
      "able": 1496,
      "strlen": 1497,
      ")++){": 1498,
      "include": 1499,
      "180": 1500,
      "List": 1501,
      "wi": 1502,
      "<<-": 1503,
      "2019": 1504,
      "_x": 1505,
      "nCr": 1506,
      "IM": 1507,
      "visor": 1508,
      "Count": 1509,
      "sz_": 1510,
      "mm": 1511,
      ")!=": 1512,
      "tex": 1513,
      "high": 1514,
      ")=='": 1515,
      "]*(": 1516,
      "pro": 1517,
      "float": 1518,
      "================": 1519,
      "x3": 1520,
      "200010": 1521,
      "ost": 1522,
      "[&": 1523,
      "sn": 1524,
      "opy": 1525,
      ")]": 1526,
      "\")\";": 1527,
      "fr": 1528,
      "ls": 1529,
      "offset": 1530,
      "mod_pow": 1531,
      "MIN": 1532,
      "Val": 1533,
      "Arr": 1534,
      "();++": 1535,
      "214": 1536,
      "old": 1537,
      "flow": 1538,
      "_T": 1539,
      "face": 1540,
      "i2": 1541,
      "];}": 1542,
      "getline": 1543,
      "AT": 1544,
      "UM": 1545,
      "400": 1546,
      "Pow": 1547,
      "KI": 1548,
      "unordered_map": 1549,
      "num_": 1550,
      "]])": 1551,
      "area": 1552,
      "364": 1553,
      "VVI": 1554,
      "i1": 1555,
      "'?": 1556,
      "IS": 1557,
      "divisor": 1558,
      "llong": 1559,
      "BLE": 1560,
      "_plus": 1561,
      "[&]": 1562,
      "zz": 1563,
      "nil": 1564,
      "Ro": 1565,
      ";};": 1566,
      "POS": 1567,
      "|=": 1568,
      "minus": 1569,
      "(&": 1570,
      "++(": 1571,
      "uint": 1572,
      "45": 1573,
      "s3": 1574,
      "28": 1575,
      "Heap": 1576,
      "atan": 1577,
      "]=='#": 1578,
      "29": 1579,
      "loc": 1580,
      "<<\",": 1581,
      "hash": 1582,
      "im": 1583,
      "ko": 1584,
      "lex": 1585,
      "best": 1586,
      "__gnu_p": 1587,
      "__gnu_pbds": 1588,
      "_G": 1589,
      "rs": 1590,
      "748": 1591,
      "1000000007LL": 1592,
      "llint": 1593,
      "_l": 1594,
      "fread": 1595,
      "accumulate": 1596,
      "(\"-": 1597,
      "214748": 1598,
      "turn": 1599,
      "SIBLE": 1600,
      "POSSIBLE": 1601,
      "marker": 1602,
      "PP": 1603,
      ")&": 1604,
      "del": 1605,
      "\"-": 1606,
      "fopen": 1607,
      "vint": 1608,
      "part": 1609,
      "_count": 1610,
      "_close": 1611,
      "step": 1612,
      "9937": 1613,
      "VL": 1614,
      "214748364": 1615,
      "cos": 1616,
      "VE": 1617,
      "????????????????????????????????": 1618,
      "getc": 1619,
      "eve": 1620,
      "small": 1621,
      "c_unlocked": 1622,
      "100100100100": 1623,
      "__fmt": 1624,
      "na": 1625,
      "sys_": 1626,
      "lockfile": 1627,
      "_fpos": 1628,
      "_IO_FILE_plus": 1629,
      "floor": 1630,
      "_function_t": 1631,
      "_IO_cookie_io_functions_t": 1632,
      "blkcnt": 1633,
      "_G_fpos": 1634,
      "_cnt": 1635,
      "Ch": 1636,
      "y3": 1637,
      "cand": 1638,
      "&&(": 1639,
      "Parent": 1640,
      "stra": 1641,
      "VS": 1642,
      "PLL": 1643,
      "mpossible": 1644,
      "tp": 1645,
      "vpii": 1646,
      "x_": 1647,
      "change": 1648,
      "Dice": 1649,
      "maxx": 1650,
      "bitset": 1651,
      "acc": 1652,
      "]={};": 1653,
      "Seg": 1654,
      "dq": 1655,
      "mt1": 1656,
      "complex": 1657,
      "mt19937": 1658,
      "ince": 1659,
      ">='": 1660,
      "[](": 1661,
      "own": 1662,
      "\"[": 1663,
      "tc": 1664,
      ")<": 1665,
      "time_s": 1666,
      "cnt_": 1667,
      "poch": 1668,
      "_epoch": 1669,
      "ince_epoch": 1670,
      "time_since_epoch": 1671,
      "putc": 1672,
      "...);}": 1673,
      "tate": 1674,
      "debug_out": 1675,
      "kk": 1676,
      "][(": 1677,
      "max_element": 1678,
      "&...": 1679,
      "ant": 1680,
      "primes": 1681,
      "tmp2": 1682,
      "7f": 1683,
      "ER": 1684,
      "lst": 1685,
      "Impossible": 1686,
      "ara": 1687,
      "hoge": 1688,
      "vpll": 1689,
      "<'": 1690,
      "KIH": 1691,
      "ST": 1692,
      "2147483647": 1693,
      "WA": 1694,
      "]-=": 1695,
      "matri": 1696,
      "_r": 1697,
      "AN": 1698,
      "minj": 1699,
      "51": 1700,
      "Le": 1701,
      "0ll": 1702,
      "pat": 1703,
      "Vec": 1704,
      "=='-')": 1705,
      ">'": 1706,
      "++;}": 1707,
      "zu": 1708,
      "ink": 1709,
      "sb": 1710,
      "oney": 1711,
      "h1": 1712,
      "OR": 1713,
      "ast": 1714,
      "ln": 1715,
      "llo": 1716,
      "[&](": 1717,
      "xi": 1718,
      "85": 1719,
      "LC": 1720,
      "chk": 1721,
      "cards": 1722,
      "print_": 1723,
      "RE": 1724,
      "rui": 1725,
      "command": 1726,
      "________": 1727,
      "gy": 1728,
      "_y": 1729,
      "r1": 1730,
      "2020": 1731,
      ")((": 1732,
      "__de": 1733,
      "buil": 1734,
      "est": 1735,
      "fd": 1736,
      "l1": 1737,
      "sieve": 1738,
      "compare": 1739,
      "af": 1740,
      "COMinit": 1741,
      "inorder": 1742,
      "bun": 1743,
      "h2": 1744,
      "ffl": 1745,
      "combin": 1746,
      "));}": 1747,
      "str2": 1748,
      "prime_factor": 1749,
      "need": 1750,
      "built": 1751,
      "???": 1752,
      "ify": 1753,
      "]=-": 1754,
      "nam": 1755,
      "max_n": 1756,
      "ute": 1757,
      "tra": 1758,
      "preorder": 1759,
      "5000": 1760,
      "money": 1761,
      "wor": 1762,
      "get_": 1763,
      "cd": 1764,
      "bt": 1765,
      "unique": 1766,
      "M_": 1767,
      "__built": 1768,
      "--------------------------------": 1769,
      "range": 1770,
      "lack": 1771,
      "and": 1772,
      "FS": 1773,
      "Index": 1774,
      "isprime": 1775,
      "r2": 1776,
      "rad": 1777,
      "510000": 1778,
      "De": 1779,
      "nex": 1780,
      "yi": 1781,
      "blue": 1782,
      "String": 1783,
      "jkstra": 1784,
      "Array": 1785,
      "dst": 1786,
      "Pii": 1787,
      "suit": 1788,
      "oo": 1789,
      "_sort": 1790,
      "lazy": 1791,
      "\"<<\"\\": 1792,
      "feof": 1793,
      "S2": 1794,
      "vvc": 1795,
      "fte": 1796,
      "fseek": 1797,
      "fpos_t": 1798,
      "copy": 1799,
      "union": 1800,
      "buff": 1801,
      "bits": 1802,
      "tl": 1803,
      "VLL": 1804,
      "BU": 1805,
      "Of": 1806,
      "add_": 1807,
      "obj": 1808,
      "v_": 1809,
      "canf": 1810,
      "'#';": 1811,
      "sscanf": 1812,
      "LP": 1813,
      "jj": 1814,
      "decl": 1815,
      "()),": 1816,
      "bel": 1817,
      "matrix": 1818,
      "decltype": 1819,
      "\"#": 1820,
      "Left": 1821,
      "rng": 1822,
      "Mat": 1823,
      "br": 1824,
      "p_": 1825,
      "oss": 1826,
      "'-')": 1827,
      "ady": 1828,
      "ren": 1829,
      "match": 1830,
      "alpha": 1831,
      "ari": 1832,
      "61": 1833,
      "ama": 1834,
      "]!=-": 1835,
      "='": 1836,
      "factorial": 1837,
      "steady": 1838,
      "steady_clock": 1839,
      ">>>": 1840,
      "720": 1841,
      "function": 1842,
      ")/(": 1843,
      "Cnt": 1844,
      "over": 1845,
      "tmp1": 1846,
      "down": 1847,
      "du": 1848,
      "cast": 1849,
      "S1": 1850,
      "1e15": 1851,
      "push_front": 1852,
      "\",\";": 1853,
      "Root": 1854,
      "build": 1855,
      "Sol": 1856,
      "stu": 1857,
      "_1_": 1858,
      "ward": 1859,
      "box": 1860,
      "Right": 1861,
      "lice": 1862,
      "remove": 1863,
      "condition": 1864,
      "visit": 1865,
      "_min": 1866,
      "]!='": 1867,
      "999": 1868,
      "git": 1869,
      "static_": 1870,
      "nor": 1871,
      "\".": 1872,
      "vvb": 1873,
      "seq": 1874,
      "num2": 1875,
      "||(": 1876,
      "static_cast": 1877,
      "bot": 1878,
      "fore": 1879,
      "minv": 1880,
      "roll": 1881,
      "find_": 1882,
      "maxv": 1883,
      "MX": 1884,
      "ji": 1885,
      "++]": 1886,
      "str1": 1887,
      "]],": 1888,
      "Main": 1889,
      "\"),": 1890,
      "Alice": 1891,
      "make_vec": 1892,
      "ww": 1893,
      "OK": 1894,
      "l2": 1895,
      "_pos": 1896,
      "Size": 1897,
      "'\\\"": 1898,
      "arg1": 1899,
      "ako": 1900,
      "=\"\";": 1901,
      "SS": 1902,
      "utation": 1903,
      "Vi": 1904,
      "33720": 1905,
      "8547": 1906,
      "<((": 1907,
      "__uint": 1908,
      "num1": 1909,
      "3372036": 1910,
      "win": 1911,
      "replace": 1912,
      "33720368547": 1913,
      "UT": 1914,
      "place": 1915,
      ")[": 1916,
      "work": 1917,
      "INT64": 1918,
      "show": 1919,
      "BUG": 1920,
      "))/": 1921,
      "DEBUG": 1922,
      "__builtin_": 1923,
      "qr": 1924,
      "qual": 1925,
      "ave": 1926,
      "ower": 1927,
      "Is": 1928,
      "stable": 1929,
      "__line": 1930,
      "1000001": 1931,
      "////////////////": 1932,
      "leno": 1933,
      "state_t": 1934,
      "stk": 1935,
      "sto": 1936,
      "2_1_": 1937,
      "hence": 1938,
      "__scanf": 1939,
      "__mb": 1940,
      "__old": 1941,
      "fileno": 1942,
      "_IO_read": 1943,
      "_IO_write": 1944,
      "_IO_marker": 1945,
      "_IO_2_1_": 1946,
      "__new": 1947,
      "read_fn": 1948,
      "asprintf": 1949,
      "write_fn": 1950,
      "__fd": 1951,
      "__io_close": 1952,
      "seek_fn": 1953,
      "__io_read_fn": 1954,
      "__io_write_fn": 1955,
      "__io_seek_fn": 1956,
      "__whence": 1957,
      "fpos64_t": 1958,
      "__pad": 1959,
      "__lineptr": 1960,
      "__scanf__": 1961,
      "__mbstate_t": 1962,
      "__io_close_fn": 1963,
      "mag": 1964,
      "ick": 1965,
      "posi": 1966,
      "Pre": 1967,
      ")),": 1968,
      "Time": 1969,
      "=((": 1970,
      "gi": 1971,
      "10000000": 1972,
      "])+": 1973,
      "Factor": 1974,
      "922": 1975,
      "av": 1976,
      "round": 1977,
      "permutation": 1978,
      "1000000000000000000": 1979,
      "kaijo": 1980,
      "8_t": 1981,
      "Pro": 1982,
      "board": 1983,
      "LLINF": 1984,
      "264": 1985,
      "UN": 1986,
      "tm": 1987,
      "priv": 1988,
      "(++": 1989,
      "delim": 1990,
      "_front": 1991,
      "_F": 1992,
      "_iterator": 1993,
      "30000": 1994,
      "contain": 1995,
      "_list": 1996,
      "remain": 1997,
      "_cxx": 1998,
      "__gnu_cxx": 1999,
      "ncr": 2000,
      "aku": 2001,
      "c_str": 2002,
      "]=='.": 2003,
      "ative": 2004,
      "ther": 2005,
      "RO": 2006,
      "private": 2007,
      "92233720368547": 2008,
      "']++;": 2009,
      "UF": 2010,
      "########": 2011,
      "alf": 2012,
      "LCM": 2013,
      "dj": 2014,
      "_index": 2015,
      "'.')": 2016,
      "7580": 2017,
      "]==-": 2018,
      "Mon": 2019,
      "sl": 2020,
      ")<=": 2021,
      "Input": 2022,
      "14159265358979323846264": 2023,
      "view": 2024,
      "times": 2025,
      "G_": 2026,
      "OF": 2027,
      "mergeSort": 2028,
      "int_": 2029,
      "++];": 2030,
      "e5": 2031,
      "St": 2032,
      "before": 2033,
      "price": 2034,
      ";--": 2035,
      "ten": 2036,
      "defau": 2037,
      "lg": 2038,
      "fx": 2039,
      "3000": 2040,
      "cb": 2041,
      "_print": 2042,
      "white": 2043,
      "2LL": 2044,
      "AL": 2045,
      "freq": 2046,
      "save": 2047,
      ")++;": 2048,
      "sor": 2049,
      "way": 2050,
      "Stable": 2051,
      "We": 2052,
      "fwrite": 2053,
      "nj": 2054,
      "dprint": 2055,
      "\")<<": 2056,
      "****************": 2057,
      "Vector": 2058,
      "Number": 2059,
      "malloc": 2060,
      "%%": 2061,
      "prod": 2062,
      "imos": 2063,
      "75807": 2064,
      "stoi": 2065,
      "123": 2066,
      "next_permutation": 2067,
      "uke": 2068,
      "mal": 2069,
      "try": 2070,
      "sug": 2071,
      "fabs": 2072,
      "uu": 2073,
      "vfscanf": 2074,
      "sums": 2075,
      "7f7f": 2076,
      "SINT64": 2077,
      "prag": 2078,
      "pragma": 2079,
      "ip": 2080,
      "xp": 2081,
      "={": 2082,
      "ys": 2083,
      "UL": 2084,
      "16_t": 2085,
      ");++(": 2086,
      "]%=": 2087,
      "quick": 2088,
      ";}}": 2089,
      "dijkstra": 2090,
      "2e9": 2091,
      "goal": 2092,
      "binary": 2093,
      "mum": 2094,
      "xyz": 2095,
      "f1": 2096,
      "0x3f3f3f3f3f3f3f3f": 2097,
      "tom": 2098,
      "&&...": 2099,
      "27": 2100,
      "taro": 2101,
      "DFS": 2102,
      "Get": 2103,
      "+'": 2104,
      "px": 2105,
      "200001": 2106,
      "Value": 2107,
      "_size": 2108,
      "vel": 2109,
      "????????????": 2110,
      "EN": 2111,
      "group": 2112,
      "_flag": 2113,
      "black": 2114,
      "inp": 2115,
      "Inv": 2116,
      "Rest": 2117,
      "23": 2118,
      "sec": 2119,
      "1005": 2120,
      "max_t": 2121,
      "pd": 2122,
      "el": 2123,
      "item": 2124,
      "suf": 2125,
      "ata": 2126,
      "deq": 2127,
      "side": 2128,
      "vertex": 2129,
      "hanako": 2130,
      "clock": 2131,
      "INIT": 2132,
      "factors": 2133,
      "_A": 2134,
      "cap": 2135,
      "9223372036854775807": 2136,
      "Possible": 2137,
      "01": 2138,
      "half": 2139,
      "!(": 2140,
      "ution": 2141,
      "EST": 2142,
      "Eve": 2143,
      "ostringstream": 2144,
      "yp": 2145,
      "Fi": 2146,
      "pen": 2147,
      "41": 2148,
      "iz": 2149,
      "fflush": 2150,
      "TY": 2151,
      ";//": 2152,
      "nw": 2153,
      "()(": 2154,
      "_inv": 2155,
      "ball": 2156,
      "fclose": 2157,
      "Digit": 2158,
      "!=-": 2159,
      "_2": 2160,
      "hit": 2161,
      "ner": 2162,
      "__p": 2163,
      "pop_front": 2164,
      "c3": 2165,
      "Con": 2166,
      "49": 2167,
      "Iter": 2168,
      "enum": 2169,
      "]).": 2170,
      "found": 2171,
      "PL": 2172,
      "e18": 2173,
      "ins": 2174,
      "65": 2175,
      "tive": 2176,
      "ctoi": 2177,
      "not": 2178,
      "va": 2179,
      "link": 2180,
      "stderr": 2181,
      "Arg1": 2182,
      "ED": 2183,
      "nmax": 2184,
      "fib": 2185,
      "done": 2186,
      "other": 2187,
      "1111": 2188,
      "bc": 2189,
      "cur_": 2190,
      "suma": 2191,
      "1000005": 2192,
      "_ptr": 2193,
      "ONG": 2194,
      "mize": 2195,
      "50000": 2196,
      "]=='#')": 2197,
      "Segment": 2198,
      "338": 2199,
      "w1": 2200,
      "setpos": 2201,
      "rand": 2202,
      "ger": 2203,
      "iss": 2204,
      "(\"\");": 2205,
      "man": 2206,
      "ino": 2207,
      "dt": 2208,
      "dr": 2209,
      "vr": 2210,
      "IMPOSSIBLE": 2211,
      "'-": 2212,
      "Dist": 2213,
      "14159265358979323846264338": 2214,
      "Inf": 2215,
      "!!": 2216,
      "]]);": 2217,
      "fputs": 2218,
      "lis": 2219,
      "%(": 2220,
      "://": 2221,
      "here": 2222,
      "default": 2223,
      "'))": 2224,
      "Par": 2225,
      "nc": 2226,
      "__clock_t": 2227,
      "f2": 2228,
      "ferror": 2229,
      "fsetpos": 2230,
      "ghi": 2231,
      "htt": 2232,
      "rename": 2233,
      "tmpfile": 2234,
      "tmpnam": 2235,
      "cleare": 2236,
      "fgetpos": 2237,
      "vfprintf": 2238,
      "clearerr": 2239,
      "valid": 2240,
      "jkl": 2241,
      "hen": 2242,
      "opti": 2243,
      "vt": 2244,
      "])){": 2245,
      "1e16": 2246,
      "b_": 2247,
      "ax": 2248,
      "{'": 2249,
      "minn": 2250,
      "safe": 2251,
      "ordered_set": 2252,
      "cu": 2253,
      "yd": 2254,
      "(\"<<": 2255,
      "To": 2256,
      "asin": 2257,
      "mas": 2258,
      "_time": 2259,
      "_gcd": 2260,
      "cess": 2261,
      "son": 2262,
      "wxyz": 2263,
      "1200": 2264,
      "...(": 2265,
      "\"%": 2266,
      "y_": 2267,
      "rect": 2268,
      "maxlen": 2269,
      "post": 2270,
      "indeg": 2271,
      "pdd": 2272,
      "()/": 2273,
      "x4": 2274,
      "ans_": 2275,
      "scan": 2276,
      "da": 2277,
      "inc": 2278,
      "compute": 2279,
      "initial": 2280,
      "min_element": 2281,
      "sugar": 2282,
      "Map": 2283,
      "tmp_": 2284,
      "angle": 2285,
      "gen": 2286,
      "prefix": 2287,
      "elem": 2288,
      "pli": 2289,
      "&&&&": 2290,
      "wise": 2291,
      "sele": 2292,
      "LA": 2293,
      "make_v": 2294,
      "IG": 2295,
      "igh": 2296,
      "road": 2297,
      "bottom": 2298,
      "numbers": 2299,
      "INT_MAX": 2300,
      "dump": 2301,
      "]]+": 2302,
      "305": 2303,
      "*=(": 2304,
      "cmax": 2305,
      "&=": 2306,
      "*);": 2307,
      "parti": 2308,
      "Pair": 2309,
      "of_": 2310,
      "uint32_t": 2311,
      "==(": 2312,
      "1000000000000": 2313,
      ");}}": 2314,
      "Solve": 2315,
      "a3": 2316,
      ">>&": 2317,
      "(;;": 2318,
      "1415926535897932384626433832": 2319,
      "MOD2": 2320,
      "factinv": 2321,
      "141592653589793238462643383279": 2322,
      ")>=": 2323,
      "A1": 2324,
      "popcount": 2325,
      "'#'": 2326,
      "97": 2327,
      "spl": 2328,
      "lll": 2329,
      "p3": 2330,
      "limi": 2331,
      "getchar_unlocked": 2332,
      "itr1": 2333,
      "111": 2334,
      "GCC": 2335,
      "lay": 2336,
      "optimize": 2337,
      "ey": 2338,
      "rid": 2339,
      "ix": 2340,
      "act": 2341,
      "__state": 2342,
      "istringstream": 2343,
      "'?')": 2344,
      "SE": 2345,
      "hh": 2346,
      "Matri": 2347,
      "\"]\";": 2348,
      "44": 2349,
      "{';": 2350,
      "300000": 2351,
      "gap": 2352,
      "nb": 2353,
      "()>": 2354,
      "141592653589793": 2355,
      "FF": 2356,
      "all_": 2357,
      "u64": 2358,
      "partition": 2359,
      "Matrix": 2360,
      "count_": 2361,
      "r_t": 2362,
      "08": 2363,
      "coprime": 2364,
      "Len": 2365,
      "TLE": 2366,
      "()<<": 2367,
      "quad": 2368,
      "koch": 2369,
      "%.": 2370,
      "````": 2371,
      "{\"": 2372,
      "10001": 2373,
      "lc": 2374,
      "divi": 2375,
      "limiter": 2376,
      "Case": 2377,
      "toString": 2378,
      "water": 2379,
      "den": 2380,
      "ARC": 2381,
      "tol": 2382,
      "endif": 2383,
      "Search": 2384,
      "('\\": 2385,
      "])*": 2386,
      "intl": 2387,
      "three": 2388,
      "2005": 2389,
      "Or": 2390,
      "gt": 2391,
      "sus": 2392,
      "train": 2393,
      "ANS": 2394,
      "level": 2395,
      "})": 2396,
      "test_": 2397,
      "_set": 2398,
      "oid": 2399,
      ")>>": 2400,
      "[];": 2401,
      "67": 2402,
      "Out": 2403,
      "colum": 2404,
      "prime_factorize": 2405,
      "_N": 2406,
      "Div2": 2407,
      "\"};": 2408,
      "fastio": 2409,
      "dbg": 2410,
      "_offset": 2411,
      "add_edge": 2412,
      "forward": 2413,
      "abcdef": 2414,
      "SUM": 2415,
      "exist": 2416,
      "var": 2417,
      "vec2": 2418,
      "'.';": 2419,
      "split": 2420,
      "Que": 2421,
      "__maxlen": 2422,
      "\"+": 2423,
      "]&": 2424,
      "bub": 2425,
      "63": 2426,
      "NE": 2427,
      "fn": 2428,
      "putc_unlocked": 2429,
      "long_t": 2430,
      "[\"": 2431,
      "lhs": 2432,
      "new_": 2433,
      "BIT_F": 2434,
      "BIT_FLA": 2435,
      "_sys_": 2436,
      "nerr": 2437,
      "rlim": 2438,
      "__sy": 2439,
      "__obstack": 2440,
      "__blkcnt": 2441,
      "__ino": 2442,
      "__rlim": 2443,
      "seconds_t": 2444,
      "getdelim": 2445,
      "_IO_buf": 2446,
      "_IO_seek": 2447,
      "_IO_lock_t": 2448,
      "_IO_save": 2449,
      "addr_t": 2450,
      "unlockfile": 2451,
      "errlist": 2452,
      "filcnt": 2453,
      "__wch": 2454,
      "_IO_cookie_file": 2455,
      "__fsblkcnt": 2456,
      "__fsfilcnt": 2457,
      "_G_fpos_t": 2458,
      "_G_fpos64_t": 2459,
      "__delimiter": 2460,
      "ftello": 2461,
      "fseeko": 2462,
      "normal": 2463,
      "dprintf": 2464,
      "trylockfile": 2465,
      "quad_t": 2466,
      "__sysc": 2467,
      "maxHeap": 2468,
      "90": 2469,
      "<<\"(\"<<": 2470,
      "extgcd": 2471,
      "np": 2472,
      "EOF": 2473,
      "under": 2474,
      "kind": 2475,
      "yok": 2476,
      "ota": 2477,
      "uc": 2478,
      "SegmentTree": 2479,
      "Order": 2480,
      "ple": 2481,
      "ser": 2482,
      "cycle": 2483,
      "wid": 2484,
      "3600": 2485,
      "fun": 2486,
      "abcdefghi": 2487,
      "negative": 2488,
      "/**": 2489,
      "npos": 2490,
      "<<\"{": 2491,
      "jklmn": 2492,
      "real": 2493,
      "stuv": 2494,
      "abcdefghijklmn": 2495,
      "_d": 2496,
      "_int": 2497,
      "qrstuv": 2498,
      "opqrstuv": 2499,
      "so": 2500,
      "abcdefghijklmnopqrstuv": 2501,
      "ifac": 2502,
      "city": 2503,
      "_var": 2504,
      "'.'": 2505,
      "container": 2506,
      "pow_mod": 2507,
      "j_len": 2508,
      "label": 2509,
      "]]==": 2510,
      "cmd": 2511,
      "Monoid": 2512,
      "vec_": 2513,
      "run": 2514,
      "Th": 2515,
      "abcdefghijklmnopqrstuvwxyz": 2516,
      "rc": 2517,
      "Ex": 2518,
      "<<\":": 2519,
      "RA": 2520,
      "]+(": 2521,
      "KIHAB": 2522,
      "lx": 2523,
      "buffer": 2524,
      "vx": 2525,
      "A2": 2526,
      "INFL": 2527,
      "good": 2528,
      "amax": 2529,
      "she": 2530,
      "vpl": 2531,
      "_tuple": 2532,
      "lr": 2533,
      "vn": 2534,
      "Init": 2535,
      "''": 2536,
      "binpow": 2537,
      "bubble": 2538,
      "'{';": 2539,
      "_search": 2540,
      "flush": 2541,
      "POW": 2542,
      "77": 2543,
      "]^": 2544,
      "_tmp": 2545,
      "mypow": 2546,
      "combination": 2547,
      "fprintf": 2548,
      "MAX_V": 2549,
      "dm": 2550,
      "qq": 2551,
      "Data": 2552,
      "360": 2553,
      "unordered_set": 2554,
      "tb": 2555,
      "maxN": 2556,
      "bet": 2557,
      "LO": 2558,
      "conv": 2559,
      "inser": 2560,
      "y4": 2561,
      "_func": 2562,
      "rist": 2563,
      "War": 2564,
      "dn": 2565,
      "){}": 2566,
      "width": 2567,
      "mpow": 2568,
      ")-(": 2569,
      "kazu": 2570,
      "Add": 2571,
      "exce": 2572,
      "log10": 2573,
      "Print": 2574,
      "BB": 2575,
      "itr2": 2576,
      "fgets": 2577,
      "'\"": 2578,
      "1E": 2579,
      "tolower": 2580,
      "sorted": 2581,
      "-=(": 2582,
      "points": 2583,
      "month": 2584,
      "block": 2585,
      "\"#\";": 2586,
      "&-": 2587,
      "800": 2588,
      "_INF": 2589,
      "mult": 2590,
      "Sun": 2591,
      "Fill": 2592,
      "8f": 2593,
      "Pl": 2594,
      "BIT_FLAG_": 2595,
      "Col": 2596,
      "ru": 2597,
      "Bob": 2598,
      "],&": 2599,
      "Div2Div2": 2600,
      "YY": 2601,
      "ous": 2602,
      "sep": 2603,
      "());++": 2604,
      "nl": 2605,
      "cpp": 2606,
      "Yay": 2607,
      "ear": 2608,
      "former": 2609,
      ")]++;": 2610,
      "_to_": 2611,
      "coder": 2612,
      "RR": 2613,
      "<<\")": 2614,
      "bination": 2615,
      "sv": 2616,
      "med": 2617,
      "fast_": 2618,
      "oupper": 2619,
      "squ": 2620,
      "solver": 2621,
      "column": 2622,
      "left_": 2623,
      "goto": 2624,
      ",*": 2625,
      "inte": 2626,
      "150": 2627,
      "lp": 2628,
      "sed": 2629,
      "Inorder": 2630,
      "gx": 2631,
      "kan": 2632,
      "Edges": 2633,
      "'*": 2634,
      "Mul": 2635,
      "++);": 2636,
      "make_tuple": 2637,
      "Elo": 2638,
      "nr": 2639,
      "sig": 2640,
      "$$$$": 2641,
      "Elof": 2642,
      "task": 2643,
      "]:": 2644,
      "(){}": 2645,
      "ish": 2646,
      "KIHB": 2647,
      "men": 2648,
      "atcoder": 2649,
      "*)(": 2650,
      "1000010": 2651,
      "=*": 2652,
      "2010": 2653,
      "ristmas": 2654,
      "v3": 2655,
      "2000000000": 2656,
      "(~": 2657,
      "}}": 2658,
      "jp": 2659,
      "Cost": 2660,
      "Christmas": 2661,
      "maxHeapify": 2662,
      "}\";": 2663,
      "q1": 2664,
      "wind": 2665,
      "snprintf": 2666,
      "toInt": 2667,
      "]]--;": 2668,
      "]<<'": 2669,
      "[]){": 2670,
      "pon": 2671,
      "seki": 2672,
      "putchar_unlocked": 2673,
      "position": 2674,
      "cp": 2675,
      "nprintf": 2676,
      "vscanf": 2677,
      "vsscanf": 2678,
      "self": 2679,
      "vsnprintf": 2680,
      "ank": 2681,
      "_w": 2682,
      "fscanf": 2683,
      "Parse": 2684,
      "),(": 2685,
      "Table": 2686,
      "Preorder": 2687,
      "stem": 2688,
      "XY": 2689,
      "inverse": 2690,
      "rnk": 2691,
      "yoko": 2692,
      "system": 2693,
      "]<<\"\\": 2694,
      "maze": 2695,
      "()))": 2696,
      "])/": 2697,
      "precompute": 2698,
      "digits": 2699,
      "linf": 2700,
      "fact_inv": 2701,
      ")&&(": 2702,
      "strcmp": 2703,
      "conne": 2704,
      "mod1": 2705,
      "101010": 2706,
      "q2": 2707,
      "================================": 2708,
      "3005": 2709,
      "'};": 2710,
      "tem": 2711,
      "blem": 2712,
      "sei": 2713,
      "__builtin_popcount": 2714,
      "war": 2715,
      "ity": 2716,
      "Pos": 2717,
      "^(": 2718,
      "tes": 2719,
      "ones": 2720,
      "ID": 2721,
      "vvs": 2722,
      "fc": 2723,
      "days": 2724,
      "pattern": 2725,
      "sushi": 2726,
      "sprintf": 2727,
      "ash": 2728,
      "omi": 2729,
      "ku": 2730,
      "IsPrime": 2731,
      "pc": 2732,
      "play": 2733,
      "74": 2734,
      "inary": 2735,
      "INFLL": 2736,
      "https": 2737,
      "amari": 2738,
      "Ver": 2739,
      "e2": 2740,
      "LLONG": 2741,
      "Key": 2742,
      "yo": 2743,
      "longinf": 2744,
      "atoi": 2745,
      "_idx": 2746,
      "eat": 2747,
      "k2": 2748,
      "))>(": 2749,
      "ics": 2750,
      ")&&": 2751,
      "e1": 2752,
      "_h": 2753,
      "toupper": 2754,
      "vpi": 2755,
      "Weight": 2756,
      "VP": 2757,
      "+='": 2758,
      "])-": 2759,
      "301": 2760,
      "\"[\";": 2761,
      "________________": 2762,
      "~~": 2763,
      "...))>(": 2764,
      "tan": 2765,
      "ath": 2766,
      "info": 2767,
      "M_PI": 2768,
      "hp": 2769,
      "ces": 2770,
      "vvint": 2771,
      "shall": 2772,
      "AA": 2773,
      "....": 2774,
      "modPow": 2775,
      "12345": 2776,
      "chi": 2777,
      "1e12": 2778,
      "dic": 2779,
      "Cal": 2780,
      "combinator": 2781,
      "Posi": 2782,
      "Iterator": 2783,
      "msk": 2784,
      "ded": 2785,
      "2e18": 2786,
      "_S": 2787,
      "k1": 2788,
      "ly": 2789,
      "vy": 2790,
      "\"\"": 2791,
      "310": 2792,
      "blow": 2793,
      ":%": 2794,
      "__fact": 2795,
      "__precompute": 2796,
      "))*": 2797,
      "ask": 2798,
      "__ufact": 2799,
      "combinatorics": 2800,
      ")||(": 2801,
      "514": 2802,
      "()][": 2803,
      "temp2": 2804,
      "'-'": 2805,
      "sumb": 2806,
      "<<\"-": 2807,
      "'\\\"'": 2808,
      "issame": 2809,
      "mu": 2810,
      "om": 2811,
      "VEC": 2812,
      "bunbo": 2813,
      "_ans": 2814,
      "ky": 2815,
      "enter": 2816,
      "\"<<'\\": 2817,
      "ization": 2818,
      "Not": 2819,
      "_id": 2820,
      "_M_": 2821,
      "qpow": 2822,
      "')*": 2823,
      "...));": 2824,
      "cor": 2825,
      "ood": 2826,
      "},{": 2827,
      "_R": 2828,
      "kur": 2829,
      "mincost": 2830,
      "initialize": 2831,
      "Dep": 2832,
      "<<=": 2833,
      "InvMod": 2834,
      "getint": 2835,
      "]-(": 2836,
      "vals": 2837,
      "children": 2838,
      "dec": 2839,
      "[--": 2840,
      "fp": 2841,
      "dict": 2842,
      "iii": 2843,
      "ero": 2844,
      "600": 2845,
      "x0": 2846,
      "bef": 2847,
      "128": 2848,
      ",,": 2849,
      "\":(\"": 2850,
      "vin": 2851,
      "Be": 2852,
      "Mer": 2853,
      "INF_": 2854,
      "fibo": 2855,
      "vvd": 2856,
      "calc_": 2857,
      "kota": 2858,
      "MAIN": 2859,
      "Post": 2860,
      "'\\\"';}": 2861,
      "bx": 2862,
      "gg": 2863,
      "M1": 2864,
      "cpy": 2865,
      "100100100100100100": 2866,
      "hig": 2867,
      "trans": 2868,
      "imag": 2869,
      "w2": 2870,
      "leaf": 2871,
      "nCk": 2872,
      "psum": 2873,
      "cnts": 2874,
      "dle": 2875,
      "++]=": 2876,
      "coin": 2877,
      "jump": 2878,
      "114": 2879,
      "atan2": 2880,
      "Merge": 2881,
      "raw": 2882,
      "alk": 2883,
      "loyd": 2884,
      "OUT": 2885,
      "PE": 2886,
      "rnd": 2887,
      "mcx": 2888,
      "_from": 2889,
      "Odd": 2890,
      "lef": 2891,
      "i_end": 2892,
      "NEG": 2893,
      "fst": 2894,
      "ws": 2895,
      "]);}": 2896,
      "powmod": 2897,
      "count1": 2898,
      "rotate": 2899,
      "my_": 2900,
      "ken": 2901,
      "pow2": 2902,
      "insertion": 2903,
      "xx11": 2904,
      "LD": 2905,
      "_to": 2906,
      "temp1": 2907,
      "ror": 2908,
      ">=(": 2909,
      "kurai": 2910,
      "C1": 2911,
      "connect": 2912,
      "year": 2913,
      "stat": 2914,
      "Combination": 2915,
      "titr": 2916,
      "ungetc": 2917,
      "values": 2918,
      "Bit": 2919,
      "overflow": 2920,
      "partial": 2921,
      "stone": 2922,
      "reach": 2923,
      "istream_iterator": 2924,
      "@@@@@@@@": 2925,
      "_area": 2926,
      "mii": 2927,
      "5555": 2928,
      "06": 2929,
      "res2": 2930,
      "Binary": 2931,
      "it2": 2932,
      "setv": 2933,
      "prim": 2934,
      "1e17": 2935,
      "kotae": 2936,
      "init_": 2937,
      "have": 2938,
      "IVE": 2939,
      "dw": 2940,
      "basi": 2941,
      "102": 2942,
      "ach": 2943,
      "primeFactor": 2944,
      ")...);": 2945,
      "Inverse": 2946,
      "3001": 2947,
      "Char": 2948,
      "size_": 2949,
      "Depth": 2950,
      "old_": 2951,
      "_SIZE": 2952,
      "'));": 2953,
      "tu": 2954,
      "])*(": 2955,
      "]={-": 2956,
      "ptr_t": 2957,
      "(--": 2958,
      "vprintf": 2959,
      "xor": 2960,
      "DI": 2961,
      "LIM": 2962,
      "]});": 2963,
      "nis": 2964,
      "fgetc": 2965,
      "degree": 2966,
      "fputc": 2967,
      "qi": 2968,
      "3e5": 2969,
      "unit": 2970,
      "ope": 2971,
      "perror": 2972,
      "y0": 2973,
      "rewind": 2974,
      "amin": 2975,
      "setbuf": 2976,
      "5005": 2977,
      "setvbuf": 2978,
      "vsprintf": 2979,
      "minimum": 2980,
      "ftell": 2981,
      "chr": 2982,
      "selection": 2983,
      "88": 2984,
      "onent": 2985,
      "'}": 2986,
      "II": 2987,
      "_next": 2988,
      "hu": 2989,
      "VVL": 2990,
      "IB": 2991,
      "TT": 2992,
      "moji": 2993,
      "middle": 2994,
      "u32": 2995,
      "mae": 2996,
      "maxa": 2997,
      "66": 2998,
      "Top": 2999,
      "ACK": 3000,
      "idate": 3001,
      "df": 3002,
      "binary_search": 3003,
      "CY": 3004,
      "aux": 3005,
      "pf": 3006,
      ")('": 3007,
      "ATIVE": 3008,
      "NEGATIVE": 3009,
      "'].": 3010,
      "__rev": 3011,
      "100100100": 3012,
      "500000": 3013,
      "vstr": 3014,
      "sen": 3015,
      "nh": 3016,
      "[*": 3017,
      "ya": 3018,
      "lu": 3019,
      "rection": 3020,
      "max1": 3021,
      "_weight": 3022,
      "unused": 3023,
      "dfs2": 3024,
      "RST": 3025,
      "_ch": 3026,
      "csum": 3027,
      "tow": 3028,
      "Problem": 3029,
      "110000": 3030,
      "Fac": 3031,
      "FAC": 3032,
      "bing": 3033,
      "0000000000000000": 3034,
      "theta": 3035,
      "opt": 3036,
      "delta": 3037,
      "CLE": 3038,
      "td": 3039,
      "\"=": 3040,
      "CYCLE": 3041,
      "log2": 3042,
      "ev": 3043,
      "ifor": 3044,
      "count2": 3045,
      "Calc": 3046,
      "Up": 3047,
      "c0": 3048,
      "sday": 3049,
      "timer": 3050,
      "reated": 3051,
      "high_": 3052,
      "))){": 3053,
      "pivo": 3054,
      "verti": 3055,
      "GE": 3056,
      "dc": 3057,
      "Chi": 3058,
      "_memo": 3059,
      "bf": 3060,
      "()]": 3061,
      "TK": 3062,
      "{},": 3063,
      "seed": 3064,
      "min_cost": 3065,
      ">>>;": 3066,
      "next_v": 3067,
      "read_": 3068,
      ",'": 3069,
      "tn": 3070,
      "wel": 3071,
      "TV": 3072,
      "_node": 3073,
      "ption": 3074,
      "250": 3075,
      "TU": 3076,
      "']=": 3077,
      "Idx": 3078,
      "Line": 3079,
      "eg": 3080,
      "All": 3081,
      "sid": 3082,
      "possible": 3083,
      "????????????????????": 3084,
      "maximum": 3085,
      "Last": 3086,
      "i32": 3087,
      "after": 3088,
      "END": 3089,
      "_find": 3090,
      "<<((": 3091,
      "Id": 3092,
      "Zero": 3093,
      "desc": 3094,
      "modncr": 3095,
      "1e7": 3096,
      "INFTY": 3097,
      "test_case": 3098,
      "C2": 3099,
      "GRE": 3100,
      "sg": 3101,
      "114514": 3102,
      "]]-": 3103,
      "rou": 3104,
      "henes": 3105,
      ",\"": 3106,
      "onnull": 3107,
      "__nonnull": 3108,
      "]=='?": 3109,
      "__nonnull__": 3110,
      "TH": 3111,
      "()<": 3112,
      "square": 3113,
      "pivot": 3114,
      "*((": 3115,
      "isOK": 3116,
      "operation": 3117,
      "cross": 3118,
      "VVLL": 3119,
      "atost": 3120,
      "res1": 3121,
      "atosthenes": 3122,
      "_it": 3123,
      "tests": 3124,
      "sizes": 3125,
      "thor": 3126,
      "kaijo_memo": 3127,
      "Next": 3128,
      ")<<\"\\": 3129,
      "OM": 3130,
      "_of_": 3131,
      "mv": 3132,
      "rank_": 3133,
      "'#'){": 3134,
      "right_": 3135,
      "Output": 3136,
      "pb": 3137,
      "000000": 3138,
      "1000000001": 3139,
      "B1": 3140,
      "'/": 3141,
      "age": 3142,
      "pass": 3143,
      "10010": 3144,
      "acant": 3145,
      "E_": 3146,
      "nu": 3147,
      "')';": 3148,
      "jou": 3149,
      "peek": 3150,
      "]=='.')": 3151,
      "ways": 3152,
      "MN": 3153,
      "ith": 3154,
      "tack": 3155,
      "Even": 3156,
      "yak": 3157,
      "les": 3158,
      "snuke": 3159,
      "odd_": 3160,
      "parents": 3161,
      "ATER": 3162,
      "Child": 3163,
      "GREATER": 3164,
      "'<=": 3165,
      "[\";": 3166,
      "ses": 3167,
      "nax": 3168,
      "NUM": 3169,
      "Sc": 3170,
      "asum": 3171,
      "sai": 3172,
      "?(": 3173,
      "sumA": 3174,
      "1000000009": 3175,
      "LESS": 3176,
      "suff": 3177,
      "mxN": 3178,
      "time_t": 3179,
      "req": 3180,
      "pairs": 3181,
      "lcs": 3182,
      "CH": 3183,
      "ql": 3184,
      "rate": 3185,
      "infin": 3186,
      "Positive": 3187,
      "BL": 3188,
      "smaller": 3189,
      "_map": 3190,
      "flag2": 3191,
      "3200": 3192,
      ")->": 3193,
      "GG": 3194,
      "fu": 3195,
      "<<\",\"<<": 3196,
      "stock": 3197,
      "Postorder": 3198,
      "_init": 3199,
      "app": 3200,
      "())-": 3201,
      "TYPE": 3202,
      "(')": 3203,
      "locked": 3204,
      "tw": 3205,
      "6ll": 3206,
      "_char": 3207,
      "fmt": 3208,
      "dest": 3209,
      "int_fast": 3210,
      "except": 3211,
      "n3": 3212,
      "bad": 3213,
      "_at": 3214,
      "200300": 3215,
      "0x3f3f3f3f3f3f3f3fLL": 3216,
      "counts": 3217,
      "vvvi": 3218,
      "',';": 3219,
      "505": 3220,
      "ource": 3221,
      "200300400": 3222,
      "');}": 3223,
      "HI": 3224,
      "bn": 3225,
      "ighted": 3226,
      "Res": 3227,
      "kou": 3228,
      "}};": 3229,
      "Vacant": 3230,
      "_left": 3231,
      "center": 3232,
      "pv": 3233,
      "());(": 3234,
      "DEF": 3235,
      "RO_": 3236,
      "LM": 3237,
      "MAC": 3238,
      "100100200300400": 3239,
      "Sunny": 3240,
      "lou": 3241,
      "spe": 3242,
      "ref": 3243,
      "minx": 3244,
      "MACRO_": 3245,
      "It": 3246,
      "IINF": 3247,
      "finish": 3248,
      "10005": 3249,
      "candidate": 3250,
      "P1": 3251,
      "<<\"}\";": 3252,
      "findSet": 3253,
      "1e10": 3254,
      "sqrtNum": 3255,
      "infinity": 3256,
      "recur": 3257,
      "bytes": 3258,
      "////////////////////////////////": 3259,
      "Color": 3260,
      "modncrlist": 3261,
      "ALL": 3262,
      "__x": 3263,
      "dp0": 3264,
      "Div": 3265,
      "fread_unlocked": 3266,
      "WH": 3267,
      "nm": 3268,
      "inter": 3269,
      "100100200300400500": 3270,
      "2ll": 3271,
      "mod2": 3272,
      "LIMIT": 3273,
      "Hash": 3274,
      "T3": 3275,
      "isS": 3276,
      "(;;){": 3277,
      "__len": 3278,
      "lide": 3279,
      "spf": 3280,
      "divisors": 3281,
      "'<": 3282,
      "FN": 3283,
      "Fen": 3284,
      "a0": 3285,
      "ctr": 3286,
      "noexcept": 3287,
      ")?\"": 3288,
      "EX": 3289,
      "gyaku": 3290,
      "NN": 3291,
      "ddx": 3292,
      "sd": 3293,
      "isupper": 3294,
      "]]){": 3295,
      "ddy": 3296,
      "()!=": 3297,
      "mc": 3298,
      "bal": 3299,
      "\"))": 3300,
      "2d": 3301,
      "pairwise": 3302,
      "1001002003004005006ll": 3303,
      "rm": 3304,
      "());}": 3305,
      "warshall": 3306,
      "now_": 3307,
      "nmin": 3308,
      "10f": 3309,
      "modInverse": 3310,
      "avg": 3311,
      "\"\")": 3312,
      "resol": 3313,
      "0L": 3314,
      "prv": 3315,
      "753": 3316,
      "join": 3317,
      "]=='#'){": 3318,
      "KIHABAR": 3319,
      "8000": 3320,
      "extra": 3321,
      "scal": 3322,
      "\",(": 3323,
      "Clou": 3324,
      "dp_": 3325,
      "Cloudy": 3326,
      "05": 3327,
      "ock": 3328,
      "inq": 3329,
      "__args": 3330,
      "mp2": 3331,
      ")%(": 3332,
      "XYZ": 3333,
      "iS": 3334,
      "process": 3335,
      "VC": 3336,
      "__int64_t": 3337,
      "modu": 3338,
      "sqr": 3339,
      "_vec": 3340,
      "nod": 3341,
      "_fact": 3342,
      "1000000000000000": 3343,
      "fmemo": 3344,
      "beki": 3345,
      "Abel": 3346,
      "VD": 3347,
      "text": 3348,
      "enable": 3349,
      "iti": 3350,
      "fill_v": 3351,
      ")]);": 3352,
      "Dou": 3353,
      "_loop": 3354,
      "four": 3355,
      "}*/": 3356,
      "ster": 3357,
      "anss": 3358,
      "uclide": 3359,
      "cter": 3360,
      "10e": 3361,
      "VW": 3362,
      "Che": 3363,
      "insertionSort": 3364,
      "bingo": 3365,
      "Good": 3366,
      "Me": 3367,
      "bon": 3368,
      "lol": 3369,
      "1e8": 3370,
      "fwrite_unlocked": 3371,
      "RI": 3372,
      "]||": 3373,
      "3500": 3374,
      "Comp": 3375,
      "\"<<\"": 3376,
      "diff_weight": 3377,
      "JK": 3378,
      "c_t": 3379,
      "divide": 3380,
      "ml": 3381,
      "()->": 3382,
      "_table": 3383,
      "all_s": 3384,
      "_B": 3385,
      "_mem": 3386,
      "reser": 3387,
      "REST": 3388,
      "bell": 3389,
      "))+": 3390,
      "dx8": 3391,
      "dy8": 3392,
      "indexed": 3393,
      "ABCDEF": 3394,
      "alphabet": 3395,
      "'('": 3396,
      "BIG": 3397,
      "_unused": 3398,
      "eval": 3399,
      "ib": 3400,
      "__malloc": 3401,
      "mxn": 3402,
      "2000000": 3403,
      "bling": 3404,
      "__malloc__": 3405,
      "'];": 3406,
      "VB": 3407,
      "vout": 3408,
      "you": 3409,
      "colors": 3410,
      "3333": 3411,
      "Vl": 3412,
      "__g": 3413,
      "__key": 3414,
      "4e18": 3415,
      ":-": 3416,
      "UD": 3417,
      "bp": 3418,
      "like": 3419,
      "Wor": 3420,
      "lft": 3421,
      "iota": 3422,
      "cuse": 3423,
      "free": 3424,
      "g2": 3425,
      "shell": 3426,
      "39": 3427,
      "GHI": 3428,
      "NG": 3429,
      "UVW": 3430,
      "v_t": 3431,
      "ini": 3432,
      "__d": 3433,
      "__lo": 3434,
      "noconv": 3435,
      "NOPQ": 3436,
      "initializer": 3437,
      "RSTUVW": 3438,
      "LMNOPQ": 3439,
      "JKLMNOPQ": 3440,
      "GHIJKLMNOPQ": 3441,
      "GHIJKLMNOPQRSTUVW": 3442,
      "_W": 3443,
      "_short": 3444,
      "date": 3445,
      "vec1": 3446,
      "ution_clock": 3447,
      "underflow": 3448,
      "high_resol": 3449,
      "high_resolution_clock": 3450,
      "N_MAX": 3451,
      "s0": 3452,
      "__int32_t": 3453,
      "///": 3454,
      "getn": 3455,
      "getw": 3456,
      "testcase": 3457,
      "ABCDEFGHIJKLMNOPQRSTUVW": 3458,
      ")<<\"": 3459,
      "_old_": 3460,
      "ah": 3461,
      "dot": 3462,
      "__sig": 3463,
      "vowel": 3464,
      "len_t": 3465,
      "__uint64_t": 3466,
      "Debug": 3467,
      "product": 3468,
      "tab": 3469,
      "backup": 3470,
      "ali": 3471,
      "factorize": 3472,
      "_right": 3473,
      "ush_": 3474,
      "uclidean": 3475,
      "reserve": 3476,
      "cnt0": 3477,
      "shor": 3478,
      "_chain": 3479,
      "ABCDEFGHIJKLMNOPQRSTUVWXYZ": 3480,
      "hon": 3481,
      "__uint32_t": 3482,
      "number2": 3483,
      "__uint16_t": 3484,
      "_flags": 3485,
      "_mode": 3486,
      "srand": 3487,
      ";)": 3488,
      "_printf": 3489,
      "bsum": 3490,
      "call": 3491,
      "qs": 3492,
      "sgetn": 3493,
      "t3": 3494,
      "yn": 3495,
      "max2": 3496,
      "kei": 3497,
      "Flag": 3498,
      "La": 3499,
      "fputc_unlocked": 3500,
      "l_l": 3501,
      "ress": 3502,
      "getc_unlocked": 3503,
      ")%=": 3504,
      "j2": 3505,
      "1600": 3506,
      "__int8_t": 3507,
      "__int16_t": 3508,
      "__intmax_t": 3509,
      "__uint8_t": 3510,
      "__uintmax_t": 3511,
      "300005": 3512,
      ")<=(": 3513,
      "_lock": 3514,
      "_marker": 3515,
      "_fileno": 3516,
      "_cur_": 3517,
      "e3": 3518,
      "flockfile": 3519,
      "funlockfile": 3520,
      "ftrylockfile": 3521,
      "pclose": 3522,
      "ssize_t": 3523,
      "ulong_t": 3524,
      "vasprintf": 3525,
      "vdprintf": 3526,
      "padn": 3527,
      "__count": 3528,
      "__FILE": 3529,
      "__val": 3530,
      "__su": 3531,
      "__value": 3532,
      "__dir": 3533,
      "__blk": 3534,
      "__id_t": 3535,
      "__command": 3536,
      "__asprintf": 3537,
      "__mag": 3538,
      "__getdelim": 3539,
      "__quad_t": 3540,
      "__overflow": 3541,
      "__timer": 3542,
      "__read_": 3543,
      "__time_t": 3544,
      "__underflow": 3545,
      "mp1": 3546,
      "lap": 3547,
      "tempnam": 3548,
      "c_locked": 3549,
      "ff_t": 3550,
      "linebuf": 3551,
      "setbuffer": 3552,
      "setlinebuf": 3553,
      "putw": 3554,
      "_IO_getc": 3555,
      "_IO_putc": 3556,
      "_IO_feof": 3557,
      "_IO_vfscanf": 3558,
      "_IO_vfprintf": 3559,
      "_IO_jump": 3560,
      "_IO_peek": 3561,
      "_IO_backup": 3562,
      "_IO_sgetn": 3563,
      "_IO_padn": 3564,
      "up_area": 3565,
      "ree_back": 3566,
      "__nlink": 3567,
      "__nbytes": 3568,
      "popen": 3569,
      "lockid_t": 3570,
      "read_function_t": 3571,
      "__sock": 3572,
      "off_t": 3573,
      "off64_t": 3574,
      "open_mem": 3575,
      "s_unlocked": 3576,
      "cookie_close": 3577,
      "freopen64": 3578,
      "write_function_t": 3579,
      "__fns": 3580,
      "__fsid": 3581,
      "__cfile": 3582,
      "__caddr_t": 3583,
      "__clockid_t": 3584,
      "__uid_t": 3585,
      "__uflow": 3586,
      "__useconds_t": 3587,
      "table_offset": 3588,
      "stdin_": 3589,
      "2001": 3590,
      "__io_func": 3591,
      "_sbuf": 3592,
      "stdout_": 3593,
      "cookie_seek": 3594,
      "cookie_io_functions_t": 3595,
      "cookie_read_function_t": 3596,
      "cookie_write_function_t": 3597,
      "__mode_t": 3598,
      "_vprintf": 3599,
      "_vtable_offset": 3600,
      "fgetc_unlocked": 3601,
      "fgets_unlocked": 3602,
      "_IO_cookie_init": 3603,
      "obstack_printf": 3604,
      "obstack_vprintf": 3605,
      "__sizeloc": 3606,
      "__bufloc": 3607,
      "ic_cookie": 3608,
      "word_t": 3609,
      "__codecvt_ok": 3610,
      "__codecvt_result": 3611,
      "__codecvt_error": 3612,
      "__codecvt_partial": 3613,
      "__codecvt_noconv": 3614,
      "__pad1": 3615,
      "__pad2": 3616,
      "__fsword_t": 3617,
      "_IO_ferror": 3618,
      "_IO_flockfile": 3619,
      "_IO_funlockfile": 3620,
      "_IO_ftrylockfile": 3621,
      "_IO_free_back": 3622,
      "__u_int": 3623,
      "__u_long": 3624,
      "__u_char": 3625,
      "__u_short": 3626,
      "__u_quad_t": 3627,
      "__intptr_t": 3628,
      "fopen64": 3629,
      "fopencookie": 3630,
      "sys_nerr": 3631,
      "sys_errlist": 3632,
      "__dev_t": 3633,
      "fdopen": 3634,
      "fflush_": 3635,
      "feof_unlocked": 3636,
      "__builtin_va_list": 3637,
      "__oldfd": 3638,
      "fileno_unlocked": 3639,
      "_IO_read_base": 3640,
      "_IO_read_end": 3641,
      "_IO_read_ptr": 3642,
      "_IO_write_base": 3643,
      "_IO_write_end": 3644,
      "_IO_write_ptr": 3645,
      "_IO_2_1_stderr": 3646,
      "_IO_2_1_stdin_": 3647,
      "_IO_2_1_stdout_": 3648,
      "__newfd": 3649,
      "__pad3": 3650,
      "__pad4": 3651,
      "__pad5": 3652,
      "_flags2": 3653,
      "fcloseall": 3654,
      "__pid_t": 3655,
      "__pfx": 3656,
      "fputs_unlocked": 3657,
      "ferror_unlocked": 3658,
      "fsetpos64": 3659,
      "renameat": 3660,
      "tmpfile64": 3661,
      "tmpnam_r": 3662,
      "fgetpos64": 3663,
      "clearerr_unlocked": 3664,
      "all_ulong_t": 3665,
      "_sys_nerr": 3666,
      "_sys_errlist": 3667,
      "__blkcnt_t": 3668,
      "__blkcnt64_t": 3669,
      "__ino_t": 3670,
      "__ino64_t": 3671,
      "__rlim_t": 3672,
      "__rlim64_t": 3673,
      "_IO_buf_base": 3674,
      "_IO_buf_end": 3675,
      "_IO_seekpos": 3676,
      "_IO_seekoff": 3677,
      "_IO_save_base": 3678,
      "_IO_save_end": 3679,
      "__wchb": 3680,
      "__fsblkcnt_t": 3681,
      "__fsblkcnt64_t": 3682,
      "__fsfilcnt_t": 3683,
      "__fsfilcnt64_t": 3684,
      "ftello64": 3685,
      "fseeko64": 3686,
      "__syscall_s": 3687,
      "__syscall_ulong_t": 3688,
      "omic_t": 3689,
      "_atomic_t": 3690,
      "fmemopen": 3691,
      "ctermid": 3692,
      "_unused2": 3693,
      "__gid_t": 3694,
      "__key_t": 3695,
      "cuserid": 3696,
      "__daddr_t": 3697,
      "__loff_t": 3698,
      "_shortbuf": 3699,
      "_old_offset": 3700,
      "__sig_atomic_t": 3701,
      "_markers": 3702,
      "_cur_column": 3703,
      "__suseconds_t": 3704,
      "__blksize_t": 3705,
      "__magic_cookie": 3706,
      "__timer_t": 3707,
      "__read_write": 3708,
      "_IO_jump_t": 3709,
      "_IO_peekc_locked": 3710,
      "_IO_backup_base": 3711,
      "__nlink_t": 3712,
      "__socklen_t": 3713,
      "open_memstream": 3714,
      "cookie_close_function_t": 3715,
      "__fsid_t": 3716,
      "__io_funcs": 3717,
      "cookie_seek_function_t": 3718,
      "_IO_free_backup_area": 3719,
      "fflush_unlocked": 3720,
      "_IO_2_1_stderr_": 3721,
      "__syscall_slong_t": 3722,
      "_m": 3723,
      "walk": 3724,
      "pil": 3725,
      "<<\"{\";": 3726,
      "?-": 3727,
      "Dis": 3728,
      "idx2": 3729,
      "last_": 3730,
      "ruiseki": 3731,
      "st2": 3732,
      "number1": 3733,
      "OU": 3734,
      "Def": 3735,
      "mcxi": 3736,
      "BLACK": 3737,
      "kari": 3738,
      "route": 3739,
      "maxm": 3740,
      "m_n": 3741,
      ":(": 3742,
      "100002": 3743,
      "100009": 3744,
      "RS": 3745,
      "||||": 3746,
      "bunsi": 3747,
      "pip": 3748,
      "gra": 3749,
      "rdbuf": 3750,
      "_M_h": 3751,
      "B2": 3752,
      "1000000007ll": 3753,
      "ga": 3754,
      "cnt3": 3755,
      "??????": 3756,
      "Weighted": 3757,
      "d3": 3758,
      "sent": 3759,
      "ODE": 3760,
      "isless": 3761,
      "999999999": 3762,
      "intern": 3763,
      "As": 3764,
      "let": 3765,
      "Fast": 3766,
      "yakus": 3767,
      "400000": 3768,
      "ted_": 3769,
      "debt": 3770,
      "quickSort": 3771,
      "'[": 3772,
      "Adj": 3773,
      "Row": 3774,
      "nk": 3775,
      "]<='": 3776,
      "dfs1": 3777,
      "Neg": 3778,
      "tans": 3779,
      "cntb": 3780,
      "checked": 3781,
      "mod_mul": 3782,
      "postorder": 3783,
      "cww": 3784,
      "5010": 3785,
      "distri": 3786,
      "401": 3787,
      "(;;)": 3788,
      "player": 3789,
      "iT": 3790,
      "sos": 3791,
      "parent_": 3792,
      "merge_sort": 3793,
      "_if": 3794,
      "ign": 3795,
      "Vertex": 3796,
      "\"\");": 3797,
      ")>(": 3798,
      "M2": 3799,
      "_cin": 3800,
      "rl": 3801,
      "?????????": 3802,
      "yyyy": 3803,
      "\"]\\": 3804,
      "510": 3805,
      "form": 3806,
      "amma": 3807,
      "dsu": 3808,
      "stop": 3809,
      "ABLE": 3810,
      ":\"": 3811,
      "pw2": 3812,
      "PUT": 3813,
      "gre": 3814,
      "j1": 3815,
      "()%": 3816,
      "bution": 3817,
      "000000000000000000": 3818,
      "ec": 3819,
      "sert": 3820,
      "d_err": 3821,
      "sur": 3822,
      "52": 3823,
      "ks": 3824,
      "fail": 3825,
      "gram": 3826,
      "basis": 3827,
      "NA": 3828,
      "dh": 3829,
      "xmax": 3830,
      "Fact": 3831,
      "cnr": 3832,
      "tei": 3833,
      "+=\"": 3834,
      "xa": 3835,
      "pas": 3836,
      "Info": 3837,
      "59": 3838,
      "2800": 3839,
      "cut": 3840,
      "fy": 3841,
      "INFll": 3842,
      "ainy": 3843,
      "Check": 3844,
      "pque": 3845,
      "tg": 3846,
      "QU": 3847,
      "sat": 3848,
      "007": 3849,
      "ans3": 3850,
      "i_i": 3851,
      "quence": 3852,
      "42": 3853,
      "ifdef": 3854,
      "suc": 3855,
      "vect": 3856,
      "direction": 3857,
      "':'": 3858,
      "logb": 3859,
      "status": 3860,
      "town": 3861,
      "1d": 3862,
      "uff": 3863,
      "'+')": 3864,
      "SegTree": 3865,
      "Double": 3866,
      "Mo": 3867,
      "NMAX": 3868,
      "fen": 3869,
      "tv": 3870,
      "---": 3871,
      "foo": 3872,
      "pn": 3873,
      "_equal": 3874,
      "trace": 3875,
      "!\"": 3876,
      "-');": 3877,
      "TB": 3878,
      "source": 3879,
      "star": 3880,
      "sumB": 3881,
      "((*": 3882,
      "nec": 3883,
      "LIN": 3884,
      "costs": 3885,
      "]={},": 3886,
      "distribution": 3887,
      "Created": 3888,
      "i3": 3889,
      "r_": 3890,
      "mina": 3891,
      "))-": 3892,
      "load": 3893,
      "'.'){": 3894,
      "999999999999": 3895,
      "union_find": 3896,
      "AD": 3897,
      "Rainy": 3898,
      "ee": 3899,
      "()];": 3900,
      "size_type": 3901,
      "pos1": 3902,
      "cmin": 3903,
      "rk": 3904,
      "unifor": 3905,
      "ift": 3906,
      "keyence": 3907,
      ")-'": 3908,
      "Sub": 3909,
      "--;}": 3910,
      "You": 3911,
      "equal": 3912,
      "fli": 3913,
      "sgn": 3914,
      "vert": 3915,
      "miny": 3916,
      "asa": 3917,
      "ldouble": 3918,
      "abi": 3919,
      "```": 3920,
      "uniform_": 3921,
      "\"\",": 3922,
      "Rep": 3923,
      "_point": 3924,
      "subset": 3925,
      "'\"'": 3926,
      "JUD": 3927,
      "beg": 3928,
      "flag1": 3929,
      "d_combinatorics": 3930,
      "%%%%": 3931,
      "__precomputed_combinatorics": 3932,
      "VAL": 3933,
      "items": 3934,
      "_val": 3935,
      "amap": 3936,
      "ORD": 3937,
      "Factorial": 3938,
      "CC": 3939,
      "Gr": 3940,
      "ia": 3941,
      "1e3": 3942,
      "*=-": 3943,
      "_floyd": 3944,
      "ITE": 3945,
      "newl": 3946,
      "Compare": 3947,
      "int_fast64_t": 3948,
      "JUDGE": 3949,
      "s4": 3950,
      "exponent": 3951,
      "w0": 3952,
      "prob": 3953,
      "mergesort": 3954,
      "\".\";": 3955,
      "Queue": 3956,
      "ithm": 3957,
      "847": 3958,
      "An": 3959,
      "fir": 3960,
      "secondElof": 3961,
      "firstElof": 3962,
      "rsum": 3963,
      "sou": 3964,
      "choo": 3965,
      "\"\"),": 3966,
      "xl": 3967,
      "your": 3968,
      "pari": 3969,
      "maxs": 3970,
      "maxy": 3971,
      "expo": 3972,
      "max_a": 3973,
      "Squ": 3974,
      "vvec": 3975,
      "])));": 3976,
      "value_type": 3977,
      "'),": 3978,
      "suu": 3979,
      "invfact": 3980,
      "vvp": 3981,
      "fast_io": 3982,
      "fmod": 3983,
      "ifn": 3984,
      "select": 3985,
      "b3": 3986,
      "orithm": 3987,
      "isp": 3988,
      "********************************": 3989,
      "ifndef": 3990,
      "AI": 3991,
      "Cur": 3992,
      "g1": 3993,
      "islower": 3994,
      "Hello": 3995,
      "xy_t": 3996,
      "ONLIN": 3997,
      "i_end_": 3998,
      "choose": 3999,
      "P2": 4000,
      "qp": 4001,
      "ycle": 4002,
      "<<*": 4003,
      "nowx": 4004,
      "int_distribution": 4005,
      "uniform_int_distribution": 4006,
      "pal": 4007,
      "mody": 4008,
      "remainder": 4009,
      "_M": 4010,
      "&&!": 4011,
      "AM": 4012,
      "isei": 4013,
      "{{": 4014,
      "mean": 4015,
      "gu": 4016,
      "nuke": 4017,
      "MOD9": 4018,
      "ban": 4019,
      "org": 4020,
      "aring": 4021,
      "\"{\"": 4022,
      "'\"';": 4023,
      "system_clock": 4024,
      "ONLINE_": 4025,
      "]/=": 4026,
      "_pow": 4027,
      "<<\"]": 4028,
      "10000000000": 4029,
      "datas": 4030,
      "uclidean_gcd": 4031,
      "aaa": 4032,
      "IGH": 4033,
      "warshall_floyd": 4034,
      "cat": 4035,
      "l_": 4036,
      "ieve": 4037,
      "custo": 4038,
      "Score": 4039,
      "ONLINE_JUDGE": 4040,
      "_data": 4041,
      "longest": 4042,
      ")][": 4043,
      "know": 4044,
      "Query": 4045,
      "WHITE": 4046,
      "inner": 4047,
      "ifstream": 4048,
      "boost": 4049,
      ")).": 4050,
      "solution": 4051,
      "Read": 4052,
      ")++": 4053,
      "4000": 4054,
      "tasks": 4055,
      "\"?": 4056,
      "adde": 4057,
      "powMod": 4058,
      "100000000000000000": 4059,
      "primeFactorization": 4060,
      "PR": 4061,
      "cw": 4062,
      "__INIT": 4063,
      "201": 4064,
      "KIHBAR": 4065,
      "eq": 4066,
      "pos2": 4067,
      "World": 4068,
      "=\"<<": 4069,
      "east": 4070,
      "modMul": 4071,
      "unordered_multiset": 4072,
      ">\"": 4073,
      "At": 4074,
      "Path": 4075,
      "zi": 4076,
      "~(": 4077,
      "ford": 4078,
      "veci": 4079,
      "take": 4080,
      "T_char": 4081,
      "]++,": 4082,
      "las": 4083,
      "rows": 4084,
      "max_num": 4085,
      "zzzz": 4086,
      "AND": 4087,
      "lapsed": 4088,
      "Er": 4089,
      "Word": 4090,
      "_cost": 4091,
      "\"}\";}": 4092,
      "Length": 4093,
      "L1": 4094,
      "N_": 4095,
      "wt": 4096,
      ")--;": 4097,
      "dur": 4098,
      "ani": 4099,
      "setwise": 4100,
      "monster": 4101,
      "amage": 4102,
      "1E9": 4103,
      "YYMM": 4104,
      "bm": 4105,
      "dv": 4106,
      "sum_a": 4107,
      "arr2": 4108,
      "TBD": 4109,
      "Area": 4110,
      "dum": 4111,
      "wr": 4112,
      "store": 4113,
      "repe": 4114,
      "dx4": 4115,
      "dy4": 4116,
      "psi": 4117,
      "//}": 4118,
      "LOG": 4119,
      "vertices": 4120,
      "Long": 4121,
      "Sieve": 4122,
      "hou": 4123,
      "()&&": 4124,
      "deck": 4125,
      "olo": 4126,
      "maxval": 4127,
      "'\\'": 4128,
      "hantei": 4129,
      "MMYY": 4130,
      "enable_if": 4131,
      "\")))": 4132,
      "GB": 4133,
      "MP": 4134,
      "WORD": 4135,
      "man_": 4136,
      "))<<": 4137,
      "RESTOR": 4138,
      "69": 4139,
      "OP": 4140,
      "mk": 4141,
      "wv": 4142,
      "rig": 4143,
      "3010": 4144,
      "PQG": 4145,
      "UNRESTOR": 4146,
      "UNRESTORABLE": 4147,
      "dpx": 4148,
      "]<<'\\": 4149,
      "D2": 4150,
      "s64": 4151,
      "wh": 4152,
      "maxV": 4153,
      "deleteFirst": 4154,
      "Negative": 4155,
      "Open": 4156,
      "xb": 4157,
      "nowy": 4158,
      "('-');": 4159,
      "Heisei": 4160,
      "st1": 4161,
      "make_vector": 4162,
      ")==\"": 4163,
      "ketasum": 4164,
      "<>());": 4165,
      "((((": 4166,
      "len1": 4167,
      "'\\''": 4168,
      "MaxHeap": 4169,
      "alph": 4170,
      "zyou": 4171,
      "57": 4172,
      "SP": 4173,
      "2017": 4174,
      "1234567": 4175,
      "ao": 4176,
      "fter": 4177,
      "erate": 4178,
      "Range": 4179,
      "]?": 4180,
      "yu": 4181,
      "ymax": 4182,
      "WeightedGraph": 4183,
      "parity": 4184,
      "prt": 4185,
      "mins": 4186,
      "abc_": 4187,
      "duration": 4188,
      ")],": 4189,
      "Draw": 4190,
      "vari": 4191,
      "cnta": 4192,
      "cols": 4193,
      "500005": 4194,
      "'},": 4195,
      "Pr": 4196,
      "xr": 4197,
      "dpy": 4198,
      "invfac": 4199,
      "Div2Div2Div2Div2": 4200,
      "CE": 4201,
      "v0": 4202,
      "-->": 4203,
      "Group": 4204,
      "_INIT": 4205,
      "reset": 4206,
      "<<(\"": 4207,
      "5001": 4208,
      "Maxn": 4209,
      "FFFF": 4210,
      "SZ": 4211,
      "pot": 4212,
      "])==": 4213,
      "skip": 4214,
      "bigmod": 4215,
      "Pil": 4216,
      "cket": 4217,
      "can_": 4218,
      "2e6": 4219,
      "vld": 4220,
      "arr1": 4221,
      "idx1": 4222,
      "positive": 4223,
      "Rank": 4224,
      "Snuke": 4225,
      "mh": 4226,
      "FAC_INIT": 4227,
      "FAC_INIT_SIZE": 4228,
      "Ele": 4229,
      "Lo": 4230,
      "_j": 4231,
      "]=\"": 4232,
      "=='-": 4233,
      "west": 4234,
      "speed": 4235,
      "extract": 4236,
      "AGC": 4237,
      "VPII": 4238,
      "XX": 4239,
      "ymin": 4240,
      "arry": 4241,
      "_Scan": 4242,
      "a4": 4243,
      ");//": 4244,
      "llu": 4245,
      "(\"#": 4246,
      "YesNo": 4247,
      "known": 4248,
      "09": 4249,
      "pm": 4250,
      "pld": 4251,
      "vst": 4252,
      "max_v": 4253,
      "vvvl": 4254,
      "near": 4255,
      ")]=": 4256,
      "Copy": 4257,
      "fg": 4258,
      "deli": 4259,
      "combi": 4260,
      "Upd": 4261,
      "rp": 4262,
      "yen": 4263,
      "setw": 4264,
      "):(": 4265,
      "'}';}": 4266,
      "164": 4267,
      "Bad": 4268,
      "Ford": 4269,
      "MON": 4270,
      "Per": 4271,
      "b9": 4272,
      "je": 4273,
      "++.": 4274,
      "'\\'';}": 4275,
      "One": 4276,
      "Your": 4277,
      "damage": 4278,
      "book": 4279,
      "################": 4280,
      "GRA": 4281,
      "most": 4282,
      "repeat": 4283,
      "glo": 4284,
      "kasa": 4285,
      "lm": 4286,
      "dim": 4287,
      "Insert": 4288,
      "0x7f": 4289,
      "]=='.'){": 4290,
      "indegree": 4291,
      "SET": 4292,
      "blocks": 4293,
      "_value": 4294,
      "nan": 4295,
      "stdc": 4296,
      "strchr": 4297,
      "shift": 4298,
      "quicksort": 4299,
      "internal": 4300,
      "Bub": 4301,
      "dent": 4302,
      "rf": 4303,
      "len2": 4304,
      "cious": 4305,
      "<<\")\";": 4306,
      "Bubble": 4307,
      "Bal": 4308,
      "_P": 4309,
      ");};": 4310,
      "deep": 4311,
      "tight": 4312,
      "2016": 4313,
      "cumsum": 4314,
      "cha": 4315,
      "coins": 4316,
      "ComK": 4317,
      "Three": 4318,
      "Gcd": 4319,
      "yaku": 4320,
      "rees": 4321,
      "tim": 4322,
      "rown": 4323,
      "a_n": 4324,
      "n_max": 4325,
      "220": 4326,
      "car": 4327,
      "tsum": 4328,
      "it1": 4329,
      "maxA": 4330,
      "'\\\\": 4331,
      "]+=(": 4332,
      ";;;;": 4333,
      "Update": 4334,
      "Bi": 4335,
      "_sub": 4336,
      "fpow": 4337,
      "retu": 4338,
      "0x9": 4339,
      "Sele": 4340,
      "anced": 4341,
      "deleteLast": 4342,
      "http": 4343,
      "BA": 4344,
      "dang": 4345,
      "slen": 4346,
      "pai": 4347,
      "print1d": 4348,
      "lime": 4349,
      "isu": 4350,
      "Dijkstra": 4351,
      "tton": 4352,
      "'+'": 4353,
      "ANDOM": 4354,
      "brr": 4355,
      "ida": 4356,
      "first_": 4357,
      "dish": 4358,
      "());;": 4359,
      "isStable": 4360,
      "----------------------------------------------------------------": 4361,
      "40000": 4362,
      "OO": 4363,
      "ht": 4364,
      "llvec": 4365,
      "op1": 4366,
      "mx2": 4367,
      "500010": 4368,
      "Distance": 4369,
      "\\\\": 4370,
      "`.": 4371,
      "elapsed": 4372,
      "non": 4373,
      "ched": 4374,
      "1024": 4375,
      "is_same": 4376,
      "Sat": 4377,
      "sequence": 4378,
      "alg": 4379,
      "divs": 4380,
      "???????????": 4381,
      "',');": 4382,
      "pw10": 4383,
      "Power": 4384,
      "bubbleSort": 4385,
      "iden": 4386,
      "__cxx11": 4387,
      ")?(": 4388,
      "cxx11": 4389,
      "__abi": 4390,
      "coe": 4391,
      "mix": 4392,
      "ACL": 4393,
      "_tag__": 4394,
      "\"[\"": 4395,
      "transform": 4396,
      "Upper": 4397,
      "__abi_tag__": 4398,
      "'>": 4399,
      "&&&&&&&&": 4400,
      "700": 4401,
      "nes": 4402,
      "_cast": 4403,
      "????????????????????????????": 4404,
      "is_ok": 4405,
      "SumOf": 4406,
      "256": 4407,
      "Fennec": 4408,
      "ignore": 4409,
      "0x7f7f7f": 4410,
      "\"||": 4411,
      "TEN": 4412,
      "_C": 4413,
      "rv": 4414,
      "llpow": 4415,
      "its": 4416,
      "Combi": 4417,
      "flip": 4418,
      "Close": 4419,
      "kos": 4420,
      "kal": 4421,
      "op2": 4422,
      "infll": 4423,
      "VVi": 4424,
      "aw": 4425,
      "iv": 4426,
      "xmin": 4427,
      "set_": 4428,
      "getsum": 4429,
      "dexp": 4430,
      "hand": 4431,
      "TEST": 4432,
      "cbegin": 4433,
      "indx": 4434,
      "999999": 4435,
      "newval": 4436,
      "vpint": 4437,
      "<<\")\";}": 4438,
      "_loop_int": 4439,
      "yakusu": 4440,
      "-*": 4441,
      "BC": 4442,
      "Bor": 4443,
      "paint": 4444,
      "const_iterator": 4445,
      "setf": 4446,
      "ERR": 4447,
      "delicious": 4448,
      "\"*": 4449,
      "For": 4450,
      "Four": 4451,
      "SUN": 4452,
      "euclidean_gcd": 4453,
      "gou": 4454,
      "ing_": 4455,
      "INF64": 4456,
      "max_val": 4457,
      "Lazy": 4458,
      "green": 4459,
      "danger": 4460,
      "D1": 4461,
      "hash_": 4462,
      "student": 4463,
      "Tri": 4464,
      "XED": 4465,
      "re__": 4466,
      "__pu": 4467,
      "maxh": 4468,
      "FIXED": 4469,
      "_RANDOM": 4470,
      "__pure__": 4471,
      "FIXED_RANDOM": 4472,
      "APP": 4473,
      "Pli": 4474,
      "Tr": 4475,
      "Inte": 4476,
      "wick": 4477,
      "Borys": 4478,
      "indro": 4479,
      "0x20": 4480,
      "2222": 4481,
      "Bell": 4482,
      "END_": 4483,
      "'(')": 4484,
      "eu": 4485,
      "sel": 4486,
      "aro": 4487,
      "moves": 4488,
      "gical": 4489,
      "120": 4490,
      "WED": 4491,
      "ima": 4492,
      "iro": 4493,
      "!=(": 4494,
      "solve_": 4495,
      "122": 4496,
      "THU": 4497,
      "AKIHABAR": 4498,
      "PD": 4499,
      "d0": 4500,
      "ure": 4501,
      "steps": 4502,
      "taka": 4503,
      "TUE": 4504,
      "Balanced": 4505,
      "Au": 4506,
      "_str": 4507,
      "tax": 4508,
      "\")\";}": 4509,
      "Brown": 4510,
      "FRI": 4511,
      "shellSort": 4512,
      ":;": 4513,
      ">()(": 4514,
      "MUL": 4515,
      "Wed": 4516,
      "tile": 4517,
      "five": 4518,
      "writer": 4519,
      "8lf": 4520,
      "GR": 4521,
      "LDP": 4522,
      "UInt": 4523,
      "_array": 4524,
      "shi": 4525,
      ">>,": 4526,
      "\";;": 4527,
      "sss": 4528,
      "coord": 4529,
      "1001001000": 4530,
      "MaxN": 4531,
      "mbol": 4532,
      "Cards": 4533,
      "VED": 4534,
      "ROVED": 4535,
      "APPROVED": 4536,
      "Ai": 4537,
      "None": 4538,
      "TL": 4539,
      "<<\"#": 4540,
      "pie": 4541,
      "tag": 4542,
      "origin": 4543,
      "NIED": 4544,
      "DENIED": 4545,
      "\"#\"": 4546,
      "\"+\"": 4547,
      "(\".": 4548,
      "<<\",\";": 4549,
      "letter": 4550,
      "_combinatorics": 4551,
      "dre": 4552,
      "i0": 4553,
      "lloc": 4554,
      "vecl": 4555,
      "ndarray": 4556,
      ")<<'\\": 4557,
      "partite": 4558,
      "__precompute_combinatorics": 4559,
      "variable": 4560,
      "global": 4561,
      "EQU": 4562,
      "seven": 4563,
      "outst": 4564,
      "rando": 4565,
      "ITY": 4566,
      "100100100100100": 4567,
      "Thur": 4568,
      "(\"#\");": 4569,
      "EQUAL": 4570,
      "Tue": 4571,
      "fo": 4572,
      "lun": 4573,
      "rus": 4574,
      "vm": 4575,
      "printArray": 4576,
      "bust": 4577,
      "_card": 4578,
      "Unknown": 4579,
      "ological": 4580,
      "L2": 4581,
      "dl": 4582,
      "k_": 4583,
      "yb": 4584,
      "pointer": 4585,
      "200100": 4586,
      "405": 4587,
      "&(-": 4588,
      "lv": 4589,
      "w_": 4590,
      "ids": 4591,
      "prof": 4592,
      "sum_b": 4593,
      "111111": 4594,
      "Result": 4595,
      ">();": 4596,
      "isuu": 4597,
      ")^": 4598,
      "bro": 4599,
      "ph": 4600,
      "uy": 4601,
      "bomb": 4602,
      "stoll": 4603,
      "divider": 4604,
      "84": 4605,
      "FEST": 4606,
      "IVAL": 4607,
      "SU": 4608,
      "aj": 4609,
      "pbds": 4610,
      "lat": 4611,
      "OUS": 4612,
      "Satur": 4613,
      "Closed": 4614,
      "Wednes": 4615,
      "FESTIVAL": 4616,
      "ux": 4617,
      "conson": 4618,
      "]==\"": 4619,
      "selectionSort": 4620,
      "shortest_": 4621,
      "consonant": 4622,
      ")].": 4623,
      "Mb": 4624,
      "SK": 4625,
      "UOUS": 4626,
      "carry": 4627,
      "symbol": 4628,
      "<<\"[": 4629,
      "ordered": 4630,
      "BIGUOUS": 4631,
      "AMBIGUOUS": 4632,
      "dangerous": 4633,
      "c4": 4634,
      "hub": 4635,
      "kmax": 4636,
      "quo": 4637,
      "365": 4638,
      "Thursday": 4639,
      "REP": 4640,
      "gs": 4641,
      "unsafe": 4642,
      "14159265359": 4643,
      "Eratosthenes": 4644,
      "Opened": 4645,
      "Integer": 4646,
      ")||": 4647,
      "SA": 4648,
      "()>=": 4649,
      "cell": 4650,
      "oku": 4651,
      "('-')": 4652,
      "\"=\"": 4653,
      ";){": 4654,
      "A_": 4655,
      "Frid": 4656,
      "Stack": 4657,
      "mf": 4658,
      "pnt": 4659,
      "online": 4660,
      "max_x": 4661,
      "380000": 4662,
      "Friday": 4663,
      "Siz": 4664,
      "_k": 4665,
      "vP": 4666,
      "set_var": 4667,
      "oki": 4668,
      "map_var": 4669,
      "Sunday": 4670,
      "Tuesday": 4671,
      "Saturday": 4672,
      "Wednesday": 4673,
      "BFS": 4674,
      "Test": 4675,
      "bound": 4676,
      "dream": 4677,
      "det": 4678,
      "))==": 4679,
      "factInvMod": 4680,
      "segtree": 4681,
      "Monday": 4682,
      "1001001001001001001": 4683,
      "]=='?')": 4684,
      "indrome": 4685,
      "5e5": 4686,
      "lmax": 4687,
      "keep": 4688,
      "]]]": 4689,
      "('-'),": 4690,
      "idai": 4691,
      "alloc": 4692,
      "cbrt": 4693,
      "descri": 4694,
      "addedge": 4695,
      "TC": 4696,
      "jc": 4697,
      "job": 4698,
      "inside": 4699,
      "006": 4700,
      "_NUM": 4701,
      "algorithm": 4702,
      "CODE": 4703,
      "Dfs": 4704,
      "MD": 4705,
      "Su": 4706,
      "SAT": 4707,
      "eof": 4708,
      "wan": 4709,
      "ifact": 4710,
      "ABD": 4711,
      "????????????????????????????????????????????????????????????????": 4712,
      "github": 4713,
      "EXT": 4714,
      "GRAY": 4715,
      "mor": 4716,
      "+=((": 4717,
      "appe": 4718,
      "keys": 4719,
      "calculate": 4720,
      "modncrlistp": 4721,
      "(*(": 4722,
      "ei": 4723,
      "seconds": 4724,
      "not_": 4725,
      "]]+=": 4726,
      "_TEXT": 4727,
      "OF_TEXT": 4728,
      "END_OF_TEXT": 4729,
      "?\",": 4730,
      "State": 4731,
      "??\\": 4732,
      "que2": 4733,
      "ucas": 4734,
      "CK": 4735,
      "bd": 4736,
      "p4": 4737,
      "devi": 4738,
      "kek": 4739,
      "addEdge": 4740,
      "mod_inv": 4741,
      "ROW": 4742,
      "balls": 4743,
      "________________________________": 4744,
      "Author": 4745,
      "YN": 4746,
      "_64": 4747,
      "fw": 4748,
      "roop": 4749,
      "joint": 4750,
      "sorted_": 4751,
      "4460": 4752,
      "grade": 4753,
      "println": 4754,
      "')){": 4755,
      "final": 4756,
      "Height": 4757,
      "saidai": 4758,
      "hana": 4759,
      "_D": 4760,
      "border": 4761,
      "cho": 4762,
      "hist": 4763,
      "poww": 4764,
      "YESNO": 4765,
      "'?'": 4766,
      ",,,,": 4767,
      "dreame": 4768,
      "cend": 4769,
      "val2": 4770,
      "fill_n": 4771,
      "300010": 4772,
      "Copyright": 4773,
      "SumOfDigit": 4774,
      "\"\".": 4775,
      "0f": 4776,
      "VAR": 4777,
      "asc": 4778,
      "hap": 4779,
      "math": 4780,
      "isok": 4781,
      "button": 4782,
      "flags": 4783,
      "1900": 4784,
      "14159265358979323846264338327950": 4785,
      "bellman_": 4786,
      "LR": 4787,
      "]--,": 4788,
      "dup": 4789,
      "lsum": 4790,
      "xc": 4791,
      "xsum": 4792,
      "neigh": 4793,
      "####################": 4794,
      "pan": 4795,
      "tle": 4796,
      "pause": 4797,
      "amount": 4798,
      "sit": 4799,
      "::::": 4800,
      "gest": 4801,
      "INPUT": 4802,
      "ulli": 4803,
      "_by": 4804,
      "_4": 4805,
      "ansa": 4806,
      "ameter": 4807,
      "\"<<(": 4808,
      "piii": 4809,
      "arg2": 4810,
      "'-';": 4811,
      "BI": 4812,
      "ird": 4813,
      "getSum": 4814,
      "ruskal": 4815,
      "FESTIVAL2016": 4816,
      "CODEFESTIVAL2016": 4817,
      "_score": 4818,
      "hour": 4819,
      "}));": 4820,
      "_cycle": 4821,
      "\"-\")": 4822,
      "TableLIMIT": 4823,
      "tf": 4824,
      "));;": 4825,
      ">('": 4826,
      "16L": 4827,
      "ather": 4828,
      "9e18": 4829,
      "End": 4830,
      "f80": 4831,
      "mx1": 4832,
      "drop": 4833,
      "deno": 4834,
      "modulo": 4835,
      "dreamer": 4836,
      "'][": 4837,
      "L_INF": 4838,
      "()*": 4839,
      "...>": 4840,
      "Comb": 4841,
      "333": 4842,
      "program": 4843,
      "+((": 4844,
      "cX": 4845,
      "ita": 4846,
      "rot": 4847,
      "room": 4848,
      "2633": 4849,
      "3130": 4850,
      "UNITY": 4851,
      "exception": 4852,
      "=%": 4853,
      "PY": 4854,
      "fmax": 4855,
      "fri": 4856,
      "hyp": 4857,
      "lin": 4858,
      "wk": 4859,
      "hihi": 4860,
      "))=(": 4861,
      "nok": 4862,
      "18164": 4863,
      "grou": 4864,
      "3618164": 4865,
      "80847": 4866,
      "rence": 4867,
      "winner": 4868,
      "49250": 4869,
      "062e": 4870,
      "2204460": 4871,
      "26333618164": 4872,
      "313080847": 4873,
      "49250313080847": 4874,
      "220446049250313080847": 4875,
      "26333618164062e": 4876,
      "22044604925031308084726333618164062e": 4877,
      "Pd": 4878,
      "val1": 4879,
      "/**/": 4880,
      "hypot": 4881,
      "ula": 4882,
      "mpower": 4883,
      "0000000": 4884,
      "bob": 4885,
      "iostream": 4886,
      "author": 4887,
      "preParse": 4888,
      "bellman_ford": 4889,
      "FT": 4890,
      "ores": 4891,
      "++]);": 4892,
      "min1": 4893,
      "eraser": 4894,
      "0000000001": 4895,
      "[((": 4896,
      "dsum": 4897,
      "lper": 4898,
      "eratosthenes": 4899,
      "printVector": 4900,
      "splitmix": 4901,
      "'<')": 4902,
      "dummy": 4903,
      "splitmix64": 4904,
      "N2": 4905,
      "T0": 4906,
      "wall": 4907,
      "============": 4908,
      "mt19937_64": 4909,
      "NT": 4910,
      "Same": 4911,
      "_buf": 4912,
      "rq": 4913,
      "t0": 4914,
      "|(": 4915,
      "constant": 4916,
      "cntA": 4917,
      "));++": 4918,
      "extGCD": 4919,
      "indexed_set": 4920,
      "3F": 4921,
      "cir": 4922,
      "p0": 4923,
      "term": 4924,
      ")*((": 4925,
      "501": 4926,
      "hukasa": 4927,
      "bk": 4928,
      "ja": 4929,
      "lz": 4930,
      "lround": 4931,
      "rst": 4932,
      "cnt4": 4933,
      "])<<": 4934,
      "vi64": 4935,
      "getDigit": 4936,
      "kaizyou": 4937,
      "deleteNode": 4938,
      "Stream": 4939,
      "_Alloc": 4940,
      "senbe": 4941,
      "bus": 4942,
      "ibuf": 4943,
      "slime": 4944,
      "exec": 4945,
      "MAP": 4946,
      "segment": 4947,
      "words": 4948,
      "'?'){": 4949,
      "manFord": 4950,
      "DIV": 4951,
      "wf": 4952,
      "z00": 4953,
      "inParse": 4954,
      "<<\"}": 4955,
      "cache": 4956,
      "87": 4957,
      "lvec": 4958,
      "smax": 4959,
      "lowbit": 4960,
      "max_h": 4961,
      "X2": 4962,
      "_fin": 4963,
      "00001": 4964,
      "\";};": 4965,
      "'+';": 4966,
      "__int128": 4967,
      "Contest": 4968,
      "gyaku_": 4969,
      "taken": 4970,
      "MMMM": 4971,
      "]->": 4972,
      "pow_": 4973,
      "205": 4974,
      "Modint": 4975,
      "bina": 4976,
      "cake": 4977,
      "Start": 4978,
      "ities": 4979,
      "Memo": 4980,
      "<>": 4981,
      "_Hash": 4982,
      "ksm": 4983,
      "ndp": 4984,
      "nine": 4985,
      "sj": 4986,
      "amp": 4987,
      "ops": 4988,
      "200002": 4989,
      "MergeSort": 4990,
      "n0": 4991,
      "tbl": 4992,
      "was": 4993,
      "){//": 4994,
      "maxc": 4995,
      "]<<\",": 4996,
      "is_class": 4997,
      "profit": 4998,
      "\"!": 4999,
      "crea": 5000,
      "stones": 5001,
      "otal": 5002,
      "number_of_": 5003,
      "num_of_": 5004,
      "find_set": 5005,
      "variables": 5006,
      "Dif": 5007,
      "bw": 5008,
      "inate": 5009,
      "1e4": 5010,
      "))));": 5011,
      "2018": 5012,
      "\":\"\")<<": 5013,
      ")=='#": 5014,
      "senbei": 5015,
      "hd": 5016,
      "sequal": 5017,
      "ene": 5018,
      "light": 5019,
      "check_": 5020,
      "enum_": 5021,
      "ader": 5022,
      "how": 5023,
      "xh": 5024,
      "sil": 5025,
      "strcpy": 5026,
      "array_": 5027,
      ")};": 5028,
      "96": 5029,
      "mai": 5030,
      "contests": 5031,
      "2e3": 5032,
      "Coord": 5033,
      "55555": 5034,
      "IGHT": 5035,
      "'@": 5036,
      "fat": 5037,
      "mll": 5038,
      "n4": 5039,
      "ato": 5040,
      "tok": 5041,
      "10lf": 5042,
      "210000": 5043,
      "71": 5044,
      "]]>": 5045,
      "aizu": 5046,
      "200200": 5047,
      "200020": 5048,
      "heapify": 5049,
      "!!!!": 5050,
      "duration_cast": 5051,
      "random_": 5052,
      "Front": 5053,
      "](": 5054,
      "_3": 5055,
      "tmpans": 5056,
      "signbit": 5057,
      "100000000000": 5058,
      "Vec2": 5059,
      "S3": 5060,
      "V2": 5061,
      "far": 5062,
      "])%=": 5063,
      "loops": 5064,
      "Disjoint": 5065,
      "Repeat": 5066,
      "Selection": 5067,
      "goukei": 5068,
      "86": 5069,
      "masu": 5070,
      "ols": 5071,
      "minval": 5072,
      "scores": 5073,
      "powm": 5074,
      "209": 5075,
      "Solution": 5076,
      "onlinejudge": 5077,
      "nokori": 5078,
      "_0": 5079,
      "clock_t": 5080,
      "xn": 5081,
      "deb": 5082,
      "])))": 5083,
      "')')": 5084,
      "@@@": 5085,
      "dump_func": 5086,
      "integer": 5087,
      "alice": 5088,
      "SB": 5089,
      "_start": 5090,
      "convert": 5091,
      "minA": 5092,
      "],(": 5093,
      "LLI": 5094,
      "isl": 5095,
      "MAX7": 5096,
      "maps": 5097,
      "0x3f": 5098,
      "Process": 5099,
      "???????????????": 5100,
      "DICE": 5101,
      "9000000000000000000": 5102,
      "Ko": 5103,
      "kak": 5104,
      "amida": 5105,
      "gcd_": 5106,
      "1500": 5107,
      "corner": 5108,
      "+')": 5109,
      "Part": 5110,
      "sll": 5111,
      "modf": 5112,
      "99999": 5113,
      "elems": 5114,
      "));}}": 5115,
      "__builtin_popcountll": 5116,
      "INF_INT": 5117,
      "Ra": 5118,
      "_rev": 5119,
      "cj": 5120,
      "ive": 5121,
      "msi": 5122,
      "where": 5123,
      "cod": 5124,
      "rights": 5125,
      "version": 5126,
      "Ba": 5127,
      "hat": 5128,
      "k_len": 5129,
      "kaku": 5130,
      "idge": 5131,
      "sum3": 5132,
      "**/": 5133,
      "~~~~": 5134,
      "Answ": 5135,
      "Name": 5136,
      "qw": 5137,
      "sing": 5138,
      "pick": 5139,
      "<<(*": 5140,
      "------------": 5141,
      "BubbleSort": 5142,
      "Qui": 5143,
      "Temp": 5144,
      "umax": 5145,
      "summ": 5146,
      "with": 5147,
      "100050": 5148,
      "\"-\"": 5149,
      "Squaring": 5150,
      "Quick": 5151,
      "126": 5152,
      "Bo": 5153,
      "PA": 5154,
      "_number": 5155,
      "mount": 5156,
      "yl": 5157,
      "ves": 5158,
      "sortby": 5159,
      "(!((": 5160,
      "clr": 5161,
      "3650": 5162,
      "2345": 5163,
      "$$$$$$$$": 5164,
      "Answer": 5165,
      "d4": 5166,
      "llabs": 5167,
      ">>());": 5168,
      "100003": 5169,
      "124": 5170,
      ")...);}": 5171,
      "_main": 5172,
      "fmin": 5173,
      "occ": 5174,
      "inputs": 5175,
      "()).": 5176,
      "();){": 5177,
      "106": 5178,
      "))<((": 5179,
      "uniq": 5180,
      "fh": 5181,
      "jt": 5182,
      "o1": 5183,
      "o2": 5184,
      "bom": 5185,
      "cntB": 5186,
      "mind": 5187,
      "isin": 5188,
      "\"]\"": 5189,
      "<<\":\"<<": 5190,
      "twos": 5191,
      "499": 5192,
      "95": 5193,
      ">{": 5194,
      "X1": 5195,
      "qx": 5196,
      "//????????????????": 5197,
      "vi32": 5198,
      "?????": 5199,
      "ok2": 5200,
      "303": 5201,
      "Make": 5202,
      "my_gcd": 5203,
      "COUT": 5204,
      "()));++": 5205,
      "100000000000000": 5206,
      "append": 5207,
      "allocator": 5208,
      "70": 5209,
      "MC": 5210,
      "_query": 5211,
      "fma": 5212,
      "hor": 5213,
      "p_c": 5214,
      "u1": 5215,
      "cntr": 5216,
      "mods": 5217,
      "],*": 5218,
      "MOD_": 5219,
      "quest": 5220,
      "factMod": 5221,
      "_bi": 5222,
      "less_equal": 5223,
      "TESTS": 5224,
      ")]+": 5225,
      "6f": 5226,
      "CIN": 5227,
      "bcnt": 5228,
      "npr": 5229,
      "least": 5230,
      "maxl": 5231,
      "tmp_a": 5232,
      "direct": 5233,
      "In_map": 5234,
      "GetDigit": 5235,
      "KIHBR": 5236,
      "123456": 5237,
      "JPY": 5238,
      "atmp": 5239,
      "ed_": 5240,
      "pqrs": 5241,
      "[]={-": 5242,
      "2000001": 5243,
      "MACRO_VAR": 5244,
      "modncrlistm": 5245,
      "MACRO_VAR_Scan": 5246,
      "A3": 5247,
      "Floyd": 5248,
      "HH": 5249,
      "intpow": 5250,
      "deci": 5251,
      "151": 5252,
      "2000000000000": 5253,
      "ski": 5254,
      "heights": 5255,
      "add_self": 5256,
      "finished": 5257,
      "Element": 5258,
      "d10": 5259,
      "umin": 5260,
      "trunc": 5261,
      "bucket": 5262,
      "indexes": 5263,
      "Dele": 5264,
      "hai": 5265,
      "mit": 5266,
      "ansb": 5267,
      "a_i": 5268,
      "triple": 5269,
      "},{-": 5270,
      "distances": 5271,
      "buildMaxHeap": 5272,
      "1100": 5273,
      "Gen": 5274,
      "f_": 5275,
      "ros": 5276,
      "thi": 5277,
      "who": 5278,
      "oro": 5279,
      "dists": 5280,
      "]=='<": 5281,
      "nextInt": 5282,
      "mod_int": 5283,
      "Roll": 5284,
      ">-": 5285,
      "Si": 5286,
      "qy": 5287,
      "tere": 5288,
      "id2": 5289,
      "])]": 5290,
      "counta": 5291,
      "niz": 5292,
      "\"=>\"": 5293,
      "<<\"#\";": 5294,
      ")])": 5295,
      "210": 5296,
      "4e5": 5297,
      "Pnt": 5298,
      "ency": 5299,
      "mpty": 5300,
      "data2": 5301,
      "week": 5302,
      ")+=": 5303,
      ",+": 5304,
      "Day": 5305,
      "LONG": 5306,
      "SQ": 5307,
      "]};": 5308,
      "_length": 5309,
      "aver": 5310,
      "bst": 5311,
      "exp2": 5312,
      "jud": 5313,
      "erated": 5314,
      "morty": 5315,
      "em": 5316,
      "cins": 5317,
      "printv": 5318,
      "que1": 5319,
      "heads": 5320,
      "'#');": 5321,
      "LLONG_MAX": 5322,
      "kyori": 5323,
      "BellmanFord": 5324,
      "RepeatSquaring": 5325,
      "[][": 5326,
      "_ll": 5327,
      "any": 5328,
      "answ": 5329,
      "103": 5330,
      "1000100": 5331,
      "onest": 5332,
      "IME": 5333,
      ",!": 5334,
      "EA": 5335,
      "From": 5336,
      "YA": 5337,
      "_MIN": 5338,
      "_ROW": 5339,
      "i8": 5340,
      "third": 5341,
      "max_y": 5342,
      ")='": 5343,
      "ween": 5344,
      "chkmax": 5345,
      "'*';": 5346,
      "VEC_ROW": 5347,
      "kouho": 5348,
      "MACRO_VEC_ROW": 5349,
      "Empty": 5350,
      "Two": 5351,
      "nbr": 5352,
      "vbool": 5353,
      "llround": 5354,
      "des": 5355,
      "leng": 5356,
      "checker": 5357,
      "pq2": 5358,
      "bridge": 5359,
      "_to_int": 5360,
      "DisjointSet": 5361,
      "58": 5362,
      "Lf": 5363,
      "ofs": 5364,
      "u2": 5365,
      "():": 5366,
      "__last": 5367,
      "classify": 5368,
      "tmp3": 5369,
      "deg2": 5370,
      "Koch": 5371,
      "TOP": 5372,
      "pss": 5373,
      "ump": 5374,
      "wl": 5375,
      "cted": 5376,
      "pair_var": 5377,
      "))*(": 5378,
      "LEFT": 5379,
      "sup": 5380,
      "invf": 5381,
      "Multi": 5382,
      "CalcSumOfDigit": 5383,
      "sortbysec": 5384,
      "aft": 5385,
      "ule": 5386,
      "toward": 5387,
      "MAXV": 5388,
      "\"<<(*": 5389,
      "min_x": 5390,
      "wei": 5391,
      "PQ_A": 5392,
      "kv": 5393,
      "lt_": 5394,
      "anst": 5395,
      "1e13": 5396,
      "ople": 5397,
      "|||": 5398,
      "MAXcomb": 5399,
      "finite": 5400,
      "powerM": 5401,
      "\":\";": 5402,
      "300001": 5403,
      ")(((": 5404,
      "1p": 5405,
      "Dy": 5406,
      "TA": 5407,
      "ipair": 5408,
      "jsp": 5409,
      "tsort": 5410,
      "}();": 5411,
      "reps": 5412,
      "ans0": 5413,
      "unordered": 5414,
      "isinf": 5415,
      "parse": 5416,
      "359": 5417,
      "ACE": 5418,
      "rail": 5419,
      "??????????????": 5420,
      "H2": 5421,
      "OS": 5422,
      "[%": 5423,
      "dStr": 5424,
      "lw": 5425,
      "xd": 5426,
      "lake": 5427,
      "erf": 5428,
      "1002": 5429,
      "exten": 5430,
      "1000001000": 5431,
      "ALD": 5432,
      "FacInvMod": 5433,
      "1415926535897932384626433832795028": 5434,
      "\"...": 5435,
      "mw": 5436,
      "mmax": 5437,
      "nGroup": 5438,
      "001": 5439,
      "maxnum": 5440,
      "alt": 5441,
      "ply": 5442,
      "LCS": 5443,
      "nexta": 5444,
      "magic": 5445,
      "Delete": 5446,
      "Dp": 5447,
      "ve_": 5448,
      "pred": 5449,
      "uru": 5450,
      "rror": 5451,
      "memo2": 5452,
      "total_": 5453,
      "palindrome": 5454,
      "deg2rad": 5455,
      "rvn": 5456,
      "w3": 5457,
      "}//": 5458,
      "__as": 5459,
      "]='#';": 5460,
      "frac": 5461,
      "find_root": 5462,
      "lgamma": 5463,
      "isSame": 5464,
      "sosu": 5465,
      "H1": 5466,
      "VPLL": 5467,
      "mst": 5468,
      "ssum": 5469,
      "uri": 5470,
      "ample": 5471,
      "maxNum": 5472,
      "));++(": 5473,
      "ries": 5474,
      "topo": 5475,
      "max_i": 5476,
      "a_sum": 5477,
      "oice": 5478,
      "Indexed": 5479,
      "AKIHABARA": 5480,
      "description": 5481,
      "appear": 5482,
      "ppi": 5483,
      "];//": 5484,
      "pairCompare": 5485,
      "rtn": 5486,
      "people": 5487,
      "byint": 5488,
      "sosuu": 5489,
      "tgamma": 5490,
      "nearbyint": 5491,
      "average": 5492,
      "nextafter": 5493,
      "&,": 5494,
      ")'": 5495,
      ",--": 5496,
      "]&(": 5497,
      "fdim": 5498,
      "ilogb": 5499,
      "lrint": 5500,
      "ldexp": 5501,
      "vT": 5502,
      "llrint": 5503,
      "];;": 5504,
      "chang": 5505,
      "erfc": 5506,
      "isgrea": 5507,
      "isgreater": 5508,
      "isnormal": 5509,
      "isles": 5510,
      "isnan": 5511,
      "isfinite": 5512,
      "isunordered": 5513,
      "nexttoward": 5514,
      "frexp": 5515,
      "acosh": 5516,
      "min_y": 5517,
      "bln": 5518,
      "remquo": 5519,
      "expm1": 5520,
      "log1p": 5521,
      "sinh": 5522,
      "atanh": 5523,
      "cosh": 5524,
      "rad2": 5525,
      "copysign": 5526,
      "asinh": 5527,
      "tanh": 5528,
      "fpclassify": 5529,
      "scalbn": 5530,
      "scalbln": 5531,
      "islessgreater": 5532,
      "terequal": 5533,
      "isgreaterequal": 5534,
      "islessequal": 5535,
      "mr": 5536,
      "rw": 5537,
      "parator": 5538,
      "rank2": 5539,
      "(;!": 5540,
      "highest": 5541,
      "500001": 5542,
      "seive": 5543,
      "groups": 5544,
      "BO": 5545,
      "RIGHT": 5546,
      "kn": 5547,
      "lucas": 5548,
      "v4": 5549,
      "cke": 5550,
      "isO": 5551,
      "buy": 5552,
      "nip": 5553,
      "Total": 5554,
      "zen": 5555,
      "()=='": 5556,
      "__a": 5557,
      "local": 5558,
      "Warshall": 5559,
      "'(": 5560,
      "C_": 5561,
      "Pin": 5562,
      "gf": 5563,
      "min2": 5564,
      "pq1": 5565,
      "Male": 5566,
      "v_int": 5567,
      "drink": 5568,
      "+\"": 5569,
      "fb": 5570,
      "()<=": 5571,
      "100007": 5572,
      "clid": 5573,
      "INT_INF": 5574,
      "numerator": 5575,
      "YAKI": 5576,
      "rad2deg": 5577,
      "]^=": 5578,
      "each": 5579,
      "ian": 5580,
      "m0": 5581,
      "ansh": 5582,
      "irange": 5583,
      "maxDist": 5584,
      "sumr": 5585,
      "moto": 5586,
      "minCost": 5587,
      "INFi": 5588,
      "]+'": 5589,
      "_black": 5590,
      "reached": 5591,
      "friend": 5592,
      "\"<": 5593,
      "HW": 5594,
      "_in": 5595,
      "fld": 5596,
      "game": 5597,
      "uft": 5598,
      "zon": 5599,
      "conj": 5600,
      "chota": 5601,
      "]=((": 5602,
      "setfill": 5603,
      "setDepth": 5604,
      "min_index": 5605,
      "3779": 5606,
      "]=='?'){": 5607,
      "custom": 5608,
      "gyaku_kaijo_memo": 5609,
      "2500": 5610,
      "DWORD": 5611,
      "The": 5612,
      "e3779": 5613,
      "vmax": 5614,
      "wmax": 5615,
      "enqueue": 5616,
      "LL_INF": 5617,
      "min_dist": 5618,
      "9999999999": 5619,
      "ulative": 5620,
      "e3779b9": 5621,
      "CP": 5622,
      "hid": 5623,
      "tk": 5624,
      "sibling": 5625,
      "arget": 5626,
      "dpl": 5627,
      "])>": 5628,
      "]='.';": 5629,
      "num3": 5630,
      "dis2": 5631,
      "ok1": 5632,
      "helper": 5633,
      "a_max": 5634,
      "0x9e3779b9": 5635,
      "SelectionSort": 5636,
      "'==": 5637,
      "311": 5638,
      "3e3": 5639,
      "R2": 5640,
      "UPP": 5641,
      "father": 5642,
      "vsum": 5643,
      "__init": 5644,
      "oss_": 5645,
      "reader": 5646,
      "i_max": 5647,
      "frame": 5648,
      "track": 5649,
      "norm": 5650,
      "suffix": 5651,
      "ADD": 5652,
      "__asm": 5653,
      "UPPER": 5654,
      "Ofast": 5655,
      "Ti": 5656,
      "_add": 5657,
      "_case": 5658,
      "pret": 5659,
      "wt_": 5660,
      "ret2": 5661,
      "pay": 5662,
      "++));": 5663,
      "<<\"=": 5664,
      "rial": 5665,
      "solved": 5666,
      "poz": 5667,
      "pql": 5668,
      "path_": 5669,
      "default_": 5670,
      "tmp_ans": 5671,
      "Base": 5672,
      "_Value": 5673,
      "e_": 5674,
      "food": 5675,
      "uint64": 5676,
      "|=(": 5677,
      "contest": 5678,
      "larg": 5679,
      "minator": 5680,
      "modc": 5681,
      "numOf": 5682,
      "1919": 5683,
      "2000005": 5684,
      "between": 5685,
      "i4": 5686,
      "pool": 5687,
      "Nodes": 5688,
      "prev_": 5689,
      "g_": 5690,
      "hc": 5691,
      "sf": 5692,
      "in_c": 5693,
      "ory": 5694,
      "<<','": 5695,
      "toms": 5696,
      "])!=": 5697,
      "findRoot": 5698,
      "data1": 5699,
      "shr": 5700,
      "writeln": 5701,
      "MAX_M": 5702,
      "ABS": 5703,
      "pwur": 5704,
      "74209": 5705,
      "denominator": 5706,
      "toms74209": 5707,
      "toms74209200": 5708,
      "Ju": 5709,
      "Pdd": 5710,
      "b0": 5711,
      "kt": 5712,
      "rch": 5713,
      "many": 5714,
      "past": 5715,
      "dia": 5716,
      "submask": 5717,
      "disable": 5718,
      "warn": 5719,
      "Solver": 5720,
      "123456789": 5721,
      "ALDS1": 5722,
      "04": 5723,
      "UI": 5724,
      "ik": 5725,
      "pcnt": 5726,
      "engin": 5727,
      "cei": 5728,
      "maxw": 5729,
      "(\"?": 5730,
      "edg": 5731,
      "??????????": 5732,
      "min_num": 5733,
      "initializer_list": 5734,
      "<<','<<": 5735,
      "dai": 5736,
      "full": 5737,
      "smin": 5738,
      "tou": 5739,
      "seti": 5740,
      "resp": 5741,
      "9999999": 5742,
      "wait": 5743,
      ")!='": 5744,
      "2000000000000000000": 5745,
      "wt_L": 5746,
      "Link": 5747,
      "R1": 5748,
      "bor": 5749,
      "js": 5750,
      "++((": 5751,
      "attack": 5752,
      "todo": 5753,
      "doubling": 5754,
      "solve1": 5755,
      "readchar": 5756,
      "v_ll": 5757,
      "surface": 5758,
      "Chan": 5759,
      "Has": 5760,
      "Now": 5761,
      "RL": 5762,
      "Vs": 5763,
      "prvec": 5764,
      "sumx": 5765,
      "))))": 5766,
      "VVV": 5767,
      "'+':": 5768,
      "SETI": 5769,
      "original": 5770,
      "happy": 5771,
      "And": 5772,
      "iy": 5773,
      "rnt": 5774,
      "minb": 5775,
      "]))%": 5776,
      "solve2": 5777,
      "lity": 5778,
      "topological": 5779,
      "adjlist": 5780,
      "min_val": 5781,
      "combs": 5782,
      "195": 5783,
      "cmp2": 5784,
      "KIHBRA": 5785,
      "<<\"]\";": 5786,
      "3F3F": 5787,
      "changed": 5788,
      "acnt": 5789,
      "x00": 5790,
      "===": 5791,
      "modnCr": 5792,
      "//????????????????????????????????": 5793,
      "isalpha": 5794,
      "node_num": 5795,
      "inf_l": 5796,
      "positions": 5797,
      ",%": 5798,
      "Ce": 5799,
      "Dx": 5800,
      "Tuple": 5801,
      "Trg": 5802,
      "qry": 5803,
      "sse": 5804,
      "id1": 5805,
      "')'": 5806,
      "shuff": 5807,
      "digsum": 5808,
      "nullptr": 5809,
      "tmpa": 5810,
      "KIHABR": 5811,
      "3LL": 5812,
      "cities": 5813,
      "six": 5814,
      "diameter": 5815,
      "now2": 5816,
      "1800": 5817,
      "rgt": 5818,
      "]=='.'": 5819,
      "]=='.'&&": 5820,
      "layer": 5821,
      "left_child": 5822,
      "interval": 5823,
      "warning": 5824,
      "LG": 5825,
      "XOR": 5826,
      "ud": 5827,
      "vch": 5828,
      "ysum": 5829,
      "dps": 5830,
      "modi": 5831,
      "<<\"+": 5832,
      "<<\".": 5833,
      "Divisor": 5834,
      "202020": 5835,
      "INF_LL": 5836,
      "south": 5837,
      "KIHBARA": 5838,
      "\"));": 5839,
      "1L": 5840,
      "4500": 5841,
      "Lower": 5842,
      "PS": 5843,
      "fra": 5844,
      "stm": 5845,
      "pacity": 5846,
      "boo": 5847,
      "!='": 5848,
      "vvvll": 5849,
      "\")<<\"\\": 5850,
      "0x3": 5851,
      "]!='\\": 5852,
      "min_v": 5853,
      "C0": 5854,
      "Ks": 5855,
      "Tmp": 5856,
      "a7": 5857,
      "bra": 5858,
      "oS": 5859,
      "maxd": 5860,
      "print2d": 5861,
      "<<\"[\";": 5862,
      "prep": 5863,
      "acum": 5864,
      "pqll": 5865,
      "min_diff": 5866,
      "dices": 5867,
      "MMM": 5868,
      "KIHABRA": 5869,
      "'\\\\')": 5870,
      "in_clz": 5871,
      "shuffle": 5872,
      "68": 5873,
      "S_": 5874,
      "_dp": 5875,
      "}});": 5876,
      "ans4": 5877,
      "MOD3": 5878,
      "diff_t": 5879,
      "cyc": 5880,
      "__builtin_clz": 5881,
      "FacMod": 5882,
      "4996": 5883,
      "ae": 5884,
      "dg": 5885,
      "mno": 5886,
      "oh": 5887,
      "{//": 5888,
      "sumy": 5889,
      "tools": 5890,
      "chars": 5891,
      "15f": 5892,
      "141592653589793238463": 5893,
      "prefix_sum": 5894,
      "Error": 5895,
      "My": 5896,
      "r0": 5897,
      "rat": 5898,
      "dpCom": 5899,
      "100004": 5900,
      "lines": 5901,
      "robo": 5902,
      "uriden": 5903,
      "vvpl": 5904,
      "32_t": 5905,
      "compress": 5906,
      "kyuriden": 5907,
      "10e17": 5908,
      "Generated": 5909,
      "dpComTableLIMIT": 5910,
      "kyuridenamida": 5911,
      "ail": 5912,
      "])]++;": 5913,
      "107": 5914,
      "tips": 5915,
      "]=++": 5916,
      "die": 5917,
      "edges_": 5918,
      "]={'": 5919,
      "12f": 5920,
      "InputIterator": 5921,
      "'-':": 5922,
      "BinaryIndexed": 5923,
      "Diff": 5924,
      "141592653589793238462643383279502884": 5925,
      "BinaryIndexedTree": 5926,
      "\").": 5927,
      "nMax": 5928,
      "ingSort": 5929,
      "++))": 5930,
      "vote": 5931,
      "18124": 5932,
      "vllvll": 5933,
      "max_s": 5934,
      "adjList": 5935,
      "has_": 5936,
      "keta_": 5937,
      "postParse": 5938,
      "shortest_path": 5939,
      "BR": 5940,
      "BS": 5941,
      "e9": 5942,
      "k_num": 5943,
      "rh": 5944,
      "arri": 5945,
      "ready": 5946,
      "pic": 5947,
      "*(--": 5948,
      "cmp1": 5949,
      "smallest": 5950,
      "'}';": 5951,
      "kx": 5952,
      "wc": 5953,
      "(\",": 5954,
      "tity": 5955,
      "dfs_": 5956,
      "ulus": 5957,
      "())){": 5958,
      "min_a": 5959,
      "PrimeFactor": 5960,
      "'[')": 5961,
      "799": 5962,
      "[-": 5963,
      "_digit": 5964,
      "cst": 5965,
      "m3": 5966,
      "nck": 5967,
      "sumt": 5968,
      "char_": 5969,
      "which": 5970,
      "Coder": 5971,
      "yesno": 5972,
      "multiple": 5973,
      "]>='": 5974,
      "chkmin": 5975,
      "compare_by": 5976,
      "passed": 5977,
      "MINF": 5978,
      "e6": 5979,
      "fm": 5980,
      "both": 5981,
      "cntw": 5982,
      "person": 5983,
      "_cap": 5984,
      "memcpy": 5985,
      "adjac": 5986,
      "candy": 5987,
      "regex": 5988,
      "47359": 5989,
      "fast_readchar": 5990,
      "saiki": 5991,
      "Partition": 5992,
      "1812447359": 5993,
      "34": 5994,
      "CD": 5995,
      "msum": 5996,
      "space": 5997,
      "say": 5998,
      "1e14": 5999,
      "INF32": 6000,
      "data_": 6001,
      "cmb": 6002,
      "clue": 6003,
      "pwr": 6004,
      "zzle": 6005,
      "07": 6006,
      "500000000": 6007,
      "DX": 6008,
      "Sa": 6009,
      "bit2": 6010,
      "hey": 6011,
      "]%(": 6012,
      "2002": 6013,
      "=\"\",": 6014,
      "replacedStr": 6015,
      "````````": 6016,
      "Move": 6017,
      "n_num": 6018,
      "wb": 6019,
      "section": 6020,
      "zeros": 6021,
      "itv": 6022,
      "thod": 6023,
      "LEN": 6024,
      "acci": 6025,
      "migi": 6026,
      "ranks": 6027,
      "555": 6028,
      "50001": 6029,
      "allocator_type": 6030,
      ",!?": 6031,
      "]*=": 6032,
      "nin": 6033,
      "pla": 6034,
      "tgt": 6035,
      "yc": 6036,
      "llll": 6037,
      "rnum": 6038,
      "vectors": 6039,
      "atos": 6040,
      ")))%": 6041,
      "sco": 6042,
      "apple": 6043,
      "common": 6044,
      "poi": 6045,
      "member": 6046,
      "copyright": 6047,
      "unionfind": 6048,
      "'*':": 6049,
      "0x7f7f7f7f": 6050,
      "shrine": 6051,
      "/((": 6052,
      "CNT": 6053,
      "O3": 6054,
      "created": 6055,
      "more": 6056,
      "nPr": 6057,
      "(\"!": 6058,
      "modd": 6059,
      "')%": 6060,
      "isF": 6061,
      "dx2": 6062,
      "1400": 6063,
      "input1": 6064,
      "_copy": 6065,
      "shou": 6066,
      "query_sub": 6067,
      "raits": 6068,
      "imum": 6069,
      "FOR": 6070,
      "aoki": 6071,
      "hmax": 6072,
      "imp": 6073,
      "qll": 6074,
      "uti": 6075,
      "anum": 6076,
      "szi": 6077,
      "2000010": 6078,
      "updated": 6079,
      "kai_": 6080,
      "stable_sort": 6081,
      "'>')": 6082,
      "SW": 6083,
      "Wri": 6084,
      "c15": 6085,
      "pvec": 6086,
      "inOrder": 6087,
      ");--": 6088,
      "10LL": 6089,
      "preOrder": 6090,
      "mid2": 6091,
      "\")<<'\\": 6092,
      "max_cnt": 6093,
      "Unite": 6094,
      "ptrdiff_t": 6095,
      "ttt": 6096,
      "elements": 6097,
      "_check": 6098,
      "bdd": 6099,
      "z1": 6100,
      "in1": 6101,
      "rela": 6102,
      "mand": 6103,
      "choice": 6104,
      "10000000000000": 6105,
      "]++;}": 6106,
      "raph_": 6107,
      "mic": 6108,
      "vvii": 6109,
      "optimizeIO": 6110,
      "Fenwick": 6111,
      "AtCoder": 6112,
      ")});": 6113,
      "anc": 6114,
      "c_p_c": 6115,
      "pow9": 6116,
      "ostream_iterator": 6117,
      "read_from": 6118,
      "1199": 6119,
      "ield": 6120,
      "larger": 6121,
      "read_from_cin": 6122,
      "/=(": 6123,
      "ALP": 6124,
      "c5": 6125,
      "zan": 6126,
      "separator": 6127,
      "__h": 6128,
      "added": 6129,
      "dist1": 6130,
      "10001000": 6131,
      "subs": 6132,
      "``.": 6133,
      "current_": 6134,
      "?\"\":\"": 6135,
      "PQ_ASK": 6136,
      "Judge": 6137,
      "Change": 6138,
      "keta_wa": 6139,
      "-((": 6140,
      ">()": 6141,
      "XH": 6142,
      "_pair": 6143,
      "sun": 6144,
      "vol": 6145,
      "diag": 6146,
      "pre_": 6147,
      "sump": 6148,
      "]]!=": 6149,
      "max_count": 6150,
      "cases": 6151,
      "uf2": 6152,
      "1415926535897932384626433": 6153,
      "device": 6154,
      "14159265358979323846264338327950288419": 6155,
      "^^": 6156,
      "xv": 6157,
      "zs": 6158,
      "mass": 6159,
      "ansx": 6160,
      "dpr": 6161,
      "bas": 6162,
      ";});": 6163,
      "poss": 6164,
      "isP": 6165,
      "mulmod": 6166,
      "x1B": 6167,
      "card1": 6168,
      "ordered_multiset": 6169,
      "multimap": 6170,
      "uint16_t": 6171,
      "5000000": 6172,
      "SUM_": 6173,
      "sheep": 6174,
      "tuv": 6175,
      "'/':": 6176,
      "island": 6177,
      ")>;": 6178,
      "2D": 6179,
      "53": 6180,
      "Field": 6181,
      "High": 6182,
      "KAI": 6183,
      "Y2": 6184,
      "_temp": 6185,
      "cba": 6186,
      "crt": 6187,
      "flower": 6188,
      "uts": 6189,
      "chan": 6190,
      "erd": 6191,
      "<<\"?": 6192,
      "prec": 6193,
      "index1": 6194,
      "5050": 6195,
      "card2": 6196,
      "next_combination": 6197,
      "biggest": 6198,
      "print_vec": 6199,
      "maior": 6200,
      "1999": 6201,
      "220000": 6202,
      "kata": 6203,
      "pol": 6204,
      "za": 6205,
      "falt": 6206,
      "unroll": 6207,
      "pow6": 6208,
      "1599": 6209,
      "nxt_": 6210,
      "init_n": 6211,
      "VVD": 6212,
      "ToInt": 6213,
      "'[';": 6214,
      "Back": 6215,
      "faltu": 6216,
      "DM": 6217,
      "LIS": 6218,
      "Lim": 6219,
      "mcnt": 6220,
      "wpw": 6221,
      "yama": 6222,
      "maerd": 6223,
      "countb": 6224,
      "licit": 6225,
      "explicit": 6226,
      "sheet": 6227,
      "=='-'){": 6228,
      "BIG_": 6229,
      "random_device": 6230,
      "wpwpw": 6231,
      "Cap": 6232,
      "Rot": 6233,
      "Vll": 6234,
      "Yn": 6235,
      "tll": 6236,
      "wari": 6237,
      "{+": 6238,
      "and_": 6239,
      "ani1": 6240,
      "numb": 6241,
      "undy": 6242,
      "ternT": 6243,
      "fspattern": 6244,
      "grundy": 6245,
      "ttl": 6246,
      "aken": 6247,
      "inserter": 6248,
      "06d": 6249,
      "iformax": 6250,
      ";*/": 6251,
      "Grid": 6252,
      "TR": 6253,
      "bnum": 6254,
      "ea": 6255,
      "tor": 6256,
      "maxX": 6257,
      "100006": 6258,
      "robot": 6259,
      "MAT": 6260,
      "index2": 6261,
      "({{": 6262,
      "adj_list": 6263,
      "ctionary": 6264,
      "COUN": 6265,
      "problem": 6266,
      "uint_": 6267,
      "north": 6268,
      "correct": 6269,
      "1145141919": 6270,
      "rmq": 6271,
      "****************************************": 6272,
      "\"####################": 6273,
      "Walk": 6274,
      "fit": 6275,
      "iINF": 6276,
      "lang": 6277,
      "red_": 6278,
      "ifi": 6279,
      "ma2": 6280,
      "';;": 6281,
      "INT_MIN": 6282,
      "nullptr_t": 6283,
      "reserved": 6284,
      "cnrvn": 6285,
      "chedule": 6286,
      "410": 6287,
      "MO": 6288,
      "WW": 6289,
      "_MOD": 6290,
      "fv": 6291,
      "gp": 6292,
      "san": 6293,
      "uint32": 6294,
      "ansl": 6295,
      "look": 6296,
      "vvP": 6297,
      "xxx": 6298,
      "20001": 6299,
      "1001001001001001001ll": 6300,
      "_7": 6301,
      "b4": 6302,
      "f3": 6303,
      "kruskal": 6304,
      "m5": 6305,
      "rvo": 6306,
      "lls": 6307,
      "ret1": 6308,
      "fall": 6309,
      "max_f": 6310,
      "suml": 6311,
      "cnt_b": 6312,
      "//????????????????????": 6313,
      "now1": 6314,
      "root_id": 6315,
      "\")==": 6316,
      "readInt": 6317,
      "302": 6318,
      "max_sum": 6319,
      "MAX_W": 6320,
      "VII": 6321,
      "myPow": 6322,
      "fastpow": 6323,
      "hasil": 6324,
      "PQP": 6325,
      "_end_": 6326,
      "candidates": 6327,
      "ject": 6328,
      "?'\\": 6329,
      "Bu": 6330,
      "LU": 6331,
      "_all": 6332,
      "_fast_io": 6333,
      "crr": 6334,
      "dame": 6335,
      "hold": 6336,
      "te_": 6337,
      "ded_": 6338,
      "ch2": 6339,
      "back_": 6340,
      "puta": 6341,
      "MAX5": 6342,
      "vlli": 6343,
      "VVl": 6344,
      "frag": 6345,
      "_times": 6346,
      "shortest": 6347,
      "1000000000000000007": 6348,
      "hidari": 6349,
      "Mx": 6350,
      "PN": 6351,
      "Sb": 6352,
      "bg": 6353,
      "kMod": 6354,
      "1e2": 6355,
      "tmp_b": 6356,
      "tai": 6357,
      "pllint": 6358,
      "1000003": 6359,
      "ddle": 6360,
      "n_min": 6361,
      "elm": 6362,
      "'-'){": 6363,
      "Loop": 6364,
      "864": 6365,
      "Func": 6366,
      "OT": 6367,
      "VPi": 6368,
      "pts": 6369,
      "x_max": 6370,
      "modify": 6371,
      "vip": 6372,
      "mid1": 6373,
      "tain": 6374,
      "mulMod": 6375,
      "digit_sum": 6376,
      "odds": 6377,
      "mod_inverse": 6378,
      "floyd": 6379,
      "<<'('": 6380,
      "dom": 6381,
      "hashi": 6382,
      "@@@@@@@@@@@@@@@@": 6383,
      "COUNT": 6384,
      "Y1": 6385,
      "bv": 6386,
      "dbl": 6387,
      "ile": 6388,
      "kMax": 6389,
      "slo": 6390,
      "dequeue": 6391,
      "maxp": 6392,
      "era": 6393,
      "')||(": 6394,
      "dist2": 6395,
      "buf2": 6396,
      "InOrder": 6397,
      "sqrtn": 6398,
      "component": 6399,
      "bip": 6400,
      "marge": 6401,
      "PreOrder": 6402,
      "TTOM": 6403,
      "BOTTOM": 6404,
      "<<'('<<": 6405,
      "AS": 6406,
      "DY": 6407,
      "fro": 6408,
      "iinf": 6409,
      "strn": 6410,
      "conbination": 6411,
      "nth": 6412,
      "dij": 6413,
      "inv_": 6414,
      "]=='>": 6415,
      "cost2": 6416,
      "0x00": 6417,
      "compte": 6418,
      "ference": 6419,
      "III": 6420,
      "Big": 6421,
      "(\".\");": 6422,
      "<<\"+\"<<": 6423,
      ",++": 6424,
      ":*": 6425,
      "Cr": 6426,
      "Item": 6427,
      "cen": 6428,
      "ij": 6429,
      "seat": 6430,
      "ansy": 6431,
      "mov": 6432,
      "char_to_int": 6433,
      "modvalue": 6434,
      "beau": 6435,
      "rock": 6436,
      "oturi": 6437,
      "cost1": 6438,
      "buf1": 6439,
      "orizon": 6440,
      "write_to_": 6441,
      "march": 6442,
      "dqll": 6443,
      "WarshallFloyd": 6444,
      "SUM_UNITY": 6445,
      "write_to_cout": 6446,
      "Amt": 6447,
      "ire": 6448,
      "s32": 6449,
      "yj": 6450,
      "laz": 6451,
      "proc": 6452,
      "])<": 6453,
      "printvec": 6454,
      "vvstr": 6455,
      "**)": 6456,
      "candi": 6457,
      "UnionFindTree": 6458,
      "t_sum": 6459,
      "fect": 6460,
      "women": 6461,
      "Reverse": 6462,
      "1000000010": 6463,
      "new_dp": 6464,
      "7777": 6465,
      "bdda": 6466,
      "0m": 6467,
      "Bot": 6468,
      "En": 6469,
      "a5": 6470,
      "retval": 6471,
      "tiii": 6472,
      "that": 6473,
      "hello": 6474,
      "Uni": 6475,
      "min_value": 6476,
      "dice1": 6477,
      "uint8_t": 6478,
      "elemnt": 6479,
      "window": 6480,
      "OUTPUT": 6481,
      "house": 6482,
      "5e18": 6483,
      ">*": 6484,
      "hsum": 6485,
      "lch": 6486,
      "108": 6487,
      "div2": 6488,
      "iso": 6489,
      "_flg": 6490,
      "max_index": 6491,
      "startTime": 6492,
      "ONG_": 6493,
      "------------------------------------------------": 6494,
      "increa": 6495,
      "Exist": 6496,
      "================================================": 6497,
      "jobs": 6498,
      "uint_fast": 6499,
      "PC": 6500,
      "_Char": 6501,
      "cf": 6502,
      "honest": 6503,
      "rj": 6504,
      "trees": 6505,
      "ense": 6506,
      "dev": 6507,
      "hight": 6508,
      "isUpper": 6509,
      "isEmpty": 6510,
      "tak": 6511,
      "stage": 6512,
      "_CharT": 6513,
      "78": 6514,
      "uid": 6515,
      "ina": 6516,
      "see": 6517,
      "//*/": 6518,
      "index_": 6519,
      "_each": 6520,
      "prime_array": 6521,
      "7f7f7f": 6522,
      "kuma": 6523,
      "0x7f7f7f7f7f": 6524,
      "Forward": 6525,
      "Bottom": 6526,
      "============================================================": 6527,
      "\"]=": 6528,
      "0u": 6529,
      "BG": 6530,
      "iend": 6531,
      "j_": 6532,
      "nf": 6533,
      "xt": 6534,
      "maki": 6535,
      "dem": 6536,
      "leave": 6537,
      "max_w": 6538,
      "1000006": 6539,
      "clk": 6540,
      "COL": 6541,
      "faces": 6542,
      "================================================================": 6543,
      "satis": 6544,
      "Div2Div2Div2Div2Div2Div2Div2Div2": 6545,
      "0x7f7f7f7f7f7f7f7f": 6546,
      "&);": 6547,
      "02": 6548,
      "Buff": 6549,
      "Mid": 6550,
      "vecin": 6551,
      "syo": 6552,
      "')?": 6553,
      "ldb": 6554,
      "reversed": 6555,
      "doit": 6556,
      "Rect": 6557,
      "cnk": 6558,
      "fibon": 6559,
      "alive": 6560,
      "SUB": 6561,
      "MOD_LL": 6562,
      ")//": 6563,
      "43": 6564,
      "CERR": 6565,
      "NODE": 6566,
      "SY": 6567,
      "_swap": 6568,
      "qt": 6569,
      "maX": 6570,
      "dy2": 6571,
      "bit1": 6572,
      "cheep": 6573,
      "VVB": 6574,
      "maxim": 6575,
      "revFlag": 6576,
      "revCap": 6577,
      "Setup": 6578,
      "nCrcheep": 6579,
      "sigma": 6580,
      "CMOD": 6581,
      "_dist": 6582,
      "r3": 6583,
      "rmax": 6584,
      "rain": 6585,
      "tpl": 6586,
      "for_": 6587,
      "temple": 6588,
      "109": 6589,
      "prints": 6590,
      "))-(": 6591,
      "')'){": 6592,
      "roo": 6593,
      "lowest": 6594,
      "1000007": 6595,
      "14159265358979323846L": 6596,
      "cum_sum": 6597,
      "Face": 6598,
      "ONT": 6599,
      "proble": 6600,
      "soma": 6601,
      "Position": 6602,
      "_M_t": 6603,
      "question": 6604,
      "!\"<<": 6605,
      "Block": 6606,
      "Cum": 6607,
      "]{};": 6608,
      "_cout": 6609,
      "umap": 6610,
      "zo": 6611,
      "stamp": 6612,
      "++\"": 6613,
      "extern_type": 6614,
      "count0": 6615,
      "||!": 6616,
      "fibl": 6617,
      "root_x": 6618,
      "3030": 6619,
      "bipartite": 6620,
      "weights": 6621,
      "bigger": 6622,
      "TypeInt": 6623,
      "custom_": 6624,
      "1100000": 6625,
      "5e3": 6626,
      "Can": 6627,
      "PAI": 6628,
      "XI": 6629,
      "`..": 6630,
      "kol": 6631,
      "xj": 6632,
      "inversion": 6633,
      "rel": 6634,
      "coor": 6635,
      "no_": 6636,
      "vvin": 6637,
      ");}};": 6638,
      "128_t": 6639,
      "Road": 6640,
      "removed": 6641,
      "dbgprint": 6642,
      "Begin": 6643,
      "broken": 6644,
      "PAIR": 6645,
      "'])": 6646,
      "4000000": 6647,
      "DAT": 6648,
      "dam": 6649,
      "ning": 6650,
      "__kuma": 6651,
      "<<\"=\"<<": 6652,
      "pow1": 6653,
      "112345": 6654,
      "pls": 6655,
      "home": 6656,
      "1001001001001001001LL": 6657,
      "my_abs": 6658,
      "kosuu": 6659,
      "char_to_string": 6660,
      "__kumaerr": 6661,
      "MQ": 6662,
      "Nmax": 6663,
      "Run": 6664,
      "_update": 6665,
      "kab": 6666,
      "vchar": 6667,
      "yr": 6668,
      "rez": 6669,
      "=='\\": 6670,
      "arm": 6671,
      "minc": 6672,
      "10ll": 6673,
      "scr": 6674,
      "meg": 6675,
      "')+": 6676,
      "getmin": 6677,
      "infl": 6678,
      "max_len": 6679,
      "10000005": 6680,
      "nibu": 6681,
      "Command": 6682,
      "areas": 6683,
      "median": 6684,
      "<<\"-\"<<": 6685,
      "success": 6686,
      "+\".": 6687,
      ",{": 6688,
      "Abs": 6689,
      "RONT": 6690,
      "]\"": 6691,
      "unt": 6692,
      "str3": 6693,
      "')&&": 6694,
      "lib": 6695,
      "piv": 6696,
      "mx4": 6697,
      "fact_": 6698,
      "0001": 6699,
      "[](){": 6700,
      "200009": 6701,
      "lication": 6702,
      "20005": 6703,
      "'.');": 6704,
      "cross_": 6705,
      "gth_": 6706,
      "omial": 6707,
      "'/')": 6708,
      "<<\"]\"<<": 6709,
      "zzzzzzzz": 6710,
      "_Hashtable": 6711,
      "Ind": 6712,
      "_range": 6713,
      "ais": 6714,
      "iint": 6715,
      "qc": 6716,
      "qwer": 6717,
      "__l": 6718,
      "minB": 6719,
      "))++;": 6720,
      "syu": 6721,
      "MAXM": 6722,
      "orig": 6723,
      "haskey": 6724,
      "11095": 6725,
      "fenwick": 6726,
      "QuickSort": 6727,
      "10611095": 6728,
      "engine": 6729,
      "BIG_NUM": 6730,
      "1061109567": 6731,
      "CA": 6732,
      "DS": 6733,
      "Sw": 6734,
      "Target": 6735,
      "dmax": 6736,
      "lcnt": 6737,
      "oya": 6738,
      "indices": 6739,
      "encod": 6740,
      "_taro": 6741,
      "101000": 6742,
      "root_": 6743,
      "my4": 6744,
      "capacity": 6745,
      "Conne": 6746,
      "testcases": 6747,
      "isOk": 6748,
      "ohara": 6749,
      "OB": 6750,
      "Sl": 6751,
      "aq": 6752,
      "d5": 6753,
      "pk": 6754,
      "rmin": 6755,
      "stick": 6756,
      "ll_gcd": 6757,
      "dead": 6758,
      "tempo": 6759,
      "--];": 6760,
      "!='-')": 6761,
      "=(*": 6762,
      "getcha": 6763,
      "pows": 6764,
      "input_": 6765,
      "shit": 6766,
      "=='+')": 6767,
      "newNode": 6768,
      "mymap": 6769,
      "222": 6770,
      "quick_sort": 6771,
      "Cond": 6772,
      "<<\"{\"<<": 6773,
      "array_output": 6774,
      "5f": 6775,
      "MI": 6776,
      "Prev": 6777,
      "Spe": 6778,
      "Xor": 6779,
      "]?\"": 6780,
      "_one": 6781,
      "_squ": 6782,
      "hb": 6783,
      "th_": 6784,
      "llt": 6785,
      "ans_list": 6786,
      "riLeft": 6787,
      "riRight": 6788,
      "hell": 6789,
      "max_value": 6790,
      "stair": 6791,
      "binomial": 6792,
      "fastIO": 6793,
      "counter_t": 6794,
      "_FACE": 6795,
      "active": 6796,
      "coef": 6797,
      "enum_divisors": 6798,
      "DICE_FACE": 6799,
      "default_counter_t": 6800,
      "-%": 6801,
      "bmin": 6802,
      "xo": 6803,
      "zip": 6804,
      "inst": 6805,
      "int8_t": 6806,
      "moddiv": 6807,
      "modInv": 6808,
      "already": 6809,
      "threes": 6810,
      "pre2": 6811,
      "time_point": 6812,
      "rgb": 6813,
      "Real": 6814,
      "sentence": 6815,
      "<<\"}\";}": 6816,
      "custom_hash": 6817,
      "*>": 6818,
      "73": 6819,
      "FRONT": 6820,
      "[]=": 6821,
      "_lower": 6822,
      "ccnt": 6823,
      "fla": 6824,
      "hw": 6825,
      "hgf": 6826,
      "ivec": 6827,
      "kji": 6828,
      "koro": 6829,
      "pcc": 6830,
      "xwv": 6831,
      "tetra": 6832,
      "fac_": 6833,
      "edcba": 6834,
      "104": 6835,
      "//#": 6836,
      "))/(": 6837,
      "LLP": 6838,
      "tmps": 6839,
      "diam": 6840,
      "inv_fact": 6841,
      "vvv": 6842,
      "]={{": 6843,
      "2000000001": 6844,
      "triangle": 6845,
      "MAX_H": 6846,
      "Points": 6847,
      "]=='#'": 6848,
      "''''": 6849,
      "ponml": 6850,
      "CHAR": 6851,
      "rqponml": 6852,
      "compare_by_b": 6853,
      "utsrqponml": 6854,
      "hgfedcba": 6855,
      "kjihgfedcba": 6856,
      "xwvutsrqponml": 6857,
      "xwvutsrqponmlkjihgfedcba": 6858,
      "_dice": 6859,
      "dan": 6860,
      "hun": 6861,
      "wcnt": 6862,
      "ym": 6863,
      "another": 6864,
      "labe": 6865,
      "maxH": 6866,
      "maxS": 6867,
      "((!": 6868,
      "come": 6869,
      "outv": 6870,
      "60LL": 6871,
      "buf_size": 6872,
      "_place": 6873,
      "zyxwvutsrqponmlkjihgfedcba": 6874,
      "Plus": 6875,
      "=='-',": 6876,
      "Limit": 6877,
      "!\";": 6878,
      "FA": 6879,
      "HIGH": 6880,
      "This": 6881,
      "gl": 6882,
      "lvl": 6883,
      "mP": 6884,
      "nP": 6885,
      "pmax": 6886,
      "w00": 6887,
      "xu": 6888,
      "invalid": 6889,
      "may": 6890,
      "()<<\"\\": 6891,
      "size2": 6892,
      "__src": 6893,
      "used_": 6894,
      "init_f": 6895,
      "NodeNum": 6896,
      "__from": 6897,
      "logger": 6898,
      "radi": 6899,
      "@@@@@@": 6900,
      "__dest": 6901,
      "\".,!?": 6902,
      "MXN": 6903,
      "acter": 6904,
      "RRR": 6905,
      "repeat_squ": 6906,
      "kekka": 6907,
      "repeat_squaring": 6908,
      "Cmp": 6909,
      "bar": 6910,
      "t4": 6911,
      "tlen": 6912,
      "ans_s": 6913,
      "lev": 6914,
      "osflags": 6915,
      "tmpx": 6916,
      "isan": 6917,
      "2015": 6918,
      "hei": 6919,
      "]]>=": 6920,
      "2003": 6921,
      "MAX_NUM": 6922,
      "output1": 6923,
      "mod_add": 6924,
      ")];}": 6925,
      "READ": 6926,
      "Match": 6927,
      "problems": 6928,
      "3lf": 6929,
      "Li": 6930,
      "ped": 6931,
      "rit": 6932,
      "uit": 6933,
      "~.": 6934,
      "ints": 6935,
      "stand": 6936,
      "chain": 6937,
      "gem": 6938,
      "****/": 6939,
      "99999999999": 6940,
      "BitMatrix": 6941,
      "BinarySearch": 6942,
      "vertical": 6943,
      "0f0f": 6944,
      "anstmp": 6945,
      "ckets": 6946,
      "back_inserter": 6947,
      "N1": 6948,
      "Ran": 6949,
      "RMQ": 6950,
      "]--;}": 6951,
      "iw": 6952,
      "n5": 6953,
      "p10": 6954,
      "madd": 6955,
      "constr": 6956,
      "<=((": 6957,
      "cnt_1": 6958,
      "minp": 6959,
      "present": 6960,
      "but": 6961,
      "\")){": 6962,
      "MAX_SIZE": 6963,
      "disp": 6964,
      "###": 6965,
      "Unionfind": 6966,
      "ordered_map": 6967,
      "DER": 6968,
      "Valid": 6969,
      "matrix_": 6970,
      "get_digit": 6971,
      "binary_": 6972,
      "Contain": 6973,
      "connected": 6974,
      "abc_17": 6975,
      "latter": 6976,
      "\"####################\"": 6977,
      "===============================================================": 6978,
      "0b": 6979,
      "3e18": 6980,
      "4a7": 6981,
      ";~": 6982,
      "AO": 6983,
      "Used": 6984,
      "_odd": 6985,
      "_debug": 6986,
      "_Init": 6987,
      "rcnt": 6988,
      "tit": 6989,
      "male": 6990,
      "iri": 6991,
      "modulus": 6992,
      "viz": 6993,
      "1000000005": 6994,
      "getKey": 6995,
      "ullong": 6996,
      "user": 6997,
      "milli": 6998,
      "write_pos": 6999,
      "Nums": 7000,
      "INT64_MAX": 7001,
      "1000000000000000000LL": 7002,
      "<<\":(\"<<": 7003,
      "bf5": 7004,
      "recursi": 7005,
      "Curve": 7006,
      "meguru": 7007,
      "+%": 7008,
      "4d0": 7009,
      "6d1": 7010,
      "={-": 7011,
      "TIME": 7012,
      "aab": 7013,
      "bh": 7014,
      "b_cnt": 7015,
      "nz": 7016,
      "nNum": 7017,
      "in2": 7018,
      "orted": 7019,
      "ushi": 7020,
      "tep": 7021,
      "ctorial": 7022,
      "ce4e5": 7023,
      "maxY": 7024,
      "tru": 7025,
      "1eb": 7026,
      "lena": 7027,
      "ofstream": 7028,
      "neta": 7029,
      "',')": 7030,
      "0xbf5": 7031,
      "a_cnt": 7032,
      "perio": 7033,
      "sho": 7034,
      "display": 7035,
      "13311": 7036,
      ")==(": 7037,
      "bb13311": 7038,
      "7f4a7": 7039,
      "Getchar": 7040,
      "49bb13311": 7041,
      "bubblesort": 7042,
      "waru": 7043,
      "init_fact": 7044,
      "TUP": 7045,
      "dp_odd": 7046,
      "0x94d0": 7047,
      "6d1ce4e5": 7048,
      "7f4a7c15": 7049,
      "49bb133111eb": 7050,
      "0x94d049bb133111eb": 7051,
      "6d1ce4e5b9": 7052,
      "}))": 7053,
      "int16_t": 7054,
      "getSize": 7055,
      "make_fact": 7056,
      "0005": 7057,
      "szj": 7058,
      "uf1": 7059,
      ")=='.": 7060,
      "9223372036854775807L": 7061,
      "\"+\")": 7062,
      "yakusuu": 7063,
      "9999999999999": 7064,
      "8476d1ce4e5b9": 7065,
      "\"<\"": 7066,
      "0x9e3779b97f4a7c15": 7067,
      "0xbf58476d1ce4e5b9": 7068,
      "P_": 7069,
      "Vb": 7070,
      "eded": 7071,
      "hm": 7072,
      "leg": 7073,
      "_two": 7074,
      "puzzle": 7075,
      "dx1": 7076,
      "time_": 7077,
      "vcc": 7078,
      "saikoro": 7079,
      "33333333": 7080,
      "slimes": 7081,
      "milliseconds": 7082,
      "199": 7083,
      "BACK": 7084,
      "C_SIZE": 7085,
      "Down": 7086,
      "b_sum": 7087,
      "hyo": 7088,
      "pj": 7089,
      "pin": 7090,
      "tup": 7091,
      "inINF": 7092,
      "()].": 7093,
      "())/": 7094,
      "sim": 7095,
      "princ": 7096,
      "maxValue": 7097,
      "mine": 7098,
      "num0": 7099,
      "setIO": 7100,
      "param": 7101,
      "vs32": 7102,
      "diffe": 7103,
      "newx": 7104,
      "aka": 7105,
      "3003": 7106,
      "next_node": 7107,
      "students": 7108,
      "Triangle": 7109,
      "execute": 7110,
      "enemy": 7111,
      "modnCr_": 7112,
      "ified": 7113,
      "Buffer": 7114,
      "\"},": 7115,
      "98": 7116,
      ":\"<<": 7117,
      "Bs": 7118,
      "Grea": 7119,
      "LPP": 7120,
      "Use": 7121,
      "^=(": 7122,
      "bj": 7123,
      "f0": 7124,
      "kr": 7125,
      "pun": 7126,
      "tch": 7127,
      "];++": 7128,
      "tostring": 7129,
      "character": 7130,
      "])?": 7131,
      "10100": 7132,
      "first1": 7133,
      "tmpb": 7134,
      "isIn": 7135,
      "read_n": 7136,
      "next_x": 7137,
      "Minimum": 7138,
      "kan_": 7139,
      "'*')": 7140,
      "setiosflags": 7141,
      "+'){": 7142,
      "/****": 7143,
      "B_": 7144,
      "R_": 7145,
      "UE": 7146,
      "Vd": 7147,
      "et_": 7148,
      "l3": 7149,
      "qpq": 7150,
      "vw": 7151,
      "x8": 7152,
      "yui": 7153,
      "ced": 7154,
      "&&&": 7155,
      "FIRST": 7156,
      "cur2": 7157,
      "node1": 7158,
      "]=='@": 7159,
      ")-((": 7160,
      ")==-": 7161,
      "numera": 7162,
      "0x7fffffffffffffffL": 7163,
      "prime_list": 7164,
      "bunshi": 7165,
      "v_bool": 7166,
      "444": 7167,
      "lcp": 7168,
      "int_fast32_t": 7169,
      "coeff": 7170,
      "circle": 7171,
      "HIGHINF": 7172,
      "Random": 7173,
      "\"&&": 7174,
      "I64": 7175,
      "UR": 7176,
      "VPL": 7177,
      "ifc": 7178,
      "veb": 7179,
      "arge": 7180,
      "max_b": 7181,
      "(\"{": 7182,
      "ermat": 7183,
      "//(": 7184,
      "<<\"!": 7185,
      "pre1": 7186,
      "root_y": 7187,
      "vlint": 7188,
      "1e18L": 7189,
      "UnWeightedGraph": 7190,
      "cale": 7191,
      "ORT": 7192,
      "boxes": 7193,
      "?????????????": 7194,
      "Coordinate": 7195,
      "]=='<')": 7196,
      "Clock": 7197,
      "Small": 7198,
      "cau": 7199,
      "lush": 7200,
      "llmax": 7201,
      "enc": 7202,
      "ch1": 7203,
      "size1": 7204,
      "INF_N": 7205,
      "linear": 7206,
      "FILL": 7207,
      "acm": 7208,
      "_far": 7209,
      "results": 7210,
      "14159265358": 7211,
      "number3": 7212,
      "aaaa": 7213,
      "multiply": 7214,
      "]=='#'&&": 7215,
      "basic_": 7216,
      "right_child": 7217,
      "'/'": 7218,
      "numa": 7219,
      "_Pred": 7220,
      "\">\"": 7221,
      "Ke": 7222,
      "imax": 7223,
      "lop": 7224,
      "1e11": 7225,
      "ING": 7226,
      "lenb": 7227,
      "3501": 7228,
      "merge_cnt": 7229,
      "ModInt": 7230,
      "modpower": 7231,
      "cumulative": 7232,
      "VVS": 7233,
      "angka": 7234,
      "frm": 7235,
      "sorted_vertices": 7236,
      "5000000000000000": 7237,
      "construct": 7238,
      "By": 7239,
      "Cy": 7240,
      "DD": 7241,
      "Han": 7242,
      "Tp": 7243,
      "]++": 7244,
      "pres": 7245,
      "tcnt": 7246,
      "z_": 7247,
      ");((": 7248,
      ">>>>": 7249,
      "ma1": 7250,
      "cinv": 7251,
      "()])": 7252,
      "ansi": 7253,
      "itoc": 7254,
      "expe": 7255,
      "vecveci": 7256,
      "cur1": 7257,
      "357": 7258,
      "idxs": 7259,
      "sub1": 7260,
      "time_p": 7261,
      "plan": 7262,
      "can2": 7263,
      "grp": 7264,
      "cnro": 7265,
      "CountingSort": 7266,
      "Deg": 7267,
      "cube": 7268,
      "negative_cycle": 7269,
      "LOW": 7270,
      "////////////////////////////////////////////////////////////////": 7271,
      "yyyyyyyy": 7272,
      "qwq": 7273,
      "mountain": 7274,
      "'['": 7275,
      ")<<(": 7276,
      "]{": 7277,
      "_q": 7278,
      "bio": 7279,
      "msub": 7280,
      "nsum": 7281,
      "none": 7282,
      "nTime": 7283,
      "oset": 7284,
      "ping": 7285,
      "y_min": 7286,
      "stor": 7287,
      "eng": 7288,
      "strs": 7289,
      "sumh": 7290,
      "bag": 7291,
      "minY": 7292,
      "])-(": 7293,
      "queries": 7294,
      "ada": 7295,
      "posx": 7296,
      "flagg": 7297,
      "sub2": 7298,
      "subtree": 7299,
      "]]];": 7300,
      "0x1": 7301,
      "max_idx": 7302,
      "2400": 7303,
      "_cand": 7304,
      "shu": 7305,
      "acosl": 7306,
      "2e4": 7307,
      "16000": 7308,
      "$$$": 7309,
      "BBB": 7310,
      "EXIT": 7311,
      "Square": 7312,
      "neighbor": 7313,
      "!\\": 7314,
      "']='": 7315,
      "93": 7316,
      "FIN": 7317,
      "lit": 7318,
      "u8": 7319,
      "vir": 7320,
      "_tri": 7321,
      "INP": 7322,
      "getans": 7323,
      "previ": 7324,
      "powe": 7325,
      "vvld": 7326,
      "s_num": 7327,
      "diff1": 7328,
      "record": 7329,
      "deleted": 7330,
      "zzz": 7331,
      "p_ll": 7332,
      "IsSame": 7333,
      "create": 7334,
      "single": 7335,
      "beauty": 7336,
      "RES": 7337,
      "_counter": 7338,
      "az": 7339,
      "fout": 7340,
      "q3": 7341,
      "tal": 7342,
      "})-": 7343,
      "entry": 7344,
      "minnum": 7345,
      "_taken": 7346,
      "eratos": 7347,
      "]='\\": 7348,
      "isPower": 7349,
      "check2": 7350,
      "200003": 7351,
      "memo1": 7352,
      "Section": 7353,
      "even_": 7354,
      "ER_": 7355,
      "AAA": 7356,
      "........": 7357,
      "identity": 7358,
      "kosu": 7359,
      "0x3fffffff": 7360,
      "160": 7361,
      "Red": 7362,
      "SC": 7363,
      "Task": 7364,
      "fans": 7365,
      "hv": 7366,
      "lmin": 7367,
      "nq": 7368,
      "qe": 7369,
      "tmax": 7370,
      "vq": 7371,
      "vdd": 7372,
      "wsum": 7373,
      "xm": 7374,
      "()[": 7375,
      "himoto": 7376,
      "cnt_a": 7377,
      "readi": 7378,
      "first2": 7379,
      "sets": 7380,
      "righ": 7381,
      "keisan": 7382,
      "posy": 7383,
      "15000": 7384,
      "208": 7385,
      "mizu": 7386,
      "Direction": 7387,
      "10000001": 7388,
      "465": 7389,
      "t_num": 7390,
      "mod_fact": 7391,
      ")<((": 7392,
      "OfEratosthenes": 7393,
      "places": 7394,
      "binarySearch": 7395,
      "my_dbg": 7396,
      "Hashimoto": 7397,
      "I64d": 7398,
      ",((": 7399,
      ",\"%": 7400,
      "=[&](": 7401,
      "Gra": 7402,
      "If": 7403,
      "Taro": 7404,
      "_total": 7405,
      "dow": 7406,
      "mmin": 7407,
      "stc": 7408,
      "paz": 7409,
      "dpb": 7410,
      "pos_": 7411,
      "...));}": 7412,
      "blank": 7413,
      "aki": 7414,
      "NumberOf": 7415,
      "ENT": 7416,
      "runlength": 7417,
      "777": 7418,
      "FACT": 7419,
      "Method": 7420,
      "lunlun": 7421,
      ")=='#')": 7422,
      "Write": 7423,
      "channe": 7424,
      "conbinationMemo": 7425,
      "D3": 7426,
      "Dais": 7427,
      "Kruskal": 7428,
      "Sh": 7429,
      "[\");": 7430,
      "_arr": 7431,
      "_abs": 7432,
      "ridx": 7433,
      "u16": 7434,
      "intmax_t": 7435,
      "maxr": 7436,
      "--]);": 7437,
      "1003": 7438,
      "tmpy": 7439,
      "tas": 7440,
      "facs": 7441,
      "sub_": 7442,
      "needed": 7443,
      "a_min": 7444,
      "s_size": 7445,
      "diff2": 7446,
      "newy": 7447,
      "200050": 7448,
      "\"#\")": 7449,
      "showvector": 7450,
      "connection": 7451,
      "666": 7452,
      "fibonacci": 7453,
      "Daisuke": 7454,
      "=!": 7455,
      "CAN": 7456,
      "bis": 7457,
      "h3": 7458,
      "i16": 7459,
      "jun": 7460,
      "s_c": 7461,
      "ler": 7462,
      "++){//": 7463,
      "maxsum": 7464,
      "min_b": 7465,
      "1e19": 7466,
      "out_": 7467,
      "]=='-')": 7468,
      "make_vec_": 7469,
      "ranch": 7470,
      "array1": 7471,
      "divid": 7472,
      "CON": 7473,
      "will": 7474,
      "'-');": 7475,
      "ans_w": 7476,
      "'#'));": 7477,
      "denomi": 7478,
      "c0c0": 7479,
      "Linear": 7480,
      "cnrvo": 7481,
      "outst_N": 7482,
      "1001001001001001LL": 7483,
      "extended_": 7484,
      "C0C0": 7485,
      "isUpperCase": 7486,
      "make_vec_nd": 7487,
      "-'){": 7488,
      "Cycle": 7489,
      "Io": 7490,
      "Pt": 7491,
      "]<<(": 7492,
      "_u": 7493,
      "_color": 7494,
      "_overflow": 7495,
      "kq": 7496,
      "kot": 7497,
      "ncnt": 7498,
      "prnt": 7499,
      "ring": 7500,
      "uce": 7501,
      "y_max": 7502,
      "z2": 7503,
      "}),": 7504,
      "ans_a": 7505,
      "end_i": 7506,
      "sum_t": 7507,
      "cntR": 7508,
      "cntt": 7509,
      "tro": 7510,
      "))]++;": 7511,
      "alth": 7512,
      "vecb": 7513,
      "())==": 7514,
      "1001001001001001": 7515,
      "asd": 7516,
      "plli": 7517,
      "pllll": 7518,
      "shop": 7519,
      "1415926535897": 7520,
      "9999999999999999": 7521,
      "@@@@@": 7522,
      "llock": 7523,
      "suger": 7524,
      "QUE": 7525,
      "ERROR": 7526,
      "'@')": 7527,
      "MCXI": 7528,
      "sunuke": 7529,
      "********************************************": 7530,
      "AOJ": 7531,
      "2100": 7532,
      "6lf": 7533,
      "?'": 7534,
      "RGB": 7535,
      "T4": 7536,
      "WGraph": 7537,
      "_def": 7538,
      "_Find": 7539,
      "ake": 7540,
      "cas": 7541,
      "kj": 7542,
      "srt": 7543,
      "vtp": 7544,
      "vector_fin": 7545,
      "INF2": 7546,
      "187": 7547,
      "201010": 7548,
      "mxi": 7549,
      "sqar": 7550,
      "max_heapify": 7551,
      "reverse_iterator": 7552,
      "is_product": 7553,
      "ITP1": 7554,
      "VVC": 7555,
      "Price": 7556,
      "msg": 7557,
      "Common": 7558,
      "deleteKey": 7559,
      "\"(\";": 7560,
      "Visi": 7561,
      "1000000009LL": 7562,
      "IoSetup": 7563,
      "vector_finder": 7564,
      "is_product_overflow": 7565,
      ")]--;": 7566,
      "7LL": 7567,
      "Alg": 7568,
      "CAL": 7569,
      "Ps": 7570,
      "Q_type": 7571,
      "SG": 7572,
      "_InputIterator": 7573,
      "hyou": 7574,
      "iNum": 7575,
      "rpr": 7576,
      "or_": 7577,
      "lease": 7578,
      "nth_": 7579,
      "maxLen": 7580,
      "sumd": 7581,
      "sumw": 7582,
      "modexp": 7583,
      "(\"]": 7584,
      "])+(": 7585,
      ";}};": 7586,
      "dis1": 7587,
      "vecvecl": 7588,
      "make_invfact": 7589,
      "key_equal": 7590,
      "mill": 7591,
      "pqasc": 7592,
      "ents": 7593,
      "??????????????????": 7594,
      "ITR": 7595,
      "Rec": 7596,
      "searchVec": 7597,
      "sport": 7598,
      "hasher": 7599,
      "print_in": 7600,
      "File": 7601,
      "Pairi": 7602,
      "init_io": 7603,
      "_cards": 7604,
      "MACRO_VEC_ROW_Scan": 7605,
      "MACRO_VEC_ROW_Init": 7606,
      "qpqpq": 7607,
      "'>'": 7608,
      ")|": 7609,
      "0e": 7610,
      "Pred": 7611,
      "Tra": 7612,
      "_5": 7613,
      "ful": 7614,
      "lnt": 7615,
      "pit": 7616,
      "scnt": 7617,
      "ting": 7618,
      "intpair": 7619,
      "enti": 7620,
      "vector_": 7621,
      "strstr": 7622,
      "))?(": 7623,
      "lens": 7624,
      "???????": 7625,
      "pow10": 7626,
      "top_": 7627,
      "ESS": 7628,
      "plll": 7629,
      "mij": 7630,
      "200007": 7631,
      "('#": 7632,
      "Union_Find": 7633,
      "comple": 7634,
      "_space": 7635,
      "marked": 7636,
      "abcd": 7637,
      "next_y": 7638,
      "tract": 7639,
      "vertex_index": 7640,
      "generate": 7641,
      "Initial": 7642,
      "Topological": 7643,
      "what": 7644,
      "takahashi": 7645,
      "Swap": 7646,
      "3000000000000000000": 7647,
      "550": 7648,
      "<-": 7649,
      "Ac": 7650,
      "ET": 7651,
      "_o": 7652,
      "_dfs": 7653,
      "dpa": 7654,
      "ecnt": 7655,
      "hero": 7656,
      "ose": 7657,
      "end_": 7658,
      "minX": 7659,
      "])<=": 7660,
      "algo": 7661,
      "is_bi": 7662,
      "colour": 7663,
      "ind2": 7664,
      "opened": 7665,
      "d_sum": 7666,
      "pqdesc": 7667,
      "compPair": 7668,
      "kaibun": 7669,
      "denom": 7670,
      "partial_sum": 7671,
      "exceptions": 7672,
      "__last_i": 7673,
      "candies": 7674,
      "Visited": 7675,
      ")+=(": 7676,
      "399": 7677,
      "599": 7678,
      "716": 7679,
      "MY": 7680,
      "Mi": 7681,
      "Man": 7682,
      "_operation": 7683,
      "bcount": 7684,
      "hl": 7685,
      "i5": 7686,
      "nR": 7687,
      "plication": 7688,
      "vprint": 7689,
      "x5": 7690,
      "yt": 7691,
      "for_each": 7692,
      "uss": 7693,
      "ans_b": 7694,
      "ito": 7695,
      "maxb": 7696,
      "mochi": 7697,
      "minV": 7698,
      "minute": 7699,
      "(),'": 7700,
      "iness": 7701,
      "par2": 7702,
      "1001001": 7703,
      "dataset": 7704,
      "]={\"": 7705,
      "answers": 7706,
      "tarou": 7707,
      "yyy": 7708,
      "fetch": 7709,
      "FFF": 7710,
      "fuck": 7711,
      "failbit": 7712,
      "euclid": 7713,
      "'!": 7714,
      ".);": 7715,
      "03": 7716,
      "Lcm": 7717,
      "NS": 7718,
      "SM": 7719,
      "SDWORD": 7720,
      "]\",": 7721,
      "_Ex": 7722,
      "_shift": 7723,
      "bat": 7724,
      "m4": 7725,
      "v_max": 7726,
      "amt": 7727,
      "h_max": 7728,
      "])++": 7729,
      "edit": 7730,
      "//================================================================": 7731,
      "))!=": 7732,
      "c_sum": 7733,
      "MODD": 7734,
      "INFI": 7735,
      "locale": 7736,
      "getval": 7737,
      "oko": 7738,
      "roots": 7739,
      "max_self": 7740,
      "rang": 7741,
      "998244353LL": 7742,
      "goes": 7743,
      "300300": 7744,
      "vf80": 7745,
      "codecvt": 7746,
      "OfTwo": 7747,
      "given": 7748,
      "Project": 7749,
      "Thx": 7750,
      "LOCAL": 7751,
      "intern_type": 7752,
      ")=='#'){": 7753,
      "DATA": 7754,
      "kabu": 7755,
      "aabb": 7756,
      "*-": 7757,
      "D4": 7758,
      "_CHAR": 7759,
      "cul": 7760,
      "dk": 7761,
      "don": 7762,
      "kar": 7763,
      "mis": 7764,
      "nos": 7765,
      "snd": 7766,
      "zoku": 7767,
      "secs": 7768,
      "()<<\",": 7769,
      "deal": 7770,
      "str_": 7771,
      "maxcnt": 7772,
      "sumT": 7773,
      "])];": 7774,
      "])||(": 7775,
      "modAdd": 7776,
      "MOD_NUM": 7777,
      "tmp_s": 7778,
      "scc": 7779,
      "disc": 7780,
      "dijk": 7781,
      "vecA": 7782,
      "isValid": 7783,
      "urface": 7784,
      "inv_mod": 7785,
      "vvch": 7786,
      "pqg": 7787,
      "mul_mod": 7788,
      "s_len": 7789,
      "min_sum": 7790,
      "\"}\"": 7791,
      "rev_": 7792,
      "kock": 7793,
      "StSum": 7794,
      "]^(": 7795,
      "mula": 7796,
      "directed": 7797,
      "orizontal": 7798,
      "labels": 7799,
      "'+(": 7800,
      "(\\": 7801,
      "81": 7802,
      "=(((": 7803,
      "Ap": 7804,
      "Cou": 7805,
      "Des": 7806,
      "New": 7807,
      "US": 7808,
      "_L": 7809,
      "_up": 7810,
      "_sec": 7811,
      "fsum": 7812,
      "o_": 7813,
      "tlll": 7814,
      "vA": 7815,
      "zah": 7816,
      "<<')';": 7817,
      "sect": 7818,
      "itl": 7819,
      "1009": 7820,
      "c_cnt": 7821,
      "opp": 7822,
      "));((": 7823,
      "tmp_c": 7824,
      "adap": 7825,
      "ulint": 7826,
      "15lf": 7827,
      "heep": 7828,
      "12lf": 7829,
      "digitSum": 7830,
      "min_s": 7831,
      "20010": 7832,
      "graf": 7833,
      "iter_swap": 7834,
      "divr": 7835,
      "DP2": 7836,
      "exit_": 7837,
      "))%(": 7838,
      "10101010": 7839,
      "]&&!": 7840,
      "\":(\";": 7841,
      "insertion_sort": 7842,
      "FFFFFFF": 7843,
      "whole": 7844,
      "Timer": 7845,
      "arrive": 7846,
      "//============================================================================": 7847,
      "255": 7848,
      "91": 7849,
      "Dl": 7850,
      "Do": 7851,
      "IL": 7852,
      "USE": 7853,
      "^'": 7854,
      "inx": 7855,
      "requ": 7856,
      "itai": 7857,
      "sum0": 7858,
      "cntx": 7859,
      "!='\\": 7860,
      "modmul": 7861,
      "INV": 7862,
      "((-": 7863,
      "tmpp": 7864,
      "primevec": 7865,
      "<<'{';": 7866,
      "ccw": 7867,
      "bbb": 7868,
      "17LL": 7869,
      "'+'){": 7870,
      "unionSet": 7871,
      "dishes": 7872,
      "LazySegmentTree": 7873,
      "segment_tree": 7874,
      "\"/": 7875,
      "1ull": 7876,
      "432": 7877,
      "Cx": 7878,
      "Oper": 7879,
      "lq": 7880,
      "nH": 7881,
      "main2": 7882,
      "___": 7883,
      "cnth": 7884,
      "],-": 7885,
      "node2": 7886,
      "findset": 7887,
      "key_type": 7888,
      "max_height": 7889,
      "shita": 7890,
      "rankmy": 7891,
      "Priority": 7892,
      "binom": 7893,
      "mod_div": 7894,
      "_v_l": 7895,
      "_____": 7896,
      "evens": 7897,
      "1010101": 7898,
      "bigint": 7899,
      "union_set": 7900,
      "pdl": 7901,
      "bubble_sort": 7902,
      "BinaryTree": 7903,
      "primeFactors": 7904,
      "||||||||": 7905,
      "?????????????????????????????": 7906,
      "kakute": 7907,
      "'<'": 7908,
      "Nil": 7909,
      "_root": 7910,
      "d9": 7911,
      "ddatas": 7912,
      "l0": 7913,
      "mch": 7914,
      "pid": 7915,
      "vit": 7916,
      "wn": 7917,
      "release": 7918,
      "ansr": 7919,
      "ansv": 7920,
      "];};": 7921,
      "lead": 7922,
      "umi": 7923,
      "fair": 7924,
      "cntc": 7925,
      "))<": 7926,
      "rick": 7927,
      "vecll": 7928,
      "]]<": 7929,
      "=='.": 7930,
      "Self": 7931,
      "?????????????????": 7932,
      "is_stable": 7933,
      "min_n": 7934,
      "'&&(": 7935,
      "dog": 7936,
      "ketawa": 7937,
      "000001": 7938,
      "next_cost": 7939,
      "sum_of": 7940,
      "not_taken": 7941,
      "genprimevec": 7942,
      "exists": 7943,
      "LOCK": 7944,
      "_SU": 7945,
      "tual": 7946,
      "?????????????????????": 7947,
      "???????????????????????": 7948,
      "SieveOfEratosthenes": 7949,
      "leaves": 7950,
      "adaptor": 7951,
      "92": 7952,
      "DA": 7953,
      "kl": 7954,
      "mrep": 7955,
      "rans": 7956,
      "y8": 7957,
      "sum_p": 7958,
      "toint": 7959,
      "1050": 7960,
      "))]": 7961,
      "]==(": 7962,
      "now_x": 7963,
      "facctorial": 7964,
      "poow": 7965,
      "s_1": 7966,
      "ABCD": 7967,
      "ACT": 7968,
      "there": 7969,
      "\".\")": 7970,
      "-*-": 7971,
      "dfs_visit": 7972,
      "facctorialMethod": 7973,
      "BTC": 7974,
      "CMAX": 7975,
      "MID": 7976,
      "Op": 7977,
      "UNI": 7978,
      "Whi": 7979,
      "[!": 7980,
      "_factor": 7981,
      "aok": 7982,
      "k3": 7983,
      "lidx": 7984,
      "umar": 7985,
      "vmm": 7986,
      "on_": 7987,
      "sty": 7988,
      "ending": 7989,
      "--);": 7990,
      "toi": 7991,
      "_traits": 7992,
      "])&": 7993,
      "eru": 7994,
      "thing": 7995,
      "length_": 7996,
      "vecint": 7997,
      "getMax": 7998,
      "getRoot": 7999,
      "node_t": 8000,
      "())+": 8001,
      "]]][": 8002,
      "max_size": 8003,
      "aila": 8004,
      "div1": 8005,
      "']';": 8006,
      "x_min": 8007,
      "contains": 8008,
      "dbg_out": 8009,
      "appiness": 8010,
      "letters": 8011,
      "PAUSE": 8012,
      "adjacency": 8013,
      "period": 8014,
      "Hanako": 8015,
      "Algorithm": 8016,
      "(+": 8017,
      "56": 8018,
      "Each": 8019,
      "LMIN": 8020,
      "_inf": 8021,
      "ater": 8022,
      "ect": 8023,
      "gz": 8024,
      "hy": 8025,
      "jd": 8026,
      "mtime": 8027,
      "rsq": 8028,
      "snip": 8029,
      "()++;": 8030,
      "vector_t": 8031,
      "note": 8032,
      "curx": 8033,
      "powM": 8034,
      "dy1": 8035,
      "fact_mod": 8036,
      "epe": 8037,
      "epepe": 8038,
      "<<'+": 8039,
      "<<'}": 8040,
      "sinsuu": 8041,
      "kaisuu": 8042,
      "avx2": 8043,
      "ipgraph": 8044,
      "randll": 8045,
      "trains": 8046,
      "vec_n": 8047,
      "Verti": 8048,
      "bonus": 8049,
      "%%%%%%%%": 8050,
      "monsters": 8051,
      "enum_div": 8052,
      "'(';": 8053,
      "Speed": 8054,
      "rprpr": 8055,
      "vector_helper": 8056,
      "exit_exception": 8057,
      "'='": 8058,
      ">((": 8059,
      "Black": 8060,
      "DMAX": 8061,
      "Svec": 8062,
      "_last": 8063,
      "ef": 8064,
      "ese": 8065,
      "eff": 8066,
      "pis": 8067,
      "rfact": 8068,
      "vbl": 8069,
      "vu64": 8070,
      "zation": 8071,
      "ans_min": 8072,
      "leap": 8073,
      "sita": 8074,
      "maxid": 8075,
      "\",\"<<": 8076,
      "res3": 8077,
      "])/(": 8078,
      "10465": 8079,
      "print2": 8080,
      "loor": 8081,
      "urui": 8082,
      "makeSet": 8083,
      "mxr": 8084,
      "1000002": 8085,
      "obs": 8086,
      "Sorting": 8087,
      "current_node": 8088,
      "ART": 8089,
      "tree_size": 8090,
      "__int128_t": 8091,
      "Chain": 8092,
      "print_preorder": 8093,
      "sieve_of_": 8094,
      "avail": 8095,
      "909": 8096,
      "'.'));": 8097,
      "module": 8098,
      "decimal": 8099,
      "frac_": 8100,
      "Build": 8101,
      "increase": 8102,
      "ailable": 8103,
      ".;": 8104,
      "2L": 8105,
      "=>": 8106,
      "Asum": 8107,
      "Cor": 8108,
      "Lj": 8109,
      "Source": 8110,
      "V3": 8111,
      "d6": 8112,
      "foc": 8113,
      "hako": 8114,
      "kat": 8115,
      "ov": 8116,
      "rout": 8117,
      "mati": 8118,
      "maks": 8119,
      "(\"[%": 8120,
      "tower": 8121,
      "cntl": 8122,
      "mink": 8123,
      "modDiv": 8124,
      "//--------------------------------": 8125,
      "')&&(": 8126,
      "counting": 8127,
      "mapp": 8128,
      "left2": 8129,
      "())>='": 8130,
      "127": 8131,
      "max_d": 8132,
      "max_diff": 8133,
      "vs64": 8134,
      "min_idx": 8135,
      "debugV": 8136,
      "segTree": 8137,
      "kaijou": 8138,
      "{}(": 8139,
      "Minus": 8140,
      "AddEdge": 8141,
      "lpha": 8142,
      "atcoder_mod": 8143,
      "8888": 8144,
      "bellman": 8145,
      "576": 8146,
      "BASE": 8147,
      "5100000": 8148,
      "DINF": 8149,
      "Fe": 8150,
      "Graph_": 8151,
      "MB": 8152,
      "MK": 8153,
      "Pu": 8154,
      "V1": 8155,
      "_SUM": 8156,
      "bpow": 8157,
      "b_num": 8158,
      "cent": 8159,
      "hx": 8160,
      "nB": 8161,
      "r_cnt": 8162,
      "onal": 8163,
      "ans_max": 8164,
      "labs": 8165,
      "cnt5": 8166,
      "minNum": 8167,
      "ss2": 8168,
      "modll": 8169,
      "printer": 8170,
      "<<\"]]": 8171,
      "gcm": 8172,
      "getString": 8173,
      "\"<<-": 8174,
      "right2": 8175,
      "bitmask": 8176,
      "sack": 8177,
      "fruit": 8178,
      "cnt_2": 8179,
      "print_inorder": 8180,
      "unique_ptr": 8181,
      "tl3": 8182,
      "Numbers": 8183,
      "vala": 8184,
      "\"+\";": 8185,
      "walk_": 8186,
      "CCESS": 8187,
      "\"*\")": 8188,
      "UNITY_SUM": 8189,
      "this_": 8190,
      "Ceil": 8191,
      "FenwickTree": 8192,
      "cross_product": 8193,
      "RandomIt": 8194,
      "EXIT_SU": 8195,
      "isPowerOfTwo": 8196,
      "1046527": 8197,
      "EXIT_SUCCESS": 8198,
      "Gap": 8199,
      "Pint": 8200,
      "Step": 8201,
      "glg": 8202,
      "pci": 8203,
      "vLL": 8204,
      "<<'#';": 8205,
      "llow": 8206,
      "manip": 8207,
      "__t": 8208,
      "mpp": 8209,
      "facinv": 8210,
      "();)": 8211,
      "max3": 8212,
      "maxheapify": 8213,
      "exchange": 8214,
      "dictionary": 8215,
      "--;)": 8216,
      "out_it": 8217,
      "taste": 8218,
      "vvLL": 8219,
      "100010001": 8220,
      "sub_sum": 8221,
      "nest": 8222,
      "_by_": 8223,
      "frequ": 8224,
      "=='#": 8225,
      "mn2": 8226,
      "MAX_E": 8227,
      "']')": 8228,
      "\"-\";": 8229,
      "Dice1": 8230,
      "gyou": 8231,
      "Param": 8232,
      "ans_h": 8233,
      "mcxi2": 8234,
      "888": 8235,
      "Current": 8236,
      "222222": 8237,
      "sieve_of_eratosthenes": 8238,
      ":\";": 8239,
      "AKIHBR": 8240,
      "Bound": 8241,
      "CB": 8242,
      "Go": 8243,
      "Sint": 8244,
      "TIII": 8245,
      "]/(": 8246,
      "]|=": 8247,
      "cans": 8248,
      "ual": 8249,
      "ond": 8250,
      "orth": 8251,
      ">>{": 8252,
      "leader": 8253,
      "lab": 8254,
      "idi": 8255,
      "olf": 8256,
      "fakt": 8257,
      "prop": 8258,
      "\"<<*": 8259,
      "cury": 8260,
      "outvp": 8261,
      "]==']": 8262,
      "cost_": 8263,
      ")+'": 8264,
      "pollock": 8265,
      "_binary": 8266,
      "119": 8267,
      "s_r": 8268,
      "debug_": 8269,
      "-'<<": 8270,
      "multitest": 8271,
      "node_id": 8272,
      "patty": 8273,
      "www": 8274,
      "Calculate": 8275,
      "OUBLE": 8276,
      ",,,,,,,,": 8277,
      "topological_sort": 8278,
      "ALPH": 8279,
      "slove": 8280,
      "snip_i": 8281,
      "#.": 8282,
      "*';": 8283,
      ",\",": 8284,
      "AKIHBRA": 8285,
      "CAR": 8286,
      "ME": 8287,
      "RW": 8288,
      "_edge": 8289,
      "_max_": 8290,
      "a_b": 8291,
      "cop": 8292,
      "qn": 8293,
      "svec": 8294,
      "vac": 8295,
      "wat": 8296,
      "went": 8297,
      "want": 8298,
      "ye": 8299,
      "ctz": 8300,
      "maxsize": 8301,
      "(\"\",": 8302,
      "modSub": 8303,
      "//[": 8304,
      "numB": 8305,
      "getInt": 8306,
      "popcnt": 8307,
      "1501": 8308,
      "find2": 8309,
      "ays": 8310,
      "_cal": 8311,
      "plc": 8312,
      "Graphw": 8313,
      "sqrtl": 8314,
      "write_buf": 8315,
      "MAX_C": 8316,
      "Unfair": 8317,
      "from_": 8318,
      "min_self": 8319,
      "cosp": 8320,
      "run_case": 8321,
      "kane": 8322,
      "AdjList": 8323,
      ";;;;;;;;": 8324,
      "coords": 8325,
      "skill": 8326,
      "relation": 8327,
      "uint_fast64_t": 8328,
      "ForwardIt": 8329,
      "yuiop": 8330,
      "AKIHBAR": 8331,
      "AKIHABR": 8332,
      "AKIHBARA": 8333,
      "AKIHABRA": 8334,
      "Large": 8335,
      "RD": 8336,
      "RY": 8337,
      "Smin": 8338,
      "_V": 8339,
      "_bool": 8340,
      "fermat": 8341,
      "hr": 8342,
      "pes": 8343,
      "rin": 8344,
      "rds": 8345,
      "rrep": 8346,
      "schedule": 8347,
      "llmin": 8348,
      "vered": 8349,
      "stringcount": 8350,
      "minm": 8351,
      "')<<": 8352,
      "gcdEx": 8353,
      "puddle": 8354,
      "getChar": 8355,
      "pow3": 8356,
      "left_sum": 8357,
      "health": 8358,
      "]]<<": 8359,
      "20000000": 8360,
      "({-": 8361,
      "Inser": 8362,
      "]*((": 8363,
      "Sequence": 8364,
      "min_priority_queue": 8365,
      "1399": 8366,
      "bin_pow": 8367,
      "reduce": 8368,
      "sum_m": 8369,
      "ceil_": 8370,
      "@@@@@@@": 8371,
      "area2": 8372,
      "over_": 8373,
      "sides": 8374,
      "roads": 8375,
      "count_if": 8376,
      "kinds": 8377,
      "'*'": 8378,
      "KIHABARA": 8379,
      "12345678": 8380,
      "345": 8381,
      "Du": 8382,
      "Ga": 8383,
      "TList": 8384,
      "X0": 8385,
      "ares": 8386,
      "gd": 8387,
      "ktop": 8388,
      "kInf": 8389,
      "l_len": 8390,
      "mINF": 8391,
      "nou": 8392,
      "obuf": 8393,
      "uclid": 8394,
      "vbo": 8395,
      "st_": 8396,
      "usize": 8397,
      "__first": 8398,
      "bai": 8399,
      "minh": 8400,
      "]):(": 8401,
      "numof": 8402,
      "solv": 8403,
      "inv2": 8404,
      "]=='+')": 8405,
      "acc_": 8406,
      "listSearch": 8407,
      "add1": 8408,
      "to_char": 8409,
      "last2": 8410,
      "digsz": 8411,
      "vsSort": 8412,
      "digitsum": 8413,
      "????????????????????????": 8414,
      "min_factor": 8415,
      "IntTo": 8416,
      "\";}}": 8417,
      "DP1": 8418,
      "mod_comb": 8419,
      "==\"-": 8420,
      "msb": 8421,
      "250000": 8422,
      "_Fn": 8423,
      "\"*\"": 8424,
      "]=='<'){": 8425,
      "extended": 8426,
      "__builtin_clzll": 8427,
      "Cmp_Fn": 8428,
      "READ_CHAR": 8429,
      "difference": 8430,
      "Desktop": 8431,
      "(=": 8432,
      "330": 8433,
      "Mar": 8434,
      "Smax": 8435,
      "_match": 8436,
      "agc": 8437,
      "cmath": 8438,
      "dvec": 8439,
      "vh": 8440,
      "reference": 8441,
      "mali": 8442,
      "decode": 8443,
      "sity": 8444,
      "dp3": 8445,
      "tiles": 8446,
      "vec3": 8447,
      "apsack": 8448,
      "nowr": 8449,
      "__s1": 8450,
      "__s2": 8451,
      "s_a": 8452,
      "lnm": 8453,
      "pena": 8454,
      "soin": 8455,
      "1001001001LL": 8456,
      "Goods": 8457,
      "ComKTableLIMIT": 8458,
      "xcvb": 8459,
      "Beginner": 8460,
      "nth_element": 8461,
      "d9_7": 8462,
      ">{}(": 8463,
      "Function": 8464,
      "MPII": 8465,
      "_upper": 8466,
      "bur": 8467,
      "cnum": 8468,
      "eed": 8469,
      "fnd": 8470,
      "hjk": 8471,
      "ih": 8472,
      "mg": 8473,
      "nag": 8474,
      "osenbei": 8475,
      "ppii": 8476,
      "sA": 8477,
      "sample": 8478,
      "tre": 8479,
      "only": 8480,
      "ife": 8481,
      "ans_i": 8482,
      "__y": 8483,
      "atk": 8484,
      "dpt": 8485,
      "pr2": 8486,
      "maxCount": 8487,
      "MOD1": 8488,
      "=(-": 8489,
      "]-=(": 8490,
      "a_count": 8491,
      "d_d": 8492,
      "adj_": 8493,
      "powers": 8494,
      "combine": 8495,
      "1415926535897932384626": 8496,
      "multiprecision": 8497,
      "logN": 8498,
      "num_of": 8499,
      "cnt_w": 8500,
      "START": 8501,
      "ANG": 8502,
      "GetSize": 8503,
      "!!!": 8504,
      "rectangle": 8505,
      "fnInput": 8506,
      "Perm": 8507,
      "\"...\"": 8508,
      "focus": 8509,
      "76": 8510,
      "Cout": 8511,
      "G_1": 8512,
      "tv_": 8513,
      "ulo": 8514,
      "wd": 8515,
      "wy": 8516,
      "{(": 8517,
      "inff": 8518,
      "site": 8519,
      "mozi": 8520,
      "!=\"": 8521,
      "printList": 8522,
      "//??????": 8523,
      "LEM": 8524,
      "Nod": 8525,
      "lefts": 8526,
      "outp": 8527,
      "invmod": 8528,
      "vvbo": 8529,
      "dxx": 8530,
      "dyy": 8531,
      "edge_list": 8532,
      "]]]++;": 8533,
      ")+((": 8534,
      "Inter": 8535,
      "pqsin": 8536,
      "mns": 8537,
      "MAX_S": 8538,
      "cards2": 8539,
      "COMB": 8540,
      "1799": 8541,
      "brk": 8542,
      "remaining": 8543,
      "`````": 8544,
      "BIT_FLAG_1": 8545,
      "BIT_FLAG_0": 8546,
      "BIT_FLAG_2": 8547,
      "BIT_FLAG_3": 8548,
      "BIT_FLAG_4": 8549,
      "BIT_FLAG_5": 8550,
      "BIT_FLAG_6": 8551,
      "BIT_FLAG_7": 8552,
      "ankaku": 8553,
      "must": 8554,
      "reachable": 8555,
      "6666": 8556,
      "catch": 8557,
      "caut": 8558,
      "channel": 8559,
      "or_not": 8560,
      "yuiophjk": 8561,
      "yuiophjklnm": 8562,
      "']*": 8563,
      ";!": 8564,
      ">)": 8565,
      "Al": 8566,
      "HEA": 8567,
      "LI": 8568,
      "MS": 8569,
      "Place": 8570,
      "TE": 8571,
      "_output": 8572,
      "lpair": 8573,
      "ox": 8574,
      "oy": 8575,
      "q_": 8576,
      "rreps": 8577,
      "outh": 8578,
      "()<<\"": 8579,
      "const_": 8580,
      "maxL": 8581,
      "sumR": 8582,
      "numA": 8583,
      "c_num": 8584,
      ".....": 8585,
      "MAR": 8586,
      "isH": 8587,
      "nextx": 8588,
      "diffs": 8589,
      "start_": 8590,
      "segIndex": 8591,
      "rep_": 8592,
      "crd": 8593,
      "area1": 8594,
      "2147483648": 8595,
      "1111111": 8596,
      "test_cases": 8597,
      "Compress": 8598,
      "16001": 8599,
      "ing_state": 8600,
      "coding": 8601,
      "__hf": 8602,
      "until": 8603,
      "encoding_state": 8604,
      "is_bipartite": 8605,
      "kakutei": 8606,
      "<<'+'<<": 8607,
      "']==": 8608,
      "DOUBLE": 8609,
      "FX": 8610,
      "G2": 8611,
      "Low": 8612,
      "Mask": 8613,
      "QP": 8614,
      "_heap": 8615,
      "gar": 8616,
      "gpq": 8617,
      "mex": 8618,
      "nans": 8619,
      "uh": 8620,
      "wrn": 8621,
      "pati": 8622,
      "()?": 8623,
      "maxt": 8624,
      "1048": 8625,
      "))<(": 8626,
      "coll": 8627,
      "setup": 8628,
      "nowh": 8629,
      "nowl": 8630,
      "is_t": 8631,
      "outs": 8632,
      "vvbool": 8633,
      "max_ans": 8634,
      "start_time": 8635,
      "mn1": 8636,
      "min_p": 8637,
      "compo": 8638,
      "ware": 8639,
      "Resize": 8640,
      "_TY": 8641,
      "find_first_": 8642,
      "dfgz": 8643,
      "FACE": 8644,
      "2501": 8645,
      "coordinate": 8646,
      "<<\".\";": 8647,
      "fenwick_tree": 8648,
      "TopologicalSort": 8649,
      "ACTER": 8650,
      "Insertion": 8651,
      "READ_CHARACTER": 8652,
      "Bl": 8653,
      "FE": 8654,
      "QQ": 8655,
      "RIT": 8656,
      "SH": 8657,
      "]})": 8658,
      "_K": 8659,
      "did": 8660,
      "pdi": 8661,
      "qa": 8662,
      "qsort": 8663,
      "snum": 8664,
      "u_int": 8665,
      "llINF": 8666,
      "modadd": 8667,
      "belong": 8668,
      "tmpA": 8669,
      "than": 8670,
      "gets": 8671,
      "powl": 8672,
      "infty": 8673,
      "inf64": 8674,
      "a_num": 8675,
      "Increa": 8676,
      "s_min": 8677,
      "cant": 8678,
      "VVVI": 8679,
      "upper_": 8680,
      "ZERO": 8681,
      "[&]()": 8682,
      "estima": 8683,
      "prime_factorization": 8684,
      "works": 8685,
      "f2i": 8686,
      "initial_value": 8687,
      "menor": 8688,
      "selection_sort": 8689,
      "////////////////////////////////////////////////": 8690,
      "balance": 8691,
      "FastIO": 8692,
      "Adjac": 8693,
      "foot": 8694,
      "shortest_path_": 8695,
      "2000000000000000000ll": 8696,
      "max_flow": 8697,
      "tasdfgz": 8698,
      "PriorityQueue": 8699,
      "%=(": 8700,
      "WS": 8701,
      "_Tree": 8702,
      "tap": 8703,
      "wGraph": 8704,
      "when": 8705,
      "into": 8706,
      "once": 8707,
      "stt": 8708,
      "usi": 8709,
      "ansmin": 8710,
      "cek": 8711,
      "mpl": 8712,
      "))&": 8713,
      ")))*": 8714,
      "INF0": 8715,
      "INFl": 8716,
      "*(-": 8717,
      "ated": 8718,
      "last1": 8719,
      "ULLONG": 8720,
      "VVVL": 8721,
      "cnty": 8722,
      "1000000000000000001": 8723,
      "cnt_odd": 8724,
      "print_vector": 8725,
      "nexty": 8726,
      "p_que": 8727,
      "penal": 8728,
      "<<\"{\"<<\"\\": 8729,
      "awal": 8730,
      "Trie": 8731,
      "euler": 8732,
      "<<\"}\"<<\"\\": 8733,
      "rating": 8734,
      "isPal": 8735,
      "qwertasdfgz": 8736,
      "truck": 8737,
      "cumulative_sum": 8738,
      "virtual": 8739,
      "White": 8740,
      "HEAP": 8741,
      "MARCH": 8742,
      "\"(": 8743,
      "('){": 8744,
      "Elm": 8745,
      "Q2": 8746,
      "RT": 8747,
      "TP": 8748,
      "Tru": 8749,
      "\\|": 8750,
      "sam": 8751,
      "y00": 8752,
      "encode": 8753,
      "pali": 8754,
      "amod": 8755,
      "chara": 8756,
      "cntm": 8757,
      "cntp": 8758,
      "minw": 8759,
      "1010000": 8760,
      "10100000000000000": 8761,
      "gems": 8762,
      "LLPair": 8763,
      "co1": 8764,
      "getf": 8765,
      "putint": 8766,
      "prior": 8767,
      "]=='(')": 8768,
      "infLL": 8769,
      "]]*": 8770,
      "nxi": 8771,
      "min_price": 8772,
      "MaxNum": 8773,
      "dirx": 8774,
      "frq": 8775,
      "VecP": 8776,
      "ruizyou": 8777,
      "()),((": 8778,
      "Profit": 8779,
      "serch": 8780,
      "jewel": 8781,
      "Container": 8782,
      "FIND": 8783,
      "qwertasdfgzxcvb": 8784,
      "1010000000000000017LL": 8785,
      "(');": 8786,
      "/%": 8787,
      "460": 8788,
      "RINF": 8789,
      "cpos": 8790,
      "gain": 8791,
      "lca": 8792,
      "l_ans": 8793,
      "phi": 8794,
      "sum_1": 8795,
      "])&&(": 8796,
      "second_": 8797,
      "1000000007L": 8798,
      "now_y": 8799,
      "posY": 8800,
      "1500000": 8801,
      "facts": 8802,
      "max_p": 8803,
      "???????????????????": 8804,
      "_small": 8805,
      "minim": 8806,
      "INTINF": 8807,
      "kill": 8808,
      "paths": 8809,
      "Return": 8810,
      "hash1": 8811,
      "gya": 8812,
      "BUF": 8813,
      "UNDER": 8814,
      "prices": 8815,
      "'*',": 8816,
      "LineSegment": 8817,
      "400010": 8818,
      "Vec2d": 8819,
      "should": 8820,
      "ONG_MIN": 8821,
      "*&": 8822,
      "East": 8823,
      "Get_": 8824,
      "pnum": 8825,
      "xrx": 8826,
      "yry": 8827,
      "__lg": 8828,
      "temp3": 8829,
      "sumL": 8830,
      "minq": 8831,
      "mindist": 8832,
      "mininf": 8833,
      "(),[](": 8834,
      "ines": 8835,
      "viSort": 8836,
      "get_sum": 8837,
      "202": 8838,
      "primeVec": 8839,
      "facto": 8840,
      "[]{": 8841,
      "check1": 8842,
      "125": 8843,
      "=='?": 8844,
      "array_n": 8845,
      "MAX_COL": 8846,
      "min_i": 8847,
      "min_j": 8848,
      "factory": 8849,
      "kaisu": 8850,
      "searched": 8851,
      "prime_factors": 8852,
      "Times": 8853,
      "available": 8854,
      "SEC": 8855,
      "55556": 8856,
      "towns": 8857,
      "Complex": 8858,
      "shell_sort": 8859,
      "k_modp": 8860,
      "ALDS1_": 8861,
      "LowerCase": 8862,
      "SYUR": 8863,
      "nPk_modp": 8864,
      "Greater": 8865,
      "ThxMK": 8866,
      "Female": 8867,
      "(=)": 8868,
      "malize": 8869,
      "estimate_": 8870,
      "shortest_path_estimate_": 8871,
      "SYURUI": 8872,
      "'<<'\\": 8873,
      "4Pd": 8874,
      "<(((": 8875,
      "Buf": 8876,
      "CINT": 8877,
      "Es": 8878,
      "Euclid": 8879,
      "God": 8880,
      "HRW": 8881,
      "LB": 8882,
      "LANG": 8883,
      "NCK": 8884,
      "Push": 8885,
      "RU": 8886,
      "ZZ": 8887,
      "_seq": 8888,
      "bam": 8889,
      "cnd": 8890,
      "lP": 8891,
      "lcd": 8892,
      "tong": 8893,
      "tam": 8894,
      "tren": 8895,
      "upu": 8896,
      "vdouble": 8897,
      "ymi": 8898,
      "<<',';": 8899,
      "series": 8900,
      "()?\"": 8901,
      "ume": 8902,
      "dpi": 8903,
      "prarr": 8904,
      "temp_": 8905,
      "(\";": 8906,
      "resare": 8907,
      "ss1": 8908,
      "//<": 8909,
      "op3": 8910,
      "vecx": 8911,
      "esare": 8912,
      "MAXE": 8913,
      "vvpii": 8914,
      "10007": 8915,
      "nea": 8916,
      "max_l": 8917,
      "d_i": 8918,
      "s_max": 8919,
      "('.": 8920,
      "is_palindrome": 8921,
      "bly": 8922,
      "factorList": 8923,
      "10000007": 8924,
      "ppp": 8925,
      "_xor": 8926,
      "3000000": 8927,
      "tended": 8928,
      "ToUpper": 8929,
      "400005": 8930,
      "devide": 8931,
      "Linked": 8932,
      "86400": 8933,
      "('#');": 8934,
      "Lj4Pd": 8935,
      "_TYPE": 8936,
      "Lj4PdHRW": 8937,
      ")]){": 8938,
      "233": 8939,
      "Eq": 8940,
      "Lmax": 8941,
      "MIT": 8942,
      "Sample": 8943,
      "Water": 8944,
      "_name": 8945,
      "_In": 8946,
      "_hash": 8947,
      "ale": 8948,
      "p5": 8949,
      "p_i": 8950,
      "tp2": 8951,
      "remaerd": 8952,
      "vet": 8953,
      "ating": 8954,
      "maxheap": 8955,
      "sumM": 8956,
      "sumc": 8957,
      "(\"/": 8958,
      "cntW": 8959,
      "minIndex": 8960,
      "num4": 8961,
      "abort": 8962,
      "math_": 8963,
      "200002LL": 8964,
      "allow": 8965,
      "\":(\\": 8966,
      "5002": 8967,
      "000000001": 8968,
      "tails": 8969,
      "INT32": 8970,
      "prime_or_not": 8971,
      "btn": 8972,
      "__builtin_ctz": 8973,
      "%%%": 8974,
      "2799": 8975,
      "Digits": 8976,
      "dicenum": 8977,
      "meaning": 8978,
      "hash_table": 8979,
      "solve_abc_": 8980,
      "LONG_MAX": 8981,
      "irei": 8982,
      "radius": 8983,
      "_ExternT": 8984,
      "_InternT": 8985,
      ")^(": 8986,
      "115": 8987,
      "83": 8988,
      "A0": 8989,
      "DSU": 8990,
      "FM": 8991,
      "FLG": 8992,
      "Pat": 8993,
      "Qu": 8994,
      "SORT": 8995,
      "]])%": 8996,
      "]]==-": 8997,
      "bri": 8998,
      "kans": 8999,
      "lmt": 9000,
      "m_s": 9001,
      "nat": 9002,
      "sankaku": 9003,
      "tpt": 9004,
      "vct": 9005,
      "vu32": 9006,
      "intt": 9007,
      "resi": 9008,
      "oute": 9009,
      "ingle": 9010,
      "mah": 9011,
      "sitr": 9012,
      "maxW": 9013,
      "maxtime": 9014,
      "cntL": 9015,
      "minVal": 9016,
      "backet": 9017,
      "printVec": 9018,
      "liter": 9019,
      "rray": 9020,
      "treesize": 9021,
      "]!='#')": 9022,
      "502": 9023,
      "pqint": 9024,
      "nya": 9025,
      "cards1": 9026,
      "bility": 9027,
      "COST": 9028,
      "'.',": 9029,
      "ary_": 9030,
      "diry": 9031,
      "hash2": 9032,
      "world": 9033,
      "Desc": 9034,
      "isSheep": 9035,
      "<<\"[\"<<": 9036,
      "SQWORD": 9037,
      "simulate": 9038,
      "adaptors": 9039,
      "1048576": 9040,
      "1ULL": 9041,
      "900": 9042,
      "='\\": 9043,
      "DMIN": 9044,
      "DIS": 9045,
      "Flush": 9046,
      "Half": 9047,
      "X3": 9048,
      "_of": 9049,
      "gai": 9050,
      "tj": 9051,
      "stol": 9052,
      "stac": 9053,
      "mapa": 9054,
      "ami": 9055,
      "leep": 9056,
      "sis": 9057,
      "arc": 9058,
      "olower": 9059,
      "prm": 9060,
      "body": 9061,
      "cnt_s": 9062,
      "tmpB": 9063,
      "thr": 9064,
      "then": 9065,
      "prepare": 9066,
      "isPer": 9067,
      "bases": 9068,
      "tall": 9069,
      "subsum": 9070,
      "]]])": 9071,
      "array2": 9072,
      "Direct": 9073,
      "////////////": 9074,
      "kake": 9075,
      "thest": 9076,
      "prote": 9077,
      "v_prime": 9078,
      "matches": 9079,
      "normalize": 9080,
      "\".\"": 9081,
      "1415926535897932384626433832795": 9082,
      "menseki": 9083,
      "}}}": 9084,
      "selected": 9085,
      "inner_": 9086,
      "wrong": 9087,
      "]=='>')": 9088,
      "stairs": 9089,
      "isPerfect": 9090,
      "\">": 9091,
      "*'){": 9092,
      "450": 9093,
      "Amax": 9094,
      "BE": 9095,
      "Ed": 9096,
      "HINF": 9097,
      "Lic": 9098,
      "Vld": 9099,
      "_first": 9100,
      "din": 9101,
      "gan": 9102,
      "kb": 9103,
      "rab": 9104,
      "mac": 9105,
      "1007": 9106,
      ")),(": 9107,
      "MOD7": 9108,
      "iomanip": 9109,
      "64LL": 9110,
      "')++": 9111,
      "nowp": 9112,
      "now_v": 9113,
      "MASK": 9114,
      "leftChild": 9115,
      "nextNode": 9116,
      "sub_add": 9117,
      "ind1": 9118,
      "cheese": 9119,
      "MAX_A": 9120,
      "adjMat": 9121,
      "('(');": 9122,
      "cand_": 9123,
      "':'\\": 9124,
      "Diameter": 9125,
      "ordan": 9126,
      "print_array": 9127,
      "1234": 9128,
      "others": 9129,
      "``````": 9130,
      "1E18": 9131,
      "VECP": 9132,
      "\":(\")": 9133,
      "my_compare": 9134,
      "RSQ": 9135,
      "??\\???": 9136,
      "bombs": 9137,
      "Elements": 9138,
      "KochCurve": 9139,
      "Multiplication": 9140,
      "LinkedList": 9141,
      "License": 9142,
      "5e": 9143,
      "CT": 9144,
      "IP": 9145,
      "MH": 9146,
      "blo": 9147,
      "iconv": 9148,
      "sdbg": 9149,
      "vpr": 9150,
      "ono": 9151,
      "conn": 9152,
      "__to_": 9153,
      "sumD": 9154,
      "]);;": 9155,
      "))>": 9156,
      "MODA": 9157,
      "dis_": 9158,
      "meirei": 9159,
      "precalc": 9160,
      "ION": 9161,
      "fig": 9162,
      "pow5": 9163,
      "treeDFS": 9164,
      "121": 9165,
      "Seq": 9166,
      "]>-": 9167,
      "??????????????????????????": 9168,
      "weighted": 9169,
      "waz": 9170,
      "ccc": 9171,
      "])%(": 9172,
      "current_pos": 9173,
      "();}}": 9174,
      "922337203685477": 9175,
      "ans_sub": 9176,
      "8005": 9177,
      "VECLL": 9178,
      "INF_I": 9179,
      "Children": 9180,
      "NUM_": 9181,
      "10e9": 9182,
      "PRIME": 9183,
      "??????????????????????????????": 9184,
      "'('){": 9185,
      "Cumulative": 9186,
      "Users": 9187,
      "**********************************************": 9188,
      "valarray": 9189,
      "FEEA": 9190,
      "(%": 9191,
      "*>(": 9192,
      "80000000000000000": 9193,
      ":=": 9194,
      "Ball": 9195,
      "I_INF": 9196,
      "Lod": 9197,
      "Psi": 9198,
      "Xs": 9199,
      "]|": 9200,
      "fexp": 9201,
      "impossible": 9202,
      "nMin": 9203,
      "p_num": 9204,
      "ough": 9205,
      "()||": 9206,
      "];});": 9207,
      "lah": 9208,
      "dpB": 9209,
      "minD": 9210,
      "])||": 9211,
      "modn": 9212,
      "numList": 9213,
      "c_max": 9214,
      "als": 9215,
      "alen": 9216,
      "tmp_sum": 9217,
      "count4": 9218,
      "nowt": 9219,
      "posX": 9220,
      "isRight": 9221,
      "valor": 9222,
      "okay": 9223,
      "10002": 9224,
      "mxl": 9225,
      "({(": 9226,
      "write_vec": 9227,
      "14159265358979323": 9228,
      "(*--": 9229,
      "3199": 9230,
      "1000000000LL": 9231,
      "nger": 9232,
      "sum_w": 9233,
      "\"-\"){": 9234,
      "get_size": 9235,
      "0x3f3f3f3f3f3f3f3fll": 9236,
      "cycle_sum": 9237,
      "ishou": 9238,
      "Factrial": 9239,
      "Rolling": 9240,
      "PrimeFactorization": 9241,
      "8000000000000000064LL": 9242,
      ")]==": 9243,
      "54": 9244,
      "820": 9245,
      ":\",": 9246,
      "Alpha": 9247,
      "Bidi": 9248,
      "City": 9249,
      "Ri": 9250,
      "Tour": 9251,
      "dcnt": 9252,
      "egcd": 9253,
      "ichi": 9254,
      "land": 9255,
      "ming": 9256,
      "mpa": 9257,
      "nTrg": 9258,
      "oe": 9259,
      "plist": 9260,
      "uk": 9261,
      "ypy": 9262,
      "rear": 9263,
      "llpair": 9264,
      "()<<'\\": 9265,
      "conf": 9266,
      "lea": 9267,
      "strcat": 9268,
      "maxVal": 9269,
      "sumE": 9270,
      "sumv": 9271,
      "min_c": 9272,
      "])),": 9273,
      "//*": 9274,
      "num_b": 9275,
      "))];": 9276,
      "vecs": 9277,
      "presum": 9278,
      "arr3": 9279,
      "curve": 9280,
      "nei": 9281,
      "argum": 9282,
      "add2": 9283,
      "('-'": 9284,
      "min_d": 9285,
      "cands": 9286,
      ")<<'": 9287,
      "odd2": 9288,
      "agi": 9289,
      "VVVLL": 9290,
      "ancestor": 9291,
      "expon": 9292,
      "PQI": 9293,
      "nCrprep": 9294,
      "Visit": 9295,
      "65432": 9296,
      "plier": 9297,
      "Bits": 9298,
      "TopFace": 9299,
      "Work": 9300,
      "pow_long": 9301,
      "Side": 9302,
      "toupr": 9303,
      "Coun": 9304,
      "bellmanford": 9305,
      "nearest": 9306,
      "tptpt": 9307,
      "ypypy": 9308,
      "#\"": 9309,
      "118": 9310,
      "6000": 9311,
      "BST": 9312,
      "Dtl": 9313,
      "DIG": 9314,
      "Ml": 9315,
      "SR": 9316,
      "[')": 9317,
      "]\";": 9318,
      "_zero": 9319,
      "fct": 9320,
      "g3": 9321,
      "jl": 9322,
      "n6": 9323,
      "nT": 9324,
      "pmod": 9325,
      "r_sum": 9326,
      "sad": 9327,
      "wx": 9328,
      "w_max": 9329,
      "xroot": 9330,
      "x_sum": 9331,
      "in_mod": 9332,
      "llinf": 9333,
      "ll_ll": 9334,
      "paper": 9335,
      "minsum": 9336,
      "1030": 9337,
      "option": 9338,
      "sym": 9339,
      "ket": 9340,
      "map1": 9341,
      "dist_": 9342,
      "vvchar": 9343,
      "find1": 9344,
      "factr": 9345,
      "max_c": 9346,
      "total_time": 9347,
      "is_sorted": 9348,
      "sum_A": 9349,
      "214514": 9350,
      "flows": 9351,
      "unionFind": 9352,
      "3372036854775807": 9353,
      "avx": 9354,
      "vec_s": 9355,
      "recurse": 9356,
      "234567": 9357,
      "ve_comb": 9358,
      "util": 9359,
      "noudo": 9360,
      "Mark": 9361,
      "InsertionSort": 9362,
      "penalty": 9363,
      "$&": 9364,
      "./": 9365,
      "0123456789": 9366,
      "179": 9367,
      "Ad": 9368,
      "A_num": 9369,
      "Exp": 9370,
      "HP": 9371,
      "Mp": 9372,
      "Sz": 9373,
      "Tolower": 9374,
      "_order": 9375,
      "draw": 9376,
      "horizontal": 9377,
      "lpow": 9378,
      "mset": 9379,
      "ned": 9380,
      "nai": 9381,
      "rchr": 9382,
      "rht": 9383,
      "s5": 9384,
      "tos": 9385,
      "u_": 9386,
      "vli": 9387,
      "wm": 9388,
      "yg": 9389,
      "cture": 9390,
      "constra": 9391,
      "strtok": 9392,
      "aru": 9393,
      "minr": 9394,
      "])>=": 9395,
      "modm": 9396,
      "modfact": 9397,
      "fft": 9398,
      "LLL": 9399,
      "tmp0": 9400,
      "mess": 9401,
      "getValue": 9402,
      "isUsed": 9403,
      "base_type": 9404,
      "parr": 9405,
      "mxc": 9406,
      "key_": 9407,
      "memory": 9408,
      "epsil": 9409,
      "writechar": 9410,
      "<<'-'<<": 9411,
      "ptor": 9412,
      "];}}": 9413,
      "alphabe": 9414,
      "SSS": 9415,
      "2399": 9416,
      "Cases": 9417,
      "new_node": 9418,
      "negative_loop": 9419,
      "fast_writechar": 9420,
      "odd_dp": 9421,
      "CHMAX": 9422,
      "gao": 9423,
      "4000005": 9424,
      "descriptor": 9425,
      "________________________________________________________________": 9426,
      "chosen": 9427,
      "was_output": 9428,
      "Bool": 9429,
      "local_iterator": 9430,
      "Cross": 9431,
      "basic_ostream": 9432,
      "troot": 9433,
      "find_first_of": 9434,
      "NCK_MAX": 9435,
      "epsilon": 9436,
      "0F": 9437,
      "5LL": 9438,
      "5lf": 9439,
      "EE": 9440,
      "K2": 9441,
      "Ln": 9442,
      "Shell": 9443,
      "Toupper": 9444,
      "_os": 9445,
      "ibuff": 9446,
      "jn": 9447,
      "pvv": 9448,
      "w4": 9449,
      "stp": 9450,
      "formula": 9451,
      "mation": 9452,
      "ar1": 9453,
      "maxans": 9454,
      "string_": 9455,
      "mino": 9456,
      "))%=": 9457,
      "))<<\"\\": 9458,
      "getnum": 9459,
      "isLowerCase": 9460,
      "pi64": 9461,
      "par1": 9462,
      "------": 9463,
      "]=='-'){": 9464,
      "1500001": 9465,
      "readline": 9466,
      "inputVector": 9467,
      "_cum": 9468,
      "shte": 9469,
      "newnode": 9470,
      "gray": 9471,
      "ModPow": 9472,
      "door": 9473,
      "Rev": 9474,
      "Exec": 9475,
      "pond": 9476,
      "BIGP": 9477,
      "animal": 9478,
      "4000010": 9479,
      "Degree": 9480,
      "pitsu": 9481,
      "locale_t": 9482,
      "isPerfectSquare": 9483,
      "!((": 9484,
      "Lucas": 9485,
      "Pld": 9486,
      "Ql": 9487,
      "Vpl": 9488,
      "Vpd": 9489,
      "_reset": 9490,
      "b_s": 9491,
      "happiness": 9492,
      "lh": 9493,
      "m_p": 9494,
      "obuff": 9495,
      "php": 9496,
      "wp": 9497,
      "mpt": 9498,
      "votes": 9499,
      "sum4": 9500,
      "sumS": 9501,
      "\";//": 9502,
      "))),": 9503,
      "syou": 9504,
      "tmp4": 9505,
      "<<\"*": 9506,
      "getfa": 9507,
      "isOdd": 9508,
      "ftware": 9509,
      "net": 9510,
      "bufl": 9511,
      "max_score": 9512,
      "mization": 9513,
      "Invalid": 9514,
      "memchr": 9515,
      "power_mod": 9516,
      "min_count": 9517,
      "saishou": 9518,
      "score_": 9519,
      "Modulo": 9520,
      "cumu": 9521,
      "faster": 9522,
      "multivector": 9523,
      "path2": 9524,
      "_Traits": 9525,
      "print_ints": 9526,
      "NEX": 9527,
      "my_pow": 9528,
      "55555555": 9529,
      "is_same_set": 9530,
      "Days": 9531,
      "<<\".\"<<\"\\": 9532,
      "diagonal": 9533,
      "1415926535897932384626433832795028841971": 9534,
      "]=='@'){": 9535,
      "ential": 9536,
      "RYGB": 9537,
      "Counter": 9538,
      ".\\": 9539,
      "130": 9540,
      "AP": 9541,
      "Bsum": 9542,
      "Center": 9543,
      "Ds": 9544,
      "ELEM": 9545,
      "MII": 9546,
      "Pis": 9547,
      "Scan": 9548,
      "TIM": 9549,
      "West": 9550,
      "bed": 9551,
      "bmap": 9552,
      "bfr": 9553,
[...]
