{
  "version": "1.0",
  "truncation": null,
  "padding": null,
  "added_tokens": [
    {
      "id": 0,
      "content": "[PAD]",
      "single_word": false,
      "lstrip": false,
      "rstrip": false,
      "normalized": false,
      "special": true
    },
    {
      "id": 1,
      "content": "[UNK]",
      "single_word": false,
      "lstrip": false,
      "rstrip": false,
      "normalized": false,
      "special": true
    },
    {
      "id": 2,
      "content": "[SOS]",
      "single_word": false,
      "lstrip": false,
      "rstrip": false,
      "normalized": false,
      "special": true
    },
    {
      "id": 3,
      "content": "[EOS]",
      "single_word": false,
      "lstrip": false,
      "rstrip": false,
      "normalized": false,
      "special": true
    }
  ],
  "normalizer": null,
  "pre_tokenizer": {
    "type": "Whitespace"
  },
  "post_processor": null,
  "decoder": null,
  "model": {
    "type": "BPE",
    "dropout": null,
    "unk_token": "[UNK]",
    "continuing_subword_prefix": null,
    "end_of_word_suffix": "</w>",
    "fuse_unk": false,
    "vocab": {
      "[PAD]": 0,
      "[UNK]": 1,
      "[SOS]": 2,
      "[EOS]": 3,
      "\u001f": 4,
      "!": 5,
      "\"": 6,
      "#": 7,
      "$": 8,
      "%": 9,
      "&": 10,
      "'": 11,
      "(": 12,
      ")": 13,
      "*": 14,
      "+": 15,
      ",": 16,
      "-": 17,
      ".": 18,
      "/": 19,
      "0": 20,
      "1": 21,
      "2": 22,
      "3": 23,
      "4": 24,
      "5": 25,
      "6": 26,
      "7": 27,
      "8": 28,
      "9": 29,
      ":": 30,
      ";": 31,
      "<": 32,
      "=": 33,
      ">": 34,
      "?": 35,
      "@": 36,
      "A": 37,
      "B": 38,
      "C": 39,
      "D": 40,
      "E": 41,
      "F": 42,
      "G": 43,
      "H": 44,
      "I": 45,
      "J": 46,
      "K": 47,
      "L": 48,
      "M": 49,
      "N": 50,
      "O": 51,
      "P": 52,
      "Q": 53,
      "R": 54,
      "S": 55,
      "T": 56,
      "U": 57,
      "V": 58,
      "W": 59,
      "X": 60,
      "Y": 61,
      "Z": 62,
      "[": 63,
      "\\": 64,
      "]": 65,
      "^": 66,
      "_": 67,
      "`": 68,
      "a": 69,
      "b": 70,
      "c": 71,
      "d": 72,
      "e": 73,
      "f": 74,
      "g": 75,
      "h": 76,
      "i": 77,
      "j": 78,
      "k": 79,
      "l": 80,
      "m": 81,
      "n": 82,
      "o": 83,
      "p": 84,
      "q": 85,
      "r": 86,
      "s": 87,
      "t": 88,
      "u": 89,
      "v": 90,
      "w": 91,
      "x": 92,
      "y": 93,
      "z": 94,
      "{": 95,
      "|": 96,
      "}": 97,
      "~": 98,
      "e</w>": 99,
      "t</w>": 100,
      "E</w>": 101,
      "d</w>": 102,
      "s</w>": 103,
      "r</w>": 104,
      "j</w>": 105,
      "a</w>": 106,
      "f</w>": 107,
      "l</w>": 108,
      "M</w>": 109,
      "2</w>": 110,
      "w</w>": 111,
      "n</w>": 112,
      "y</w>": 113,
      "g</w>": 114,
      "0</w>": 115,
      "p</w>": 116,
      "N</w>": 117,
      "L</w>": 118,
      "H</w>": 119,
      "T</w>": 120,
      "h</w>": 121,
      "x</w>": 122,
      "c</w>": 123,
      "D</w>": 124,
      "S</w>": 125,
      "m</w>": 126,
      "W</w>": 127,
      "k</w>": 128,
      "3</w>": 129,
      "Y</w>": 130,
      "R</w>": 131,
      "1</w>": 132,
      "o</w>": 133,
      "8</w>": 134,
      "'</w>": 135,
      "P</w>": 136,
      "X</w>": 137,
      "U</w>": 138,
      "6</w>": 139,
      "K</w>": 140,
      "F</w>": 141,
      "_</w>": 142,
      "O</w>": 143,
      "I</w>": 144,
      "b</w>": 145,
      "B</w>": 146,
      "A</w>": 147,
      "C</w>": 148,
      "G</w>": 149,
      "]</w>": 150,
      "i</w>": 151,
      "5</w>": 152,
      "7</w>": 153,
      "9</w>": 154,
      "4</w>": 155,
      "V</w>": 156,
      "v</w>": 157,
      "J</w>": 158,
      "q</w>": 159,
      "u</w>": 160,
      "%</w>": 161,
      "&</w>": 162,
      "<</w>": 163,
      "z</w>": 164,
      "[</w>": 165,
      ",</w>": 166,
      "\"</w>": 167,
      "Q</w>": 168,
      "Z</w>": 169,
      "~</w>": 170,
      "/</w>": 171,
      "\\</w>": 172,
      ".</w>": 173,
      "-</w>": 174,
      ";</w>": 175,
      "}</w>": 176,
      "$</w>": 177,
      "^</w>": 178,
      ")</w>": 179,
      "=</w>": 180,
      "`</w>": 181,
      "{</w>": 182,
      "(</w>": 183,
      "?</w>": 184,
      "#</w>": 185,
      "*</w>": 186,
      "></w>": 187,
      "|</w>": 188,
      ":</w>": 189,
      "@</w>": 190,
      "+</w>": 191,
      "!</w>": 192,
      "et": 193,
      "in": 194,
      "er": 195,
      "en": 196,
      "at": 197,
      "on": 198,
      "tr": 199,
      "le": 200,
      "get": 201,
      "ti": 202,
      "re": 203,
      "__": 204,
      "al": 205,
      "ur": 206,
      "ro": 207,
      "si": 208,
      "ar": 209,
      "on</w>": 210,
      "an": 211,
      "ul": 212,
      "st": 213,
      "er</w>": 214,
      "or": 215,
      "ce": 216,
      "as": 217,
      "etur": 218,
      "am": 219,
      "retur": 220,
      "te": 221,
      "return</w>": 222,
      "od": 223,
      "if</w>": 224,
      "li": 225,
      "ent</w>": 226,
      "es": 227,
      "ri": 228,
      "Str": 229,
      "is": 230,
      "il": 231,
      "ull</w>": 232,
      "ec": 233,
      "mp": 234,
      "ing</w>": 235,
      "pu": 236,
      "ati": 237,
      "or</w>": 238,
      "str": 239,
      "fin": 240,
      "tion</w>": 241,
      "In": 242,
      "yp": 243,
      "ac": 244,
      "ne": 245,
      "Ex": 246,
      "th": 247,
      "ent": 248,
      "null</w>": 249,
      "String</w>": 250,
      "al</w>": 251,
      "Co": 252,
      "res": 253,
      "Nam": 254,
      "el": 255,
      "las": 256,
      "_str": 257,
      "___</w>": 258,
      "___str": 259,
      "___str___</w>": 260,
      "ag": 261,
      "bli": 262,
      "ment</w>": 263,
      "publi": 264,
      "public</w>": 265,
      "Con": 266,
      "fi": 267,
      "ab": 268,
      "ad": 269,
      "Typ": 270,
      "ex": 271,
      "new</w>": 272,
      "Id</w>": 273,
      "final</w>": 274,
      "ing": 275,
      "Re": 276,
      "ver": 277,
      "ate": 278,
      "co": 279,
      "my": 280,
      "jec": 281,
      "Name</w>": 282,
      "tion": 283,
      "ch": 284,
      "ue</w>": 285,
      "se</w>": 286,
      "vi": 287,
      "oc": 288,
      "oo": 289,
      "ption</w>": 290,
      "Psi": 291,
      "qu": 292,
      "sion</w>": 293,
      "Pro": 294,
      "un": 295,
      "ap": 296,
      "lement</w>": 297,
      "et</w>": 298,
      "es</w>": 299,
      "ce</w>": 300,
      "le</w>": 301,
      "Type</w>": 302,
      "ception</w>": 303,
      "Clas": 304,
      "ate</w>": 305,
      "ile</w>": 306,
      "==</w>": 307,
      "Mod": 308,
      "rid": 309,
      "it": 310,
      "ed": 311,
      "Exception</w>": 312,
      "up": 313,
      "int</w>": 314,
      "ot": 315,
      "set": 316,
      "Fi": 317,
      "verrid": 318,
      "stan": 319,
      "Overrid": 320,
      "con": 321,
      "Override</w>": 322,
      "ut": 323,
      "ject</w>": 324,
      "pro": 325,
      "tex": 326,
      "St": 327,
      "id</w>": 328,
      "!=</w>": 329,
      "En": 330,
      "ment": 331,
      "ort": 332,
      "Comp": 333,
      "text</w>": 334,
      "ser": 335,
      "bu": 336,
      "der</w>": 337,
      "per": 338,
      "Element</w>": 339,
      "By": 340,
      "thro": 341,
      "ist</w>": 342,
      "List</w>": 343,
      "alue</w>": 344,
      "ation": 345,
      "ol": 346,
      "vo": 347,
      "Uti": 348,
      "ter": 349,
      "der": 350,
      "able": 351,
      "de": 352,
      "el</w>": 353,
      "eth": 354,
      "tor": 355,
      "ay": 356,
      "lo": 357,
      "void</w>": 358,
      "app": 359,
      "an</w>": 360,
      "pres": 361,
      "File</w>": 362,
      "ation</w>": 363,
      "Par": 364,
      "our": 365,
      "ode</w>": 366,
      "Class</w>": 367,
      "oole": 368,
      "fer": 369,
      "par": 370,
      "De": 371,
      "ang": 372,
      "try</w>": 373,
      "Res": 374,
      "Util</w>": 375,
      "oolean</w>": 376,
      "Ch": 377,
      "lec": 378,
      "&&</w>": 379,
      "Ob": 380,
      "ator</w>": 381,
      "File": 382,
      "Ar": 383,
      "Ser": 384,
      "able</w>": 385,
      "stance": 386,
      "clas": 387,
      "Not": 388,
      "ult</w>": 389,
      "Ac": 390,
      "nam": 391,
      "tri": 392,
      "Null</w>": 393,
      "boolean</w>": 394,
      "fal": 395,
      "false</w>": 396,
      "se": 397,
      "to": 398,
      "Ke": 399,
      "is</w>": 400,
      "lu": 401,
      "atic</w>": 402,
      "and": 403,
      "static</w>": 404,
      "Imp": 405,
      "ong</w>": 406,
      "this</w>": 407,
      "iz": 408,
      "pression</w>": 409,
      "qual": 410,
      "NotNull</w>": 411,
      "ap</w>": 412,
      "To": 413,
      "of</w>": 414,
      "for</w>": 415,
      "sag": 416,
      "ff": 417,
      "th</w>": 418,
      "Pat": 419,
      "instance": 420,
      "pri": 421,
      "instanceof</w>": 422,
      "Object</w>": 423,
      "end</w>": 424,
      "end": 425,
      "cri": 426,
      "ay</w>": 427,
      "roup": 428,
      "em": 429,
      "Context</w>": 430,
      "ve": 431,
      "let": 432,
      "Value</w>": 433,
      "Dat": 434,
      "ws</w>": 435,
      "ces": 436,
      "An": 437,
      "Meth": 438,
      "sion": 439,
      "Bu": 440,
      "equal": 441,
      "ain": 442,
      "else</w>": 443,
      "ilder</w>": 444,
      "ty": 445,
      "long</w>": 446,
      "po": 447,
      "true</w>": 448,
      "priv": 449,
      "get</w>": 450,
      "id": 451,
      "Servi": 452,
      "Tex": 453,
      "Class": 454,
      "throws</w>": 455,
      "private</w>": 456,
      "ig": 457,
      "equals</w>": 458,
      "eng": 459,
      "Se": 460,
      "anag": 461,
      "Expression</w>": 462,
      "essag": 463,
      "Impl</w>": 464,
      "ach": 465,
      "ength</w>": 466,
      "amet": 467,
      "av": 468,
      "mod": 469,
      "lement": 470,
      "typ": 471,
      "ic": 472,
      "feren": 473,
      "comp": 474,
      "ke": 475,
      "ted</w>": 476,
      "ub": 477,
      "escri": 478,
      "append</w>": 479,
      "port": 480,
      "Qu": 481,
      "cre": 482,
      "tory</w>": 483,
      "result</w>": 484,
      "add": 485,
      "od</w>": 486,
      "ty</w>": 487,
      "Map</w>": 488,
      "alu": 489,
      "Manag": 490,
      "ch</w>": 491,
      "||</w>": 492,
      "String": 493,
      "loc": 494,
      "tor</w>": 495,
      "throw</w>": 496,
      "Loc": 497,
      "ts</w>": 498,
      "element</w>": 499,
      "ifi": 500,
      "Node</w>": 501,
      "set</w>": 502,
      "fig": 503,
      "Vi": 504,
      "est</w>": 505,
      "ayo": 506,
      "name</w>": 507,
      "ource": 508,
      "E_": 509,
      "ist": 510,
      "ind": 511,
      "IN": 512,
      "ession</w>": 513,
      "Di": 514,
      "length</w>": 515,
      "ter</w>": 516,
      "class</w>": 517,
      "Arr": 518,
      "Set": 519,
      "Cont": 520,
      "und": 521,
      "At": 522,
      "Key</w>": 523,
      "Model</w>": 524,
      "quest</w>": 525,
      "Po": 526,
      "cont": 527,
      "tribu": 528,
      "Compar": 529,
      "Model": 530,
      "Proper": 531,
      "value</w>": 532,
      "orm": 533,
      "tribute": 534,
      "cess": 535,
      "ild": 536,
      "tu": 537,
      "find": 538,
      "fa": 539,
      "fo</w>": 540,
      "dex</w>": 541,
      "figur": 542,
      "Manager</w>": 543,
      "Set</w>": 544,
      "ler</w>": 545,
      "file</w>": 546,
      "Path</w>": 547,
      "Port": 548,
      "lum": 549,
      "stance</w>": 550,
      "yId</w>": 551,
      "mo": 552,
      "meth": 553,
      "Fac": 554,
      "pl": 555,
      "sh": 556,
      "getIn": 557,
      "ack": 558,
      "Comparator</w>": 559,
      "put</w>": 560,
      "ER": 561,
      "T_": 562,
      "Fiel": 563,
      "ted": 564,
      "ffset</w>": 565,
      "create": 566,
      "ting": 567,
      "has": 568,
      "Paramet": 569,
      "mm": 570,
      "derBy": 571,
      "AT": 572,
      "add</w>": 573,
      "Col": 574,
      "Id": 575,
      "ed</w>": 576,
      "Per": 577,
      "essage</w>": 578,
      "Element": 579,
      "tions</w>": 580,
      "derByComparator</w>": 581,
      "type</w>": 582,
      "escrip": 583,
      "Cach": 584,
      "IO": 585,
      "ow": 586,
      "Or": 587,
      "tec": 588,
      "unt</w>": 589,
      "Compon": 590,
      "st</w>": 591,
      "Lin": 592,
      "im": 593,
      "Builder</w>": 594,
      "Quer": 595,
      "ocu": 596,
      "protec": 597,
      "Sy": 598,
      "ult": 599,
      "protected</w>": 600,
      "Type": 601,
      "Referen": 602,
      "rec": 603,
      "age": 604,
      "ode": 605,
      "atch</w>": 606,
      "star": 607,
      "Pre": 608,
      "Group": 609,
      "PsiElement</w>": 610,
      "itor</w>": 611,
      "Entry</w>": 612,
      "Lo": 613,
      "siz": 614,
      "ers</w>": 615,
      "all": 616,
      "Hand": 617,
      "Ed": 618,
      "mb": 619,
      "class": 620,
      "uc": 621,
      "context</w>": 622,
      "ull": 623,
      "Tr": 624,
      "file": 625,
      "EN": 626,
      "Text</w>": 627,
      "Ev": 628,
      "put": 629,
      "dd": 630,
      "pat": 631,
      "getName</w>": 632,
      "Project</w>": 633,
      "ange</w>": 634,
      "ule": 635,
      "As": 636,
      "ject": 637,
      "read": 638,
      "ary": 639,
      "new": 640,
      "ayout": 641,
      "Method</w>": 642,
      "State": 643,
      "Local": 644,
      "ST": 645,
      "Configur": 646,
      "cop": 647,
      "igh": 648,
      "size</w>": 649,
      "ource</w>": 650,
      "ut</w>": 651,
      "Selec": 652,
      "not": 653,
      "Info</w>": 654,
      "Th": 655,
      "getS": 656,
      "Data": 657,
      "Key": 658,
      "User": 659,
      "at</w>": 660,
      "tual": 661,
      "Method": 662,
      "urr": 663,
      "group": 664,
      "up</w>": 665,
      "Gr": 666,
      "Tre": 667,
      "Data</w>": 668,
      "Service</w>": 669,
      "posi": 670,
      "project</w>": 671,
      "catch</w>": 672,
      "Un": 673,
      "Service": 674,
      "Array": 675,
      "UR": 676,
      "Request</w>": 677,
      "est": 678,
      "lumn": 679,
      "di": 680,
      "sp": 681,
      "la": 682,
      "ms": 683,
      "age</w>": 684,
      "session</w>": 685,
      "aliz": 686,
      "Action": 687,
      "try": 688,
      "rtual": 689,
      "Gro": 690,
      "Y_": 691,
      "eck": 692,
      "No": 693,
      "Null": 694,
      "Offset</w>": 695,
      "fault": 696,
      "tings</w>": 697,
      "ava": 698,
      "lic": 699,
      "ute</w>": 700,
      "Dis": 701,
      "tributes</w>": 702,
      "Sh": 703,
      "Factory</w>": 704,
      "contain": 705,
      "escriptor</w>": 706,
      "om": 707,
      "ari": 708,
      "anyId</w>": 709,
      "sist": 710,
      "reg": 711,
      "fini": 712,
      "Ver": 713,
      "Roo": 714,
      "getInstance</w>": 715,
      "Valu": 716,
      "atu": 717,
      "Py": 718,
      "ale": 719,
      "fac": 720,
      "LO": 721,
      "gg": 722,
      "orderByComparator</w>": 723,
      "emp": 724,
      "msg</w>": 725,
      "Collec": 726,
      "ob": 727,
      "ader</w>": 728,
      "Name": 729,
      "node</w>": 730,
      "builder</w>": 731,
      "in</w>": 732,
      "Ro": 733,
      "Text": 734,
      "model</w>": 735,
      "enti": 736,
      "CO": 737,
      "action": 738,
      "AR": 739,
      "Component</w>": 740,
      "op": 741,
      "Al": 742,
      "Modifi": 743,
      "List": 744,
      "Tim": 745,
      "Nullable</w>": 746,
      "Defini": 747,
      "form": 748,
      "Bund": 749,
      "ve</w>": 750,
      "Op": 751,
      "Result</w>": 752,
      "ace": 753,
      "ken": 754,
      "ar</w>": 755,
      "sup": 756,
      "ev": 757,
      "ateg": 758,
      "sub": 759,
      "Tree": 760,
      "rtualFile</w>": 761,
      "remo": 762,
      "Index</w>": 763,
      "user": 764,
      "Query</w>": 765,
      "ild</w>": 766,
      "atch": 767,
      "groupId</w>": 768,
      "gu": 769,
      "RE": 770,
      "ml": 771,
      "++</w>": 772,
      "lifer": 773,
      "urrent": 774,
      "Be": 775,
      "Syst": 776,
      "toString</w>": 777,
      "ace</w>": 778,
      "Emp": 779,
      "Dep": 780,
      "alid": 781,
      "aleo": 782,
      "Tas": 783,
      "am</w>": 784,
      "Field": 785,
      "com</w>": 786,
      "Oper": 787,
      "fiel": 788,
      "And": 789,
      "Handler</w>": 790,
      "IT": 791,
      "pre": 792,
      "ans": 793,
      "arch": 794,
      "H_": 795,
      "dat": 796,
      "liferay</w>": 797,
      "nal": 798,
      "pon": 799,
      "Count</w>": 800,
      "Comm": 801,
      "arr": 802,
      "gh": 803,
      "ener": 804,
      "Fol": 805,
      "Java": 806,
      "State</w>": 807,
      "Met": 808,
      "wor": 809,
      "S_": 810,
      "gin": 811,
      "Add": 812,
      "Reg": 813,
      "trib": 814,
      "valu": 815,
      "ocument</w>": 816,
      "RO": 817,
      "rea": 818,
      "Event</w>": 819,
      "getL": 820,
      "Reference": 821,
      "ash": 822,
      "enc": 823,
      "AN": 824,
      "Temp": 825,
      "message</w>": 826,
      "sb</w>": 827,
      "method": 828,
      "Portlet": 829,
      "findBy": 830,
      "ser</w>": 831,
      "ls</w>": 832,
      "AC": 833,
      "Stre": 834,
      "do": 835,
      "Ind": 836,
      "Su": 837,
      "portlet": 838,
      "method</w>": 839,
      "Bloc": 840,
      "ule</w>": 841,
      "tory": 842,
      "Settings</w>": 843,
      "resol": 844,
      "gn": 845,
      "Persist": 846,
      "Statement</w>": 847,
      "tribute</w>": 848,
      "tic": 849,
      "Resource": 850,
      "getC": 851,
      "angu": 852,
      "Siz": 853,
      "ard": 854,
      "Ite": 855,
      "Pri": 856,
      "tar": 857,
      "rom": 858,
      "it</w>": 859,
      "Entry": 860,
      "Sp": 861,
      "Types</w>": 862,
      "oth": 863,
      "ore": 864,
      "tt": 865,
      "Pan": 866,
      "parent</w>": 867,
      "ip": 868,
      "text": 869,
      "Provi": 870,
      "VirtualFile</w>": 871,
      "Descriptor</w>": 872,
      "Empty</w>": 873,
      "so": 874,
      "Contain": 875,
      "ew": 876,
      "Rec": 877,
      "Path": 878,
      "Star": 879,
      "Templ": 880,
      "ties</w>": 881,
      "psi": 882,
      "Inter": 883,
      "abled</w>": 884,
      "start": 885,
      "ence</w>": 886,
      "servi": 887,
      "Annot": 888,
      "lin": 889,
      "AM": 890,
      "ase</w>": 891,
      "ange": 892,
      "date": 893,
      "Range</w>": 894,
      "ure</w>": 895,
      "ress</w>": 896,
      "OR": 897,
      "gument": 898,
      "Column": 899,
      "AL": 900,
      "selec": 901,
      "ModelImpl</w>": 902,
      "Portal": 903,
      "proper": 904,
      "ategor": 905,
      "Message</w>": 906,
      "index</w>": 907,
      "Form": 908,
      "Default": 909,
      "Session</w>": 910,
      "Group</w>": 911,
      "ook": 912,
      "quest": 913,
      "Child": 914,
      "Token": 915,
      "For": 916,
      "ynam": 917,
      "Nex": 918,
      "ponse</w>": 919,
      "atus</w>": 920,
      "ase": 921,
      "array</w>": 922,
      "Layout": 923,
      "te</w>": 924,
      "getPar": 925,
      "list</w>": 926,
      "Cache</w>": 927,
      "mis": 928,
      "ag</w>": 929,
      "ail": 930,
      "leg": 931,
      "Names</w>": 932,
      "path</w>": 933,
      "process": 934,
      "isEmpty</w>": 935,
      "Field</w>": 936,
      "D_": 937,
      "ttp": 938,
      "Xml": 939,
      "ER_": 940,
      "Editor</w>": 941,
      "paramet": 942,
      "Vari": 943,
      "um": 944,
      "key</w>": 945,
      "visi": 946,
      "ith": 947,
      "editor</w>": 948,
      "iti": 949,
      "companyId</w>": 950,
      "Tar": 951,
      "ai": 952,
      "getD": 953,
      "Cache": 954,
      "Configuration</w>": 955,
      "Enabled</w>": 956,
      "ynamic": 957,
      "rro": 958,
      "int": 959,
      "red": 960,
      "Action</w>": 961,
      "cep": 962,
      "Size</w>": 963,
      "cal": 964,
      "G_": 965,
      "DE": 966,
      "wri": 967,
      "attributes</w>": 968,
      "start</w>": 969,
      "br": 970,
      "ayout</w>": 971,
      "gro": 972,
      "mary": 973,
      "N_": 974,
      "check": 975,
      "Attribute</w>": 976,
      "request</w>": 977,
      "itor": 978,
      "Definition</w>": 979,
      "Mapp": 980,
      "Hash": 981,
      "struc": 982,
      "Version</w>": 983,
      "tim": 984,
      "ArrayList</w>": 985,
      "Enti": 986,
      "nec": 987,
      "Parameter": 988,
      "ark": 989,
      "sy": 990,
      "escription</w>": 991,
      "Array</w>": 992,
      "count</w>": 993,
      "Property</w>": 994,
      "C_": 995,
      "Byte": 996,
      "Acti": 997,
      "ender": 998,
      "by": 999,
      "Date</w>": 1000,
      "Direc": 1001,
      "Content": 1002,
      "Module": 1003,
      "Exp": 1004,
      "Project": 1005,
      "ite": 1006,
      "index": 1007,
      "Out": 1008,
      "NAM": 1009,
      "other</w>": 1010,
      "Run": 1011,
      "ool": 1012,
      "IOException</w>": 1013,
      "nex": 1014,
      "cope</w>": 1015,
      "clu": 1016,
      "key": 1017,
      "expression</w>": 1018,
      "EM": 1019,
      "exp": 1020,
      "emb": 1021,
      "Erro": 1022,
      "Code</w>": 1023,
      "getClass</w>": 1024,
      "Reference</w>": 1025,
      "DD": 1026,
      "umb": 1027,
      "etch": 1028,
      "Bo": 1029,
      "Task": 1030,
      "ffer</w>": 1031,
      "asser": 1032,
      "entry</w>": 1033,
      "AS": 1034,
      "portal</w>": 1035,
      "Displ": 1036,
      "compon": 1037,
      "Messag": 1038,
      "Resol": 1039,
      "Br": 1040,
      "Ap": 1041,
      "Revi": 1042,
      "parent": 1043,
      "elet": 1044,
      "Index": 1045,
      "soap": 1046,
      "ilter": 1047,
      "nel</w>": 1048,
      "Root": 1049,
      "col": 1050,
      "oci": 1051,
      "ool</w>": 1052,
      "Process": 1053,
      "ligh": 1054,
      "Such": 1055,
      "Up": 1056,
      "ken</w>": 1057,
      "Regis": 1058,
      "Property": 1059,
      "ten": 1060,
      "imp": 1061,
      "NoSuch": 1062,
      "adat": 1063,
      "getP": 1064,
      "current": 1065,
      "are": 1066,
      "Next</w>": 1067,
      "ializ": 1068,
      "Constan": 1069,
      "ighligh": 1070,
      "Sub": 1071,
      "ma": 1072,
      "Wr": 1073,
      "unc": 1074,
      "System": 1075,
      "iter": 1076,
      "ynamicQuery</w>": 1077,
      "Table": 1078,
      "be": 1079,
      "Provider</w>": 1080,
      "service": 1081,
      "loy": 1082,
      "Cal": 1083,
      "sign": 1084,
      "obj</w>": 1085,
      "gs</w>": 1086,
      "uid</w>": 1087,
      "endenc": 1088,
      "He": 1089,
      "Loader</w>": 1090,
      "super</w>": 1091,
      "Of</w>": 1092,
      "Posi": 1093,
      "Stream</w>": 1094,
      "ces</w>": 1095,
      "Keys</w>": 1096,
      "Parameter</w>": 1097,
      "row": 1098,
      "Instance": 1099,
      "jav": 1100,
      "cation": 1101,
      "low": 1102,
      "fetch": 1103,
      "Bundle</w>": 1104,
      "tifi": 1105,
      "PsiClass</w>": 1106,
      "java</w>": 1107,
      "ast": 1108,
      "Trans": 1109,
      "sW": 1110,
      "remove": 1111,
      "getValue</w>": 1112,
      "Code": 1113,
      "fo": 1114,
      "element": 1115,
      "Argument": 1116,
      "Line": 1117,
      "Address</w>": 1118,
      "eb": 1119,
      "URL</w>": 1120,
      "ort</w>": 1121,
      "Bran": 1122,
      "NO": 1123,
      "Char": 1124,
      "PortalException</w>": 1125,
      "LE": 1126,
      "Operation": 1127,
      "From": 1128,
      "Struc": 1129,
      "Values</w>": 1130,
      "that</w>": 1131,
      "Langu": 1132,
      "GroupId</w>": 1133,
      "vlet": 1134,
      "Query": 1135,
      "maryKey</w>": 1136,
      "Li": 1137,
      "wh": 1138,
      "Request": 1139,
      "Reposi": 1140,
      "for": 1141,
      "out": 1142,
      "Panel</w>": 1143,
      "KE": 1144,
      "Component": 1145,
      "layout": 1146,
      "Http": 1147,
      "Sup": 1148,
      "Persistence</w>": 1149,
      "Response</w>": 1150,
      "ner</w>": 1151,
      "Permis": 1152,
      "Check": 1153,
      "Fr": 1154,
      "00": 1155,
      "dep": 1156,
      "So": 1157,
      "ator": 1158,
      "update": 1159,
      "log</w>": 1160,
      "OrderByComparator</w>": 1161,
      "Categor": 1162,
      "valid": 1163,
      "erro": 1164,
      "ary</w>": 1165,
      "pression": 1166,
      "Value": 1167,
      "Template": 1168,
      "Bean": 1169,
      "ight</w>": 1170,
      "Fir": 1171,
      "FI": 1172,
      "lumn</w>": 1173,
      "Editor": 1174,
      "ble": 1175,
      "Pack": 1176,
      "Ids</w>": 1177,
      "contains</w>": 1178,
      "regist": 1179,
      "type": 1180,
      "chem": 1181,
      "ust": 1182,
      "Pool</w>": 1183,
      "Source</w>": 1184,
      "Attribute": 1185,
      "cs": 1186,
      "older</w>": 1187,
      "ocial": 1188,
      "Start": 1189,
      "tit": 1190,
      "resolve": 1191,
      "App": 1192,
      "ilter</w>": 1193,
      "field</w>": 1194,
      "Of": 1195,
      "Tag</w>": 1196,
      "ov": 1197,
      "kaleo": 1198,
      "offset</w>": 1199,
      "ker": 1200,
      "he": 1201,
      "teg": 1202,
      "gger</w>": 1203,
      "Ur": 1204,
      "Constants</w>": 1205,
      "Properties</w>": 1206,
      "fix</w>": 1207,
      "column": 1208,
      "act": 1209,
      "Search": 1210,
      "Utils</w>": 1211,
      "SE": 1212,
      "ly": 1213,
      "lan": 1214,
      "Node": 1215,
      "Instance</w>": 1216,
      "Kaleo": 1217,
      "DL": 1218,
      "Collection</w>": 1219,
      "NAME</w>": 1220,
      "Gener": 1221,
      "On": 1222,
      "info</w>": 1223,
      "Visi": 1224,
      "DDM": 1225,
      "Content</w>": 1226,
      "ord": 1227,
      "bo": 1228,
      "apper</w>": 1229,
      "ENT": 1230,
      "ron": 1231,
      "Numb": 1232,
      "Call": 1233,
      "tifac": 1234,
      "ations</w>": 1235,
      "ddm": 1236,
      "ign": 1237,
      "Highligh": 1238,
      "Block</w>": 1239,
      "idth</w>": 1240,
      "Layout</w>": 1241,
      "cess</w>": 1242,
      "ournal": 1243,
      "ener</w>": 1244,
      "Wri": 1245,
      "Boolean</w>": 1246,
      "Attributes</w>": 1247,
      "getType</w>": 1248,
      "Item</w>": 1249,
      "Stat": 1250,
      "value": 1251,
      "loyment": 1252,
      "Time": 1253,
      "DynamicQuery</w>": 1254,
      "ession": 1255,
      "legal": 1256,
      "field": 1257,
      "hash": 1258,
      "child</w>": 1259,
      "Wind": 1260,
      "All</w>": 1261,
      "Il": 1262,
      "End": 1263,
      "Illegal": 1264,
      "hand": 1265,
      "Valid": 1266,
      "state</w>": 1267,
      "Entity": 1268,
      "Exec": 1269,
      "old": 1270,
      "UN": 1271,
      "getUser": 1272,
      "Connec": 1273,
      "Hel": 1274,
      "Token</w>": 1275,
      "getM": 1276,
      "aClass</w>": 1277,
      "adata</w>": 1278,
      "date</w>": 1279,
      "entifi": 1280,
      "register": 1281,
      "air</w>": 1282,
      "PsiMethod</w>": 1283,
      "state": 1284,
      "ver</w>": 1285,
      "utor</w>": 1286,
      "Render": 1287,
      "and</w>": 1288,
      "P_": 1289,
      "Long</w>": 1290,
      "PK</w>": 1291,
      "vity": 1292,
      "entation</w>": 1293,
      "repl": 1294,
      "getClass": 1295,
      "exception</w>": 1296,
      "Lev": 1297,
      "visit": 1298,
      "teger</w>": 1299,
      "log": 1300,
      "em</w>": 1301,
      "configur": 1302,
      "ass": 1303,
      "Notifi": 1304,
      "With": 1305,
      "Prev": 1306,
      "FIN": 1307,
      "while</w>": 1308,
      "Groov": 1309,
      "UL": 1310,
      "Usag": 1311,
      "UI": 1312,
      "out</w>": 1313,
      "PsiType</w>": 1314,
      "StringUtil</w>": 1315,
      "args</w>": 1316,
      "exec": 1317,
      "data": 1318,
      "itializ": 1319,
      "met": 1320,
      "PT": 1321,
      "return": 1322,
      "Remo": 1323,
      "Import": 1324,
      "kernel</w>": 1325,
      "cach": 1326,
      "referen": 1327,
      "default": 1328,
      "Parameters</w>": 1329,
      "Dependenc": 1330,
      "getParent</w>": 1331,
      "su": 1332,
      "Ab": 1333,
      "quer": 1334,
      "TextRange</w>": 1335,
      "userId</w>": 1336,
      "CompanyId</w>": 1337,
      "resource": 1338,
      "SO": 1339,
      "Iter": 1340,
      "Position</w>": 1341,
      "fir": 1342,
      "ren</w>": 1343,
      "L_": 1344,
      "LocalService</w>": 1345,
      "clo": 1346,
      "match": 1347,
      "ster": 1348,
      "getProject</w>": 1349,
      "status</w>": 1350,
      "param": 1351,
      "annot": 1352,
      "DER_": 1353,
      "Source": 1354,
      "putStream</w>": 1355,
      "child": 1356,
      "Scope</w>": 1357,
      "Directory</w>": 1358,
      "last": 1359,
      "ew</w>": 1360,
      "Context": 1361,
      "crip": 1362,
      "values</w>": 1363,
      "Display</w>": 1364,
      "UT": 1365,
      "ture": 1366,
      "con</w>": 1367,
      "Folder": 1368,
      "soapModel</w>": 1369,
      "ings</w>": 1370,
      "Tool": 1371,
      "fetchBy": 1372,
      "Integer</w>": 1373,
      "read</w>": 1374,
      "ER</w>": 1375,
      "ow</w>": 1376,
      "min": 1377,
      "eme": 1378,
      "Groovy": 1379,
      "Dec": 1380,
      "aData</w>": 1381,
      "Error": 1382,
      "LOG</w>": 1383,
      "Message": 1384,
      "PsiFile</w>": 1385,
      "dl": 1386,
      "inter": 1387,
      "Options</w>": 1388,
      "ION_": 1389,
      "write": 1390,
      "ified": 1391,
      "Asset": 1392,
      "_log</w>": 1393,
      "cle": 1394,
      "LI": 1395,
      "Servlet": 1396,
      "StringBuilder</w>": 1397,
      "ou": 1398,
      "word": 1399,
      "root": 1400,
      "utable": 1401,
      "component</w>": 1402,
      "Assign": 1403,
      "PrevAnd": 1404,
      "PrevAndNext</w>": 1405,
      "getR": 1406,
      "ies</w>": 1407,
      "ocument": 1408,
      "und</w>": 1409,
      "endar": 1410,
      "Configuration": 1411,
      "ast</w>": 1412,
      "NameId</w>": 1413,
      "getText</w>": 1414,
      "Bundler</w>": 1415,
      "StringBundler</w>": 1416,
      "erg": 1417,
      "ot</w>": 1418,
      "ion": 1419,
      "Vcs": 1420,
      "per</w>": 1421,
      "tend": 1422,
      "Block": 1423,
      "data</w>": 1424,
      "RI": 1425,
      "alo": 1426,
      "tot": 1427,
      "string</w>": 1428,
      "Module</w>": 1429,
      "orig": 1430,
      "document</w>": 1431,
      "Exten": 1432,
      "StringPool</w>": 1433,
      "lugin": 1434,
      "spec": 1435,
      "reposi": 1436,
      "At</w>": 1437,
      "qui": 1438,
      "hashCode</w>": 1439,
      "Revision</w>": 1440,
      "Line</w>": 1441,
      "Identifi": 1442,
      "Wrapper</w>": 1443,
      "one</w>": 1444,
      "Dir</w>": 1445,
      "Folder</w>": 1446,
      "Resource</w>": 1447,
      "rom</w>": 1448,
      "Root</w>": 1449,
      "Event": 1450,
      "list": 1451,
      "Ref": 1452,
      "delet": 1453,
      "group</w>": 1454,
      "local": 1455,
      "PrimaryKey</w>": 1456,
      "event</w>": 1457,
      "System</w>": 1458,
      "ally</w>": 1459,
      "Artic": 1460,
      "Chang": 1461,
      "parse": 1462,
      "dis": 1463,
      "Selected": 1464,
      "Icon</w>": 1465,
      "comm": 1466,
      "lang</w>": 1467,
      "PAT": 1468,
      "ated": 1469,
      "ustom": 1470,
      "oper": 1471,
      "Qual": 1472,
      "build": 1473,
      "ress": 1474,
      "Ori": 1475,
      "origin": 1476,
      "DataContext</w>": 1477,
      "mark": 1478,
      "Web": 1479,
      "aven": 1480,
      "SU": 1481,
      "time": 1482,
      "temp": 1483,
      "Expression": 1484,
      "Notification": 1485,
      "ner": 1486,
      "can": 1487,
      "Table</w>": 1488,
      "nc": 1489,
      "filter": 1490,
      "ft</w>": 1491,
      "ableDynamicQuery</w>": 1492,
      "Contr": 1493,
      "Item": 1494,
      "odes</w>": 1495,
      "Buffer</w>": 1496,
      "Version": 1497,
      "target</w>": 1498,
      "Elements</w>": 1499,
      "Length</w>": 1500,
      "model": 1501,
      "Object": 1502,
      "Access": 1503,
      "path": 1504,
      "property": 1505,
      "Memb": 1506,
      "ki": 1507,
      ">=</w>": 1508,
      "Link": 1509,
      "uble</w>": 1510,
      "Files</w>": 1511,
      "MB": 1512,
      "Activity": 1513,
      "fig</w>": 1514,
      "Dom": 1515,
      "CON": 1516,
      "Annotation": 1517,
      "Func": 1518,
      "All": 1519,
      "ments</w>": 1520,
      "unt": 1521,
      "View": 1522,
      "error</w>": 1523,
      "Ad": 1524,
      "let</w>": 1525,
      "asset": 1526,
      "Document</w>": 1527,
      "create</w>": 1528,
      "ION</w>": 1529,
      "finally</w>": 1530,
      "Number</w>": 1531,
      "char": 1532,
      "settings</w>": 1533,
      "byte</w>": 1534,
      "sec": 1535,
      "Color</w>": 1536,
      "iterator</w>": 1537,
      "ref": 1538,
      "Tag": 1539,
      "tern</w>": 1540,
      "Description</w>": 1541,
      "map</w>": 1542,
      "tas": 1543,
      "Status</w>": 1544,
      "module</w>": 1545,
      "Listener</w>": 1546,
      "af": 1547,
      "Get": 1548,
      "format</w>": 1549,
      "Structure": 1550,
      "Language": 1551,
      "Variable": 1552,
      "myProject</w>": 1553,
      "Target</w>": 1554,
      "no": 1555,
      "remove</w>": 1556,
      "Variable</w>": 1557,
      "Info": 1558,
      "ative": 1559,
      "Filter</w>": 1560,
      "descriptor</w>": 1561,
      "line": 1562,
      "Mode</w>": 1563,
      "ql": 1564,
      "emeDisplay</w>": 1565,
      "collec": 1566,
      "Origin": 1567,
      "ind</w>": 1568,
      "CH_": 1569,
      "inc": 1570,
      "module": 1571,
      "version</w>": 1572,
      "Models</w>": 1573,
      "FINDER_": 1574,
      "Applic": 1575,
      "EX": 1576,
      "Role</w>": 1577,
      "Url</w>": 1578,
      "source": 1579,
      "ft": 1580,
      "Libr": 1581,
      "assert</w>": 1582,
      "uuid</w>": 1583,
      "URL": 1584,
      "Param": 1585,
      "Le": 1586,
      "next</w>": 1587,
      "Helper</w>": 1588,
      "dec": 1589,
      "Match": 1590,
      "KEY</w>": 1591,
      "Debu": 1592,
      "Pr": 1593,
      "ith</w>": 1594,
      "Change": 1595,
      "Serializ": 1596,
      "YP": 1597,
      "Common": 1598,
      "First</w>": 1599,
      "Exter": 1600,
      "jects</w>": 1601,
      "className</w>": 1602,
      "Task</w>": 1603,
      "kf": 1604,
      "search": 1605,
      "Wor": 1606,
      "gr": 1607,
      "Pair</w>": 1608,
      "Permission": 1609,
      "Option": 1610,
      "getB": 1611,
      "Thread": 1612,
      "To</w>": 1613,
      "ex</w>": 1614,
      "TYP": 1615,
      "ame": 1616,
      "Time</w>": 1617,
      "Im": 1618,
      "imple": 1619,
      "Schem": 1620,
      "ll": 1621,
      "PRO": 1622,
      "ElementType</w>": 1623,
      "older": 1624,
      "myC": 1625,
      "trans": 1626,
      "un</w>": 1627,
      "Artifac": 1628,
      "Selected</w>": 1629,
      "root</w>": 1630,
      "ack</w>": 1631,
      "MetaData</w>": 1632,
      "url</w>": 1633,
      "cla": 1634,
      "substring</w>": 1635,
      "load": 1636,
      "SQ": 1637,
      "Original": 1638,
      "Lab": 1639,
      "Collections</w>": 1640,
      "Conver": 1641,
      "source</w>": 1642,
      "Read": 1643,
      "bloc": 1644,
      "Log": 1645,
      "gener": 1646,
      "Registry</w>": 1647,
      "Level</w>": 1648,
      "entity": 1649,
      "alog</w>": 1650,
      "ler": 1651,
      "assert": 1652,
      "ps": 1653,
      "fix": 1654,
      "ion</w>": 1655,
      "Preferen": 1656,
      "Soap</w>": 1657,
      "extend": 1658,
      "ore</w>": 1659,
      "table</w>": 1660,
      "Point</w>": 1661,
      "tings": 1662,
      "acti": 1663,
      "lar": 1664,
      "mbo": 1665,
      "arn": 1666,
      "Annotation</w>": 1667,
      "node": 1668,
      "Definition": 1669,
      "Manager": 1670,
      "+=</w>": 1671,
      "ke</w>": 1672,
      "action</w>": 1673,
      "kflow": 1674,
      "Polic": 1675,
      "Ow": 1676,
      "ingClass</w>": 1677,
      "AB": 1678,
      "Abstr": 1679,
      "Maven": 1680,
      "pr": 1681,
      "ET": 1682,
      "vari": 1683,
      "lob": 1684,
      "Iterator</w>": 1685,
      "conver": 1686,
      "next": 1687,
      "CacheModel</w>": 1688,
      "ute": 1689,
      "from": 1690,
      "uth": 1691,
      "original": 1692,
      "stit": 1693,
      "getFile": 1694,
      "Bin": 1695,
      "curr": 1696,
      "Stream": 1697,
      "Non": 1698,
      "Tree</w>": 1699,
      "table": 1700,
      "position</w>": 1701,
      "Factory": 1702,
      "getF": 1703,
      "cs</w>": 1704,
      "Role": 1705,
      "Container</w>": 1706,
      "line</w>": 1707,
      "ortc": 1708,
      "Last</w>": 1709,
      "brea": 1710,
      "ClassName</w>": 1711,
      "invo": 1712,
      "led": 1713,
      "voc": 1714,
      "byte": 1715,
      "iki": 1716,
      "esp": 1717,
      "ocialActivity": 1718,
      "sed</w>": 1719,
      "tre": 1720,
      "logger</w>": 1721,
      "Deployment": 1722,
      "Reader</w>": 1723,
      "claz": 1724,
      "Mark": 1725,
      "Descrip": 1726,
      "Remote": 1727,
      "ax": 1728,
      "SP": 1729,
      "Do": 1730,
      "WIT": 1731,
      "Pres": 1732,
      "ical": 1733,
      "selected": 1734,
      "ServiceUtil</w>": 1735,
      "parameter": 1736,
      "EMPT": 1737,
      "Session": 1738,
      "getPersistence</w>": 1739,
      "unds</w>": 1740,
      "sEntry</w>": 1741,
      "Branch</w>": 1742,
      "templ": 1743,
      "Rel": 1744,
      "Processor</w>": 1745,
      "ackgro": 1746,
      "Is": 1747,
      "Modifier": 1748,
      "ando": 1749,
      "oin": 1750,
      "nch": 1751,
      "reate": 1752,
      "ature</w>": 1753,
      "Com": 1754,
      "Abstract": 1755,
      "StartOffset</w>": 1756,
      "Target": 1757,
      "orted": 1758,
      "clazz</w>": 1759,
      "Tit": 1760,
      "nchron": 1761,
      "sing": 1762,
      "Journal": 1763,
      "Resolve": 1764,
      "buffer</w>": 1765,
      "Doc": 1766,
      "opp": 1767,
      "ITY_": 1768,
      "ib": 1769,
      "wr": 1770,
      "LAS": 1771,
      "case</w>": 1772,
      "ity</w>": 1773,
      "open": 1774,
      "sWith</w>": 1775,
      "ID</w>": 1776,
      "ance": 1777,
      "PsiExpression</w>": 1778,
      "Template</w>": 1779,
      "EC": 1780,
      "column</w>": 1781,
      "parameters</w>": 1782,
      "serviceContext</w>": 1783,
      "Cli": 1784,
      "query": 1785,
      "target": 1786,
      "Branch": 1787,
      "SI": 1788,
      "ClassLoader</w>": 1789,
      "Sty": 1790,
      "Order": 1791,
      "New": 1792,
      "gan": 1793,
      "ad</w>": 1794,
      "Id_": 1795,
      "CH": 1796,
      "direc": 1797,
      "Child</w>": 1798,
      "PAR": 1799,
      "getContain": 1800,
      "Selection": 1801,
      "TokenType</w>": 1802,
      "Inspec": 1803,
      "getParent": 1804,
      "Ho": 1805,
      "Holder</w>": 1806,
      "If": 1807,
      "incip": 1808,
      "mar": 1809,
      "Locale</w>": 1810,
      "contin": 1811,
      "ReferenceExpression</w>": 1812,
      "View</w>": 1813,
      "ganiz": 1814,
      "CE</w>": 1815,
      "ulti": 1816,
      "max": 1817,
      "Sign": 1818,
      "Diff": 1819,
      "JSO": 1820,
      "Control": 1821,
      "DO": 1822,
      "Ali": 1823,
      "DI": 1824,
      "cope": 1825,
      "Identifier</w>": 1826,
      "Unit</w>": 1827,
      "range</w>": 1828,
      "debu": 1829,
      "base": 1830,
      "Config</w>": 1831,
      "ArgumentException</w>": 1832,
      "Sec": 1833,
      "Look": 1834,
      "Ter": 1835,
      "PATH_": 1836,
      "if": 1837,
      "Book": 1838,
      "Track": 1839,
      "IllegalArgumentException</w>": 1840,
      "tition": 1841,
      "HashMap</w>": 1842,
      "nchroniz": 1843,
      "Document": 1844,
      "token": 1845,
      "content</w>": 1846,
      "Imm": 1847,
      "finder": 1848,
      "MO": 1849,
      "Map": 1850,
      "cro": 1851,
      "ble</w>": 1852,
      "getKey</w>": 1853,
      "isIn": 1854,
      "Prox": 1855,
      "name": 1856,
      "TreeNode</w>": 1857,
      "Frag": 1858,
      "continue</w>": 1859,
      "Complet": 1860,
      "FileEntry": 1861,
      "totyp": 1862,
      "Build": 1863,
      "Princip": 1864,
      "Row</w>": 1865,
      "Parent</w>": 1866,
      "point</w>": 1867,
      "ModelNode</w>": 1868,
      "Handle</w>": 1869,
      "ffer": 1870,
      "ENT_": 1871,
      "configuration</w>": 1872,
      "getCompanyId</w>": 1873,
      "andid": 1874,
      "Simple": 1875,
      "From</w>": 1876,
      "row</w>": 1877,
      "son": 1878,
      "show": 1879,
      "files</w>": 1880,
      "ution": 1881,
      "Qualified": 1882,
      "content": 1883,
      "Chan": 1884,
      "factory</w>": 1885,
      "getChild": 1886,
      "extends</w>": 1887,
      "LE_": 1888,
      "VI": 1889,
      "MA": 1890,
      "build</w>": 1891,
      "Validator</w>": 1892,
      "ly</w>": 1893,
      "syst": 1894,
      "Injec": 1895,
      "finderCache</w>": 1896,
      "Throw": 1897,
      "Error</w>": 1898,
      "Metadata</w>": 1899,
      "stitutor</w>": 1900,
      "dk": 1901,
      "ENTITY_": 1902,
      "ity": 1903,
      "delete": 1904,
      "strain": 1905,
      "ults</w>": 1906,
      "eturn": 1907,
      "Thread</w>": 1908,
      "opping": 1909,
      "super": 1910,
      "getService</w>": 1911,
      "ame</w>": 1912,
      "Repository</w>": 1913,
      "Load": 1914,
      "Objects</w>": 1915,
      "update</w>": 1916,
      "Wh": 1917,
      "folder": 1918,
      "Format": 1919,
      "Uuid</w>": 1920,
      "Revision": 1921,
      "HO": 1922,
      "JB": 1923,
      "Start</w>": 1924,
      "tryId</w>": 1925,
      "RA": 1926,
      "reader</w>": 1927,
      "any": 1928,
      "Coun": 1929,
      "XM": 1930,
      "Page</w>": 1931,
      "utt": 1932,
      "aw": 1933,
      "cap": 1934,
      "use</w>": 1935,
      "ES</w>": 1936,
      "Rule": 1937,
      "models</w>": 1938,
      "ket": 1939,
      "Usage": 1940,
      "External": 1941,
      "ties": 1942,
      "Cel": 1943,
      "Shard": 1944,
      "Highlight": 1945,
      "entry": 1946,
      "memb": 1947,
      "count": 1948,
      "component": 1949,
      "war": 1950,
      "TO": 1951,
      "manag": 1952,
      "WITH_": 1953,
      "ody</w>": 1954,
      "Filter": 1955,
      "clude": 1956,
      "Bind": 1957,
      "AST": 1958,
      "Settings": 1959,
      "Registr": 1960,
      "Column</w>": 1961,
      "bean": 1962,
      "response</w>": 1963,
      "argument": 1964,
      "getSelected": 1965,
      "params</w>": 1966,
      "dk</w>": 1967,
      "dition</w>": 1968,
      "atus": 1969,
      "replace": 1970,
      "ure": 1971,
      "ected": 1972,
      "us": 1973,
      "statement</w>": 1974,
      "RAC": 1975,
      "width</w>": 1976,
      "Proble": 1977,
      "request": 1978,
      "FA": 1979,
      "ActionableDynamicQuery</w>": 1980,
      "Date": 1981,
      "aret": 1982,
      "Prototyp": 1983,
      "sets</w>": 1984,
      "uid": 1985,
      "attribute": 1986,
      "Obj</w>": 1987,
      "valueOf</w>": 1988,
      "classPK</w>": 1989,
      "SE_": 1990,
      "STAT": 1991,
      "Output": 1992,
      "User</w>": 1993,
      "break</w>": 1994,
      "portlet</w>": 1995,
      "JSON": 1996,
      "TreeUtil</w>": 1997,
      "A_": 1998,
      "Case</w>": 1999,
      "cache": 2000,
      "PO": 2001,
      "tries</w>": 2002,
      "HashSet</w>": 2003,
      "croll": 2004,
      "double</w>": 2005,
      "NO_": 2006,
      "Title</w>": 2007,
      "Display": 2008,
      "classNameId</w>": 2009,
      "connec": 2010,
      "Sequ": 2011,
      "Application": 2012,
      "Width</w>": 2013,
      "com": 2014,
      "Change</w>": 2015,
      "Immutable": 2016,
      "sTo": 2017,
      "Window</w>": 2018,
      "getData</w>": 2019,
      "as</w>": 2020,
      "Checker</w>": 2021,
      "order": 2022,
      "dr": 2023,
      "righ": 2024,
      "Shortc": 2025,
      "exist": 2026,
      "close": 2027,
      "CallExpression</w>": 2028,
      "tern": 2029,
      "run</w>": 2030,
      "cript": 2031,
      "Principal</w>": 2032,
      "fr": 2033,
      "vs": 2034,
      "ont": 2035,
      "run": 2036,
      "Fields</w>": 2037,
      "TI": 2038,
      "AG": 2039,
      "themeDisplay</w>": 2040,
      "nel": 2041,
      "Clu": 2042,
      "Pl": 2043,
      "FINDER_PATH_": 2044,
      "persist": 2045,
      "ence": 2046,
      "Repository": 2047,
      "ifier</w>": 2048,
      "Focu": 2049,
      "ED</w>": 2050,
      "aph": 2051,
      "ved": 2052,
      "Update": 2053,
      "VAL": 2054,
      "Uuid": 2055,
      "endar</w>": 2056,
      "Cop": 2057,
      "OperationException</w>": 2058,
      "Int</w>": 2059,
      "lobal": 2060,
      "EL": 2061,
      "description</w>": 2062,
      "ms</w>": 2063,
      "assword": 2064,
      "Category": 2065,
      "gger": 2066,
      "Mat": 2067,
      "Clo": 2068,
      "project": 2069,
      "Owner</w>": 2070,
      "osi": 2071,
      "FileEntry</w>": 2072,
      "spli": 2073,
      "mapp": 2074,
      "Collection": 2075,
      "actionRequest</w>": 2076,
      "Bytes</w>": 2077,
      "Arrays</w>": 2078,
      "Base": 2079,
      "erge": 2080,
      "tional": 2081,
      "Parser</w>": 2082,
      "ili": 2083,
      "Icon": 2084,
      "Row": 2085,
      "Writer</w>": 2086,
      "ingFile</w>": 2087,
      "object</w>": 2088,
      "http": 2089,
      "categor": 2090,
      "<=</w>": 2091,
      "soapModels</w>": 2092,
      "Delet": 2093,
      "STAN": 2094,
      "Inspection": 2095,
      "render": 2096,
      "Provider": 2097,
      "rs</w>": 2098,
      "bytes</w>": 2099,
      "Result": 2100,
      "Modifier</w>": 2101,
      "Mapper</w>": 2102,
      "SQL": 2103,
      "stin": 2104,
      "Pattern</w>": 2105,
      "aly": 2106,
      "addAll</w>": 2107,
      "Label</w>": 2108,
      "own": 2109,
      "Package</w>": 2110,
      "que": 2111,
      "isSelected</w>": 2112,
      "matcher</w>": 2113,
      "Custom": 2114,
      "Library": 2115,
      "task": 2116,
      "provi": 2117,
      "Named": 2118,
      "types</w>": 2119,
      "HttpServlet": 2120,
      "Mapping</w>": 2121,
      "ATT": 2122,
      "Cluster": 2123,
      "Plugin": 2124,
      "COM": 2125,
      "system": 2126,
      "ec</w>": 2127,
      "Category</w>": 2128,
      "scope</w>": 2129,
      "elements</w>": 2130,
      "BY_": 2131,
      "Renderer</w>": 2132,
      "item</w>": 2133,
      "tag</w>": 2134,
      "Record": 2135,
      "sions</w>": 2136,
      "fore": 2137,
      "straints</w>": 2138,
      "ActionEvent</w>": 2139,
      "Window": 2140,
      "uti": 2141,
      "DEFA": 2142,
      "getGroupId</w>": 2143,
      "DEFAUL": 2144,
      "Permission</w>": 2145,
      "orrec": 2146,
      "Ex</w>": 2147,
      "properties</w>": 2148,
      "alid</w>": 2149,
      "org</w>": 2150,
      "first": 2151,
      "Function</w>": 2152,
      "cli": 2153,
      "K_": 2154,
      "ASTNode</w>": 2155,
      "Fin": 2156,
      "PsiTreeUtil</w>": 2157,
      "UE</w>": 2158,
      "ture</w>": 2159,
      "ref</w>": 2160,
      "service</w>": 2161,
      "Article": 2162,
      "options</w>": 2163,
      "nal</w>": 2164,
      "CLAS": 2165,
      "tors</w>": 2166,
      "point": 2167,
      "user</w>": 2168,
      "metadata</w>": 2169,
      "getDefault": 2170,
      "edModel</w>": 2171,
      "getPres": 2172,
      "calendar": 2173,
      "its</w>": 2174,
      "langu": 2175,
      "avi": 2176,
      "SS": 2177,
      "ClassType</w>": 2178,
      "debug</w>": 2179,
      "util</w>": 2180,
      "ade</w>": 2181,
      "INSTAN": 2182,
      "Entity</w>": 2183,
      "Page": 2184,
      "sum": 2185,
      "sq": 2186,
      "Preferences</w>": 2187,
      "Transaction": 2188,
      "ServiceName</w>": 2189,
      "shard": 2190,
      "Runtime": 2191,
      "Link</w>": 2192,
      "Ign": 2193,
      "Prefix</w>": 2194,
      "word</w>": 2195,
      "Nodes</w>": 2196,
      "compar": 2197,
      "cation</w>": 2198,
      "Ref</w>": 2199,
      "getPath</w>": 2200,
      "Initializ": 2201,
      "Location</w>": 2202,
      "getBy": 2203,
      "Join": 2204,
      "Server": 2205,
      "Strateg": 2206,
      "resolve</w>": 2207,
      "Construc": 2208,
      "Container": 2209,
      "0x": 2210,
      "invoke</w>": 2211,
      "OfType</w>": 2212,
      "contains": 2213,
      "pan": 2214,
      "Handler": 2215,
      "avig": 2216,
      "view": 2217,
      "abul": 2218,
      "EndOffset</w>": 2219,
      "modifi": 2220,
      "Command": 2221,
      "clear": 2222,
      "Git": 2223,
      "LE</w>": 2224,
      "Pane</w>": 2225,
      "PRE": 2226,
      "IN_": 2227,
      "Multi": 2228,
      "Prog": 2229,
      "handler</w>": 2230,
      "ain</w>": 2231,
      "getStartOffset</w>": 2232,
      "height</w>": 2233,
      "Math</w>": 2234,
      "SystemException</w>": 2235,
      "Auth": 2236,
      "virtualFile</w>": 2237,
      "call": 2238,
      "journal": 2239,
      "ho": 2240,
      "End</w>": 2241,
      "reference</w>": 2242,
      "empty": 2243,
      "reference": 2244,
      "ff</w>": 2245,
      "des": 2246,
      "Language</w>": 2247,
      "sed": 2248,
      "java": 2249,
      "Dialog</w>": 2250,
      "synchroniz": 2251,
      "Modified</w>": 2252,
      "tach": 2253,
      "toArray</w>": 2254,
      "Det": 2255,
      "lag": 2256,
      "Namesp": 2257,
      "amp</w>": 2258,
      "First": 2259,
      "Height</w>": 2260,
      "fileName</w>": 2261,
      "copy": 2262,
      "parameter</w>": 2263,
      "ub</w>": 2264,
      "Head": 2265,
      "ferred": 2266,
      "replace</w>": 2267,
      "messag": 2268,
      "pos</w>": 2269,
      "Extension</w>": 2270,
      "Fix</w>": 2271,
      "Dependency</w>": 2272,
      "getParameter": 2273,
      "bin": 2274,
      "NO_SU": 2275,
      "children</w>": 2276,
      "Valid</w>": 2277,
      "regis": 2278,
      "NO_SUCH_": 2279,
      "Suppres": 2280,
      "startsWith</w>": 2281,
      "mbol</w>": 2282,
      "_NO_SUCH_": 2283,
      "psiElement</w>": 2284,
      "ENTITY_WITH_": 2285,
      "_NO_SUCH_ENTITY_WITH_": 2286,
      "first</w>": 2287,
      "Visitor</w>": 2288,
      "Box</w>": 2289,
      "AV": 2290,
      "present": 2291,
      "cl": 2292,
      "correc": 2293,
      "ive": 2294,
      "BRAC": 2295,
      "ren": 2296,
      "DataKeys</w>": 2297,
      "Pu": 2298,
      "libr": 2299,
      "INSTANCE</w>": 2300,
      "output": 2301,
      "current</w>": 2302,
      "Debug": 2303,
      "Artifact": 2304,
      "Uuid_": 2305,
      "compare": 2306,
      "Sequence</w>": 2307,
      "Assignment": 2308,
      "ENT</w>": 2309,
      "Columns</w>": 2310,
      "ROO": 2311,
      "Throwable</w>": 2312,
      "Policy</w>": 2313,
      "StateException</w>": 2314,
      "Lookup": 2315,
      "ackground": 2316,
      "res</w>": 2317,
      "Graph": 2318,
      "ight": 2319,
      "ge</w>": 2320,
      "qual</w>": 2321,
      "Fo": 2322,
      "execute</w>": 2323,
      "Liter": 2324,
      "Style": 2325,
      "DAT": 2326,
      "UserId</w>": 2327,
      "pack": 2328,
      "nap": 2329,
      "accep": 2330,
      "Status": 2331,
      "ir": 2332,
      "Av": 2333,
      "Tab": 2334,
      "TYPE_": 2335,
      "Actions</w>": 2336,
      "clud": 2337,
      "presentation</w>": 2338,
      "COUN": 2339,
      "Show": 2340,
      "CLO": 2341,
      "Classes</w>": 2342,
      "Repl": 2343,
      "Methods</w>": 2344,
      "initializ": 2345,
      "Create": 2346,
      "X_": 2347,
      "Ignore": 2348,
      "LOG": 2349,
      "deployment": 2350,
      "Modified": 2351,
      "ps</w>": 2352,
      "Resolver</w>": 2353,
      "blog": 2354,
      "space</w>": 2355,
      "viron": 2356,
      "Calendar": 2357,
      "secon": 2358,
      "manager</w>": 2359,
      "findByPrimaryKey</w>": 2360,
      "layout</w>": 2361,
      "Article</w>": 2362,
      "extr": 2363,
      "PER": 2364,
      "anch": 2365,
      "Marker</w>": 2366,
      "AnActionEvent</w>": 2367,
      "tang": 2368,
      "InputStream</w>": 2369,
      "Butt": 2370,
      "Sli": 2371,
      "openSession</w>": 2372,
      "ING</w>": 2373,
      "Commit": 2374,
      "psiFile</w>": 2375,
      "vn": 2376,
      "Invalid": 2377,
      "context": 2378,
      "napsh": 2379,
      "men": 2380,
      "returnObj</w>": 2381,
      "closeSession</w>": 2382,
      "QualifiedName</w>": 2383,
      "folderId</w>": 2384,
      "Sql": 2385,
      "getUserId</w>": 2386,
      "Messages</w>": 2387,
      "IllegalStateException</w>": 2388,
      "Ide": 2389,
      "anges</w>": 2390,
      "Bounds</w>": 2391,
      "Stats</w>": 2392,
      "getLast": 2393,
      "Wiki": 2394,
      "sql</w>": 2395,
      "Popu": 2396,
      "print": 2397,
      "viou": 2398,
      "Af": 2399,
      "LAN": 2400,
      "Return": 2401,
      "her": 2402,
      "31</w>": 2403,
      "Input": 2404,
      "quire": 2405,
      "arnings</w>": 2406,
      "prefix</w>": 2407,
      "buf</w>": 2408,
      "Invoc": 2409,
      "char</w>": 2410,
      "Range": 2411,
      "Operation</w>": 2412,
      "serializ": 2413,
      "cluster": 2414,
      "Buffer": 2415,
      "Avail": 2416,
      "ED_": 2417,
      "Mo": 2418,
      "correct": 2419,
      "synchronized</w>": 2420,
      "Kind</w>": 2421,
      "Workflow": 2422,
      "ched": 2423,
      "riend": 2424,
      "LA": 2425,
      "Composi": 2426,
      "wit": 2427,
      "val</w>": 2428,
      "indexOf</w>": 2429,
      "Structure</w>": 2430,
      "arch</w>": 2431,
      "tangle</w>": 2432,
      "factor": 2433,
      "EntryId</w>": 2434,
      "dic": 2435,
      "Entries</w>": 2436,
      "struction</w>": 2437,
      "Declar": 2438,
      "processException</w>": 2439,
      "back</w>": 2440,
      "riendly": 2441,
      "cf": 2442,
      "Member": 2443,
      "Config": 2444,
      "property</w>": 2445,
      "other": 2446,
      "ception": 2447,
      "getElement</w>": 2448,
      "BUT": 2449,
      "FolderId</w>": 2450,
      "EMPTY_": 2451,
      "variable</w>": 2452,
      "CT": 2453,
      "Sing": 2454,
      "annotation</w>": 2455,
      "charAt</w>": 2456,
      "Color": 2457,
      "Base</w>": 2458,
      "SER": 2459,
      "Execution": 2460,
      "sert": 2461,
      "ated</w>": 2462,
      "True</w>": 2463,
      "ilder": 2464,
      "ick": 2465,
      "stre": 2466,
      "Fragment</w>": 2467,
      "Implement": 2468,
      "DEFAULT_": 2469,
      "oolean": 2470,
      "candid": 2471,
      "block</w>": 2472,
      "descrip": 2473,
      "space": 2474,
      "Intercep": 2475,
      "Sync": 2476,
      "Parent": 2477,
      "GER</w>": 2478,
      "Signature</w>": 2479,
      "token</w>": 2480,
      "getLine": 2481,
      "Serializable</w>": 2482,
      "ong": 2483,
      "AP": 2484,
      "ls": 2485,
      "Update</w>": 2486,
      "role": 2487,
      "operation</w>": 2488,
      "with": 2489,
      "ints</w>": 2490,
      "rel": 2491,
      "Constraints</w>": 2492,
      "0000": 2493,
      "psiClass</w>": 2494,
      "Member</w>": 2495,
      "Expando": 2496,
      "isValid</w>": 2497,
      "title</w>": 2498,
      "getType": 2499,
      "ByteBuffer</w>": 2500,
      "getDocument</w>": 2501,
      "fault</w>": 2502,
      "getId</w>": 2503,
      "cc": 2504,
      "adata": 2505,
      "primaryKey</w>": 2506,
      "port</w>": 2507,
      "getColumn": 2508,
      "json": 2509,
      "SuppressW": 2510,
      "getTextRange</w>": 2511,
      "attribute</w>": 2512,
      "SuppressWarnings</w>": 2513,
      "filter</w>": 2514,
      "Visible</w>": 2515,
      "resolved</w>": 2516,
      "Package": 2517,
      "getPre": 2518,
      "Paths</w>": 2519,
      "Logger</w>": 2520,
      "Incorrect": 2521,
      "col</w>": 2522,
      "Next": 2523,
      "expr</w>": 2524,
      "getMessage</w>": 2525,
      "dependenc": 2526,
      "getElement": 2527,
      "getText": 2528,
      "getString</w>": 2529,
      "socialActivity": 2530,
      "hasNext</w>": 2531,
      "LocalServiceUtil</w>": 2532,
      "dataContext</w>": 2533,
      "location</w>": 2534,
      "ARRA": 2535,
      "ach</w>": 2536,
      "Properties": 2537,
      "template": 2538,
      "BRACE</w>": 2539,
      "gument</w>": 2540,
      "AL_": 2541,
      "artifac": 2542,
      "legate</w>": 2543,
      "copy</w>": 2544,
      "XmlTag</w>": 2545,
      "Dir": 2546,
      "_original": 2547,
      "Call</w>": 2548,
      "Global": 2549,
      "bind": 2550,
      "gin</w>": 2551,
      "ory": 2552,
      "portletDataContext</w>": 2553,
      "Image</w>": 2554,
      "Attach": 2555,
      "IncorrectOperationException</w>": 2556,
      "play": 2557,
      "portImport": 2558,
      "map": 2559,
      "back": 2560,
      "ported": 2561,
      "Calendar</w>": 2562,
      "Symbol</w>": 2563,
      "Directory": 2564,
      "JEC": 2565,
      "tree": 2566,
      "Rectangle</w>": 2567,
      "Organiz": 2568,
      "en</w>": 2569,
      "istic": 2570,
      "Binary": 2571,
      "LOGGER</w>": 2572,
      "max</w>": 2573,
      "repository</w>": 2574,
      "ages</w>": 2575,
      "present_": 2576,
      "TR": 2577,
      "ING_": 2578,
      "RIBUT": 2579,
      "Agg": 2580,
      "Problem": 2581,
      "Fe": 2582,
      "Evalu": 2583,
      "uto": 2584,
      "Strategy</w>": 2585,
      "CLOSE_": 2586,
      "JComponent</w>": 2587,
      "Empty": 2588,
      "Image": 2589,
      "usag": 2590,
      "PsiClassType</w>": 2591,
      "Brea": 2592,
      "address</w>": 2593,
      "tag": 2594,
      "tool": 2595,
      "Aggreg": 2596,
      "LayoutSet": 2597,
      "provider</w>": 2598,
      "Connection</w>": 2599,
      "PsiModifier</w>": 2600,
      "ffset": 2601,
      "Refactor": 2602,
      "convert": 2603,
      "entrySet</w>": 2604,
      "exten": 2605,
      "func": 2606,
      "ATTRIBUT": 2607,
      "very": 2608,
      "init": 2609,
      "Find": 2610,
      "illi": 2611,
      "handle": 2612,
      "ont</w>": 2613,
      "block": 2614,
      "My": 2615,
      "ating": 2616,
      "Spli": 2617,
      "CE_": 2618,
      "locale</w>": 2619,
      "Completion": 2620,
      "xml": 2621,
      "Virtual": 2622,
      "Linked": 2623,
      "getFile</w>": 2624,
      "Environ": 2625,
      "Open": 2626,
      "container</w>": 2627,
      "annotation": 2628,
      "one": 2629,
      "ouse": 2630,
      "COUNT_": 2631,
      "amp": 2632,
      "Comment</w>": 2633,
      "min</w>": 2634,
      "TH": 2635,
      "CURL": 2636,
      "web": 2637,
      "Prim": 2638,
      "umer": 2639,
      "schem": 2640,
      "UUI": 2641,
      "process</w>": 2642,
      "Stor": 2643,
      "ST_": 2644,
      "myEditor</w>": 2645,
      "ile": 2646,
      "holder</w>": 2647,
      "plugin": 2648,
      "ard</w>": 2649,
      "sig": 2650,
      "ddmForm": 2651,
      "array": 2652,
      "Substitutor</w>": 2653,
      "Soap": 2654,
      "processor</w>": 2655,
      "Matcher</w>": 2656,
      "Roots</w>": 2657,
      "Adap": 2658,
      "AL</w>": 2659,
      "change</w>": 2660,
      "MethodHandler</w>": 2661,
      "itial": 2662,
      "session": 2663,
      "adle": 2664,
      "Space": 2665,
      "Registration</w>": 2666,
      "uld": 2667,
      "CONT": 2668,
      "Facade</w>": 2669,
      "ModifiedDate</w>": 2670,
      "toSoap": 2671,
      "ATION</w>": 2672,
      "MethodCallExpression</w>": 2673,
      "Grid": 2674,
      "MethodKey</w>": 2675,
      "use": 2676,
      "POR": 2677,
      "display": 2678,
      "servlet": 2679,
      "Publi": 2680,
      "getAttribute</w>": 2681,
      "write</w>": 2682,
      "format": 2683,
      "Svn": 2684,
      "Mapping": 2685,
      "methodKey</w>": 2686,
      "urs": 2687,
      "Selection</w>": 2688,
      "propertyName</w>": 2689,
      "Lim": 2690,
      "methodHandler</w>": 2691,
      "pa": 2692,
      "STR": 2693,
      "HttpServletRequest</w>": 2694,
      "setText</w>": 2695,
      "getAttribute": 2696,
      "append": 2697,
      "PsiElement": 2698,
      "input": 2699,
      "pol": 2700,
      "dynamicQuery</w>": 2701,
      "For</w>": 2702,
      "left</w>": 2703,
      "sert</w>": 2704,
      "urity": 2705,
      "Charac": 2706,
      "Client": 2707,
      "getRoot": 2708,
      "White": 2709,
      "Condition</w>": 2710,
      "getAll": 2711,
      "Mouse": 2712,
      "len</w>": 2713,
      "F_": 2714,
      "ask</w>": 2715,
      "Frame": 2716,
      "idx</w>": 2717,
      "_set": 2718,
      "CURLY_": 2719,
      "ARRAY</w>": 2720,
      "ual": 2721,
      "Cell": 2722,
      "CURLY_BRACE</w>": 2723,
      "ling</w>": 2724,
      "Write": 2725,
      "Stats": 2726,
      "permis": 2727,
      "work": 2728,
      "ables</w>": 2729,
      "SY": 2730,
      "ments": 2731,
      "sol": 2732,
      "expression": 2733,
      "ali": 2734,
      "getCurrent": 2735,
      "Analy": 2736,
      "httpPrincipal</w>": 2737,
      "isModified</w>": 2738,
      "ATION_": 2739,
      "TokenTypes</w>": 2740,
      "Input</w>": 2741,
      "Mutable": 2742,
      "ACT": 2743,
      "previou": 2744,
      "task</w>": 2745,
      "ud": 2746,
      "sync": 2747,
      "import": 2748,
      "portletId</w>": 2749,
      "getParentOfType</w>": 2750,
      "store": 2751,
      "chan": 2752,
      "CLOSE_CURLY_BRACE</w>": 2753,
      "pattern</w>": 2754,
      "Level": 2755,
      "highligh": 2756,
      "query</w>": 2757,
      "patch": 2758,
      "Break": 2759,
      "setAttribute</w>": 2760,
      "assertTrue</w>": 2761,
      "PsiField</w>": 2762,
      "Command</w>": 2763,
      "myCurrent": 2764,
      "BO": 2765,
      "string": 2766,
      "XML": 2767,
      "panel</w>": 2768,
      "findByG_": 2769,
      "Getter": 2770,
      "layoutSet": 2771,
      "to</w>": 2772,
      "ern": 2773,
      "Proxy": 2774,
      "owner</w>": 2775,
      "Equal": 2776,
      "CLASS_": 2777,
      "pare": 2778,
      "tories</w>": 2779,
      "MI": 2780,
      "ArrayUtil</w>": 2781,
      "Metadata": 2782,
      "Changed</w>": 2783,
      "_NO_SUCH_ENTITY_WITH_KEY</w>": 2784,
      "ique": 2785,
      "getEndOffset</w>": 2786,
      "RuntimeException</w>": 2787,
      "lid</w>": 2788,
      "split</w>": 2789,
      "Children</w>": 2790,
      "ould": 2791,
      "Stand": 2792,
      "..": 2793,
      "Deli": 2794,
      "Output</w>": 2795,
      "Generator</w>": 2796,
      "clone</w>": 2797,
      "OutputStream</w>": 2798,
      "getContainingFile</w>": 2799,
      "Statistic": 2800,
      "ableActionableDynamicQuery</w>": 2801,
      "Connector": 2802,
      "result": 2803,
      "Hom": 2804,
      "editor": 2805,
      "names</w>": 2806,
      "ret": 2807,
      "...</w>": 2808,
      "each</w>": 2809,
      "Soc": 2810,
      "W_": 2811,
      "ibern": 2812,
      "Format</w>": 2813,
      "Navig": 2814,
      "message": 2815,
      "instance</w>": 2816,
      "parator</w>": 2817,
      "Internal</w>": 2818,
      "repository": 2819,
      "startOffset</w>": 2820,
      "workflow": 2821,
      "Last": 2822,
      "Host": 2823,
      "loat</w>": 2824,
      "aret</w>": 2825,
      "jb": 2826,
      "setEnabled</w>": 2827,
      "warn</w>": 2828,
      "act</w>": 2829,
      "ket</w>": 2830,
      "estamp</w>": 2831,
      "UIUtil</w>": 2832,
      "Spec": 2833,
      "ant": 2834,
      "getPortlet": 2835,
      "qualifier</w>": 2836,
      "actionableDynamicQuery</w>": 2837,
      "ST</w>": 2838,
      "ting</w>": 2839,
      "inter</w>": 2840,
      "Fail": 2841,
      "ave": 2842,
      "Voc": 2843,
      "Scope": 2844,
      "PsiJava": 2845,
      "oin</w>": 2846,
      "ParamUtil</w>": 2847,
      "revi": 2848,
      "um</w>": 2849,
      "SocialActivity": 2850,
      "Wrap": 2851,
      "ServiceContext</w>": 2852,
      "arguments</w>": 2853,
      "Vocabul": 2854,
      "from</w>": 2855,
      "Sib": 2856,
      "doc": 2857,
      "Standard": 2858,
      "Builder": 2859,
      "Params</w>": 2860,
      "generate": 2861,
      "Arguments</w>": 2862,
      "icator</w>": 2863,
      "getPrimaryKey</w>": 2864,
      "ROOT_": 2865,
      "Types": 2866,
      "val": 2867,
      "face</w>": 2868,
      "Dimen": 2869,
      "Bit": 2870,
      "ility</w>": 2871,
      "Progress": 2872,
      "containingClass</w>": 2873,
      "FOR": 2874,
      "flic": 2875,
      "PsiReferenceExpression</w>": 2876,
      "getRe": 2877,
      "Presentation</w>": 2878,
      "Dependency": 2879,
      "Ne": 2880,
      "lev": 2881,
      "Props": 2882,
      "wind": 2883,
      "Tran": 2884,
      "member</w>": 2885,
      "Lock": 2886,
      "Spec</w>": 2887,
      "page": 2888,
      "Company": 2889,
      "FileUtil</w>": 2890,
      "removeResult</w>": 2891,
      "Enc": 2892,
      "tree</w>": 2893,
      "Dispo": 2894,
      "Bean</w>": 2895,
      "getContent": 2896,
      "pair</w>": 2897,
      "riter": 2898,
      "sList</w>": 2899,
      "QU": 2900,
      "Rad": 2901,
      "Ant": 2902,
      "quired": 2903,
      "LIN": 2904,
      "DDMForm": 2905,
      "ModifierProperty</w>": 2906,
      "stream</w>": 2907,
      "Pattern": 2908,
      "Util": 2909,
      "tocol</w>": 2910,
      "ContainerUtil</w>": 2911,
      "illis</w>": 2912,
      "ause</w>": 2913,
      "Phas": 2914,
      "ION": 2915,
      "thread": 2916,
      "right</w>": 2917,
      "ReferenceElement</w>": 2918,
      "Host</w>": 2919,
      "error": 2920,
      "Post": 2921,
      "form</w>": 2922,
      "document": 2923,
      "escap": 2924,
      "getPresentation</w>": 2925,
      "Copy": 2926,
      "Cvs": 2927,
      "artic": 2928,
      "edi": 2929,
      "FilePath</w>": 2930,
      "body</w>": 2931,
      "Stag": 2932,
      "listener</w>": 2933,
      "look": 2934,
      "lags</w>": 2935,
      "Descriptor": 2936,
      "Refactoring": 2937,
      "Process</w>": 2938,
      "Shopping": 2939,
      "da": 2940,
      "order</w>": 2941,
      "Scroll": 2942,
      "CodeStyle": 2943,
      "template</w>": 2944,
      "toryId</w>": 2945,
      "Pos</w>": 2946,
      "TextAttributes</w>": 2947,
      "Debugger": 2948,
      "Counter": 2949,
      "Converter</w>": 2950,
      "PsiType": 2951,
      "getVirtualFile</w>": 2952,
      "shopping": 2953,
      "Quick": 2954,
      "Shortcut</w>": 2955,
      "include": 2956,
      "change": 2957,
      "head": 2958,
      "Binding</w>": 2959,
      "VER": 2960,
      "getElementType</w>": 2961,
      "We": 2962,
      "Configurable</w>": 2963,
      "SPAC": 2964,
      "bit": 2965,
      "Client</w>": 2966,
      "det": 2967,
      "Lock</w>": 2968,
      "Pol": 2969,
      "ates</w>": 2970,
      "getFirst": 2971,
      "ized": 2972,
      "ifier": 2973,
      "noun": 2974,
      "TYPE</w>": 2975,
      "ord</w>": 2976,
      "emptyList</w>": 2977,
      "isAssign": 2978,
      "Criter": 2979,
      "Edit": 2980,
      "Has": 2981,
      "info": 2982,
      "config": 2983,
      "Extensions</w>": 2984,
      "R_": 2985,
      "Connection": 2986,
      "ep": 2987,
      "injec": 2988,
      "Engin": 2989,
      "ImmutableList</w>": 2990,
      "nounce": 2991,
      "partition": 2992,
      "NAME_": 2993,
      "ponse": 2994,
      "lared": 2995,
      "CE": 2996,
      "Script": 2997,
      "construc": 2998,
      "PsiReference</w>": 2999,
      "hs</w>": 3000,
      "Statement": 3001,
      "Composite": 3002,
      "object": 3003,
      "wiki": 3004,
      "Args</w>": 3005,
      "Generic": 3006,
      "Super": 3007,
      "methodName</w>": 3008,
      "Ste": 3009,
      "isual": 3010,
      "napshot": 3011,
      "columns</w>": 3012,
      "ic</w>": 3013,
      "Persister</w>": 3014,
      "ignore": 3015,
      "package": 3016,
      "Primary": 3017,
      "Before": 3018,
      "EMPTY</w>": 3019,
      "swit": 3020,
      "Cla": 3021,
      "Fix": 3022,
      "Environment</w>": 3023,
      "Id_PrevAndNext</w>": 3024,
      "lab": 3025,
      "ThemeDisplay</w>": 3026,
      "Graphic": 3027,
      "compare</w>": 3028,
      "ResolveResult</w>": 3029,
      "mask</w>": 3030,
      "sEntry": 3031,
      "Fold": 3032,
      "validate": 3033,
      "MD": 3034,
      "LOC": 3035,
      "Order</w>": 3036,
      "Instruction</w>": 3037,
      "o1</w>": 3038,
      "Prototype": 3039,
      "getComponent": 3040,
      "face": 3041,
      "custom": 3042,
      "CommonDataKeys</w>": 3043,
      "PropertyName</w>": 3044,
      "Cap": 3045,
      "Comparing</w>": 3046,
      "Unit": 3047,
      "Rout": 3048,
      "FINDER_PATH_COUNT_": 3049,
      "compareTo</w>": 3050,
      "Executor</w>": 3051,
      "Nls</w>": 3052,
      "lock": 3053,
      "param</w>": 3054,
      "FET": 3055,
      "OR</w>": 3056,
      "eck</w>": 3057,
      "FactoryUtil</w>": 3058,
      "subs": 3059,
      "we": 3060,
      "signe": 3061,
      "Hint</w>": 3062,
      "getComponent</w>": 3063,
      "U_": 3064,
      "organiz": 3065,
      "visitor</w>": 3066,
      "Interface</w>": 3067,
      "trim</w>": 3068,
      "ibernate": 3069,
      "Tracker</w>": 3070,
      "version": 3071,
      "o2</w>": 3072,
      "getNode</w>": 3073,
      "nodes</w>": 3074,
      "Header</w>": 3075,
      "Password": 3076,
      "Address": 3077,
      "Double</w>": 3078,
      "getDescription</w>": 3079,
      "Int": 3080,
      "Warn": 3081,
      "bund": 3082,
      "Que": 3083,
      "elt": 3084,
      "ationException</w>": 3085,
      "dir</w>": 3086,
      "prepare": 3087,
      "Social": 3088,
      "Controller</w>": 3089,
      "MutableTreeNode</w>": 3090,
      "asList</w>": 3091,
      "keySet</w>": 3092,
      "PsiUtil</w>": 3093,
      "Tracker": 3094,
      "isEnabled</w>": 3095,
      "writer</w>": 3096,
      "isDebug": 3097,
      "getLong</w>": 3098,
      "mbol": 3099,
      "getLocal": 3100,
      "consum": 3101,
      "calc": 3102,
      "equal</w>": 3103,
      "kaleoTask": 3104,
      "sManager</w>": 3105,
      "ROOT_LOGGER</w>": 3106,
      "VALUE</w>": 3107,
      "isDebugEnabled</w>": 3108,
      "Fai": 3109,
      "LU": 3110,
      "sCount</w>": 3111,
      "atic": 3112,
      "stat": 3113,
      "Namespace</w>": 3114,
      "Brow": 3115,
      "TER": 3116,
      "XContent": 3117,
      "prev": 3118,
      "ded</w>": 3119,
      "load</w>": 3120,
      "_setOriginal": 3121,
      "extract": 3122,
      "ge": 3123,
      "Transform": 3124,
      "Perform": 3125,
      "Border": 3126,
      "Var": 3127,
      "Proxy</w>": 3128,
      "input</w>": 3129,
      "Partition": 3130,
      "DefaultMutableTreeNode</w>": 3131,
      "ph": 3132,
      "move": 3133,
      "Channel</w>": 3134,
      "JavaPsi": 3135,
      "FETCH_": 3136,
      "Friendly": 3137,
      "resh": 3138,
      "complet": 3139,
      "classLoader</w>": 3140,
      "Prototype</w>": 3141,
      "CharSequence</w>": 3142,
      "sr": 3143,
      "Tup": 3144,
      "FileType</w>": 3145,
      "hasModifierProperty</w>": 3146,
      "Bookmark": 3147,
      "Expr</w>": 3148,
      "Pla": 3149,
      "apply": 3150,
      "permission": 3151,
      "ERRO": 3152,
      "getQualifiedName</w>": 3153,
      "Position": 3154,
      "Identifier": 3155,
      "JournalArticle</w>": 3156,
      "persister</w>": 3157,
      "icro": 3158,
      "Only</w>": 3159,
      "getLangu": 3160,
      "Stub</w>": 3161,
      "getEx": 3162,
      "getSub": 3163,
      "JAV": 3164,
      "Jps": 3165,
      "supported": 3166,
      "lag</w>": 3167,
      "Metri": 3168,
      "UserGroup": 3169,
      "bounds</w>": 3170,
      "Number": 3171,
      "Items</w>": 3172,
      "ld": 3173,
      "reset": 3174,
      "sic": 3175,
      "iler": 3176,
      "selection": 3177,
      "Trash": 3178,
      "coun": 3179,
      "endOffset</w>": 3180,
      "Work": 3181,
      "myM": 3182,
      "Char</w>": 3183,
      "--</w>": 3184,
      "Sibling</w>": 3185,
      "parser</w>": 3186,
      "FINDER_PATH_FETCH_": 3187,
      "FINDER_PATH_FETCH_BY_": 3188,
      "Vcs</w>": 3189,
      "Scheme</w>": 3190,
      "countBy": 3191,
      "Encod": 3192,
      "icon</w>": 3193,
      "getLayout": 3194,
      "Constructor</w>": 3195,
      "page</w>": 3196,
      "Argument</w>": 3197,
      "NE</w>": 3198,
      "ache</w>": 3199,
      "aretModel</w>": 3200,
      "Rect</w>": 3201,
      "PsiMethodCallExpression</w>": 3202,
      "apache</w>": 3203,
      "SV": 3204,
      "actionId</w>": 3205,
      "onical": 3206,
      "getSelection": 3207,
      "nodeId</w>": 3208,
      "GRO": 3209,
      "Destin": 3210,
      "GetterUtil</w>": 3211,
      "anchor</w>": 3212,
      "vcc": 3213,
      "vccVersion</w>": 3214,
      "Sdk</w>": 3215,
      "Option</w>": 3216,
      "selected</w>": 3217,
      "entity</w>": 3218,
      "Millis</w>": 3219,
      "Storage": 3220,
      "utor": 3221,
      "equals": 3222,
      "mart": 3223,
      "JSONObject</w>": 3224,
      "getClassLoader</w>": 3225,
      "Frame</w>": 3226,
      "ddmStructure": 3227,
      "eners</w>": 3228,
      "fore</w>": 3229,
      "getChildren</w>": 3230,
      "getTree": 3231,
      "Dimension</w>": 3232,
      "main": 3233,
      "Space</w>": 3234,
      "resource</w>": 3235,
      "role</w>": 3236,
      "SIZ": 3237,
      "Conso": 3238,
      "ters</w>": 3239,
      "merge": 3240,
      "Shortcut": 3241,
      "book": 3242,
      "Focus</w>": 3243,
      "destin": 3244,
      "getProperty</w>": 3245,
      "ggest": 3246,
      "Character</w>": 3247,
      "JavaPsiFacade</w>": 3248,
      "code": 3249,
      "BLAN": 3250,
      "Default</w>": 3251,
      "sure": 3252,
      "Schema": 3253,
      "getContainingClass</w>": 3254,
      "isNull</w>": 3255,
      "erializ": 3256,
      "Bound</w>": 3257,
      "returnValue</w>": 3258,
      "InstanceToken</w>": 3259,
      "str</w>": 3260,
      "Button</w>": 3261,
      "clear</w>": 3262,
      "close</w>": 3263,
      "InstanceToken": 3264,
      "words</w>": 3265,
      "Insi": 3266,
      "Hibernate": 3267,
      "cript</w>": 3268,
      "FileName</w>": 3269,
      "Stub": 3270,
      "Optional</w>": 3271,
      "Blog": 3272,
      "|=</w>": 3273,
      "Part</w>": 3274,
      "should": 3275,
      "Use": 3276,
      "mapping</w>": 3277,
      "ursor</w>": 3278,
      "Literal": 3279,
      "expected": 3280,
      "Hi": 3281,
      "dicate</w>": 3282,
      "directory</w>": 3283,
      "tokenType</w>": 3284,
      "ClassNames</w>": 3285,
      "RuleGroup": 3286,
      "MET": 3287,
      "PathAddress</w>": 3288,
      "cket": 3289,
      "fs": 3290,
      "Expr": 3291,
      "After": 3292,
      "SearchScope</w>": 3293,
      "fieldName</w>": 3294,
      "Policy": 3295,
      "Store": 3296,
      "ct": 3297,
      "Replace": 3298,
      "output</w>": 3299,
      "cache</w>": 3300,
      ">></w>": 3301,
      "prox": 3302,
      "portletRequest</w>": 3303,
      "lock</w>": 3304,
      "PU": 3305,
      "Single": 3306,
      "IElementType</w>": 3307,
      "ue": 3308,
      "afe": 3309,
      "db": 3310,
      "GrExpression</w>": 3311,
      "ackground</w>": 3312,
      "isDirectory</w>": 3313,
      "IC</w>": 3314,
      "Sdk": 3315,
      "Gradle": 3316,
      "Function": 3317,
      "Artifact</w>": 3318,
      "ies": 3319,
      "Performed</w>": 3320,
      "Current": 3321,
      "MAX_": 3322,
      "rift</w>": 3323,
      "Subsystem": 3324,
      "af</w>": 3325,
      "dlFile": 3326,
      "language</w>": 3327,
      "null": 3328,
      "emory": 3329,
      "ALL</w>": 3330,
      "ingException</w>": 3331,
      "hash</w>": 3332,
      "SVN": 3333,
      "expando": 3334,
      "Changes": 3335,
      "getResource": 3336,
      "Region</w>": 3337,
      "assword</w>": 3338,
      "containsKey</w>": 3339,
      "merg": 3340,
      "select": 3341,
      "ote</w>": 3342,
      "deploymentUnit</w>": 3343,
      "uture</w>": 3344,
      "RemoteException</w>": 3345,
      "Search</w>": 3346,
      "ml</w>": 3347,
      "host": 3348,
      "zer</w>": 3349,
      "eve": 3350,
      "client</w>": 3351,
      "Alias": 3352,
      "si</w>": 3353,
      "Size": 3354,
      "fil": 3355,
      "LED</w>": 3356,
      "Channel": 3357,
      "Auto": 3358,
      "after": 3359,
      "Slice</w>": 3360,
      "solute": 3361,
      "Cached": 3362,
      "abled": 3363,
      "URI</w>": 3364,
      "Persistence": 3365,
      "Changes</w>": 3366,
      "ss": 3367,
      "place</w>": 3368,
      "getReference": 3369,
      "arg": 3370,
      "M_": 3371,
      "right": 3372,
      "Exception": 3373,
      "icroblog": 3374,
      "mark</w>": 3375,
      "collection": 3376,
      "collect": 3377,
      "namesp": 3378,
      "Preferences": 3379,
      "Boolean": 3380,
      "MDR": 3381,
      "command</w>": 3382,
      "Font": 3383,
      "ingContext</w>": 3384,
      "Low": 3385,
      "defini": 3386,
      "unk": 3387,
      "Adapter</w>": 3388,
      "JavaTokenType</w>": 3389,
      "condition</w>": 3390,
      "kip": 3391,
      "JECT</w>": 3392,
      "auth": 3393,
      "library</w>": 3394,
      "Operator</w>": 3395,
      "Runn": 3396,
      "Log</w>": 3397,
      "Des": 3398,
      "isAssignable": 3399,
      "aint": 3400,
      "EJB": 3401,
      "OR_": 3402,
      "C_C_": 3403,
      "ked</w>": 3404,
      "Cre": 3405,
      "KaleoTask": 3406,
      "getDec": 3407,
      "vFile</w>": 3408,
      "mdr": 3409,
      "NonNls</w>": 3410,
      "sMap</w>": 3411,
      "ACH": 3412,
      "SUB": 3413,
      "FileSystem</w>": 3414,
      "config</w>": 3415,
      "_present_": 3416,
      "sli": 3417,
      "any</w>": 3418,
      "Description": 3419,
      "getOriginal": 3420,
      "accept</w>": 3421,
      "Portlet</w>": 3422,
      "left": 3423,
      "Loader": 3424,
      "getKey": 3425,
      "ade": 3426,
      "cei": 3427,
      "getPreferred": 3428,
      "led</w>": 3429,
      "uccess</w>": 3430,
      "url": 3431,
      "ime": 3432,
      "ln</w>": 3433,
      "stor": 3434,
      "WOR": 3435,
      "Renderer": 3436,
      "validate</w>": 3437,
      "MOD": 3438,
      "Listener": 3439,
      "PsiParameter</w>": 3440,
      "IG": 3441,
      "Invocation": 3442,
      "endent": 3443,
      "call</w>": 3444,
      "password": 3445,
      "getDisplay": 3446,
      "SC": 3447,
      "getSh": 3448,
      "returnType</w>": 3449,
      "Logical": 3450,
      "Ren": 3451,
      "relative": 3452,
      "ide</w>": 3453,
      "erarch": 3454,
      "ize</w>": 3455,
      "Internal": 3456,
      "Smart": 3457,
      "results</w>": 3458,
      "Font</w>": 3459,
      "Active": 3460,
      "Em": 3461,
      "Injection": 3462,
      "lugin</w>": 3463,
      "inst": 3464,
      "social": 3465,
      "getCreate": 3466,
      "By</w>": 3467,
      "Bytes": 3468,
      "Cance": 3469,
      "ENAB": 3470,
      "AR</w>": 3471,
      "entable": 3472,
      "ARG": 3473,
      "getNext": 3474,
      "ect": 3475,
      "actionPerformed</w>": 3476,
      "Native": 3477,
      "edModel": 3478,
      "io": 3479,
      "ails</w>": 3480,
      "ChildRole</w>": 3481,
      "Hist": 3482,
      "Under": 3483,
      "Profile</w>": 3484,
      "this": 3485,
      "mon": 3486,
      "adv": 3487,
      "PermissionChecker</w>": 3488,
      "size": 3489,
      "Publish": 3490,
      "Hg": 3491,
      "Rep": 3492,
      "rule": 3493,
      "rep": 3494,
      "XPath": 3495,
      "level</w>": 3496,
      "Jar": 3497,
      "existing": 3498,
      "frag": 3499,
      "de</w>": 3500,
      "SYST": 3501,
      "Cell</w>": 3502,
      "Anch": 3503,
      "methods</w>": 3504,
      "item": 3505,
      "tml": 3506,
      "Found": 3507,
      "ledException</w>": 3508,
      "licit": 3509,
      "BLANK</w>": 3510,
      "PortalUtil</w>": 3511,
      "Timer": 3512,
      "ateLayout</w>": 3513,
      "Merge": 3514,
      "Recent": 3515,
      "isAssignableFrom</w>": 3516,
      "FromText</w>": 3517,
      "Highlighter</w>": 3518,
      "DLFileEntry": 3519,
      "tableName</w>": 3520,
      "selection</w>": 3521,
      "registry</w>": 3522,
      "Services</w>": 3523,
      "member": 3524,
      "TIM": 3525,
      "folder</w>": 3526,
      "Extr": 3527,
      "Facet": 3528,
      "ators</w>": 3529,
      "Ph": 3530,
      "Lower": 3531,
      "dlFileEntry": 3532,
      "Prefix": 3533,
      "Ance": 3534,
      "uplic": 3535,
      "permissionChecker</w>": 3536,
      "Are": 3537,
      "PRI": 3538,
      "ClassPK</w>": 3539,
      "clearCache</w>": 3540,
      "language": 3541,
      "resolved": 3542,
      "DDL": 3543,
      "Count": 3544,
      "bound": 3545,
      "Flag</w>": 3546,
      "require": 3547,
      "filePath</w>": 3548,
      "aging": 3549,
      "previous": 3550,
      "vity</w>": 3551,
      "Popup": 3552,
      "second</w>": 3553,
      "JPanel</w>": 3554,
      "Alias</w>": 3555,
      "ural": 3556,
      "Disc": 3557,
      "Vo": 3558,
      "HT": 3559,
      "getModel</w>": 3560,
      "println</w>": 3561,
      "Mar": 3562,
      "infos</w>": 3563,
      "titu": 3564,
      "DLFile": 3565,
      "Reflec": 3566,
      "Bitmask</w>": 3567,
      "Background": 3568,
      "getProperty": 3569,
      "Headers</w>": 3570,
      "email": 3571,
      "registr": 3572,
      "Syn": 3573,
      "PsiVariable</w>": 3574,
      "tro": 3575,
      "fields</w>": 3576,
      "portal": 3577,
      "portletURL</w>": 3578,
      "Comment": 3579,
      "Plan": 3580,
      "getSup": 3581,
      "ELEM": 3582,
      "Transi": 3583,
      "Exist": 3584,
      "soci": 3585,
      "PyExpression</w>": 3586,
      "endsWith</w>": 3587,
      "ordin": 3588,
      "ulate": 3589,
      "ChangeList</w>": 3590,
      "Setting</w>": 3591,
      "exists</w>": 3592,
      "Subs": 3593,
      "getModule": 3594,
      "estion": 3595,
      "total": 3596,
      "notifi": 3597,
      "categoryId</w>": 3598,
      "Initializer</w>": 3599,
      "ffix</w>": 3600,
      "Available</w>": 3601,
      "EM_": 3602,
      "ModifierList</w>": 3603,
      "thrift</w>": 3604,
      "sBundle</w>": 3605,
      "agg": 3606,
      "numb": 3607,
      "Men": 3608,
      "PsiSubstitutor</w>": 3609,
      "PsiDirectory</w>": 3610,
      "tr</w>": 3611,
      "userGroup": 3612,
      "Socket": 3613,
      "switch</w>": 3614,
      "Locale": 3615,
      "Clause</w>": 3616,
      "cur": 3617,
      "OrderEntry</w>": 3618,
      "getCaretModel</w>": 3619,
      "leton": 3620,
      "repositoryId</w>": 3621,
      "getClassNameId</w>": 3622,
      "cel": 3623,
      "UsageInfo</w>": 3624,
      "defaultValue</w>": 3625,
      "activity": 3626,
      "getInd": 3627,
      "getCreateDate</w>": 3628,
      "Conversion": 3629,
      "Lex": 3630,
      "second": 3631,
      "enth": 3632,
      "Statistics</w>": 3633,
      "Parse": 3634,
      "ResourceDefinition</w>": 3635,
      "uble": 3636,
      "MouseEvent</w>": 3637,
      "delete</w>": 3638,
      "Security": 3639,
      "Combo": 3640,
      "keys</w>": 3641,
      "Mappings</w>": 3642,
      "sql": 3643,
      "Condi": 3644,
      "Back": 3645,
      "access": 3646,
      "Inet": 3647,
      "Serializer</w>": 3648,
      "os</w>": 3649,
      "MAR": 3650,
      "points</w>": 3651,
      "TreePath</w>": 3652,
      "low</w>": 3653,
      "REA": 3654,
      "setM": 3655,
      "dom": 3656,
      "0_</w>": 3657,
      "qualified": 3658,
      "UI</w>": 3659,
      "Top": 3660,
      "Remove": 3661,
      "getTable": 3662,
      "Dispatch": 3663,
      "itional": 3664,
      "Stack": 3665,
      "Field0_</w>": 3666,
      "bitField0_</w>": 3667,
      "alec": 3668,
      "raw": 3669,
      "Unique": 3670,
      "finis": 3671,
      "avail": 3672,
      "Unsupported": 3673,
      "doc</w>": 3674,
      "join": 3675,
      "Delegate</w>": 3676,
      "setCompanyId</w>": 3677,
      "candidate</w>": 3678,
      "extension</w>": 3679,
      "record": 3680,
      "Style</w>": 3681,
      "getEntity": 3682,
      "join</w>": 3683,
      "Annotations</w>": 3684,
      "ternal": 3685,
      "dialog</w>": 3686,
      "scope": 3687,
      "sIn": 3688,
      "izer</w>": 3689,
      "var": 3690,
      "ExternalSystem": 3691,
      "all</w>": 3692,
      "dir": 3693,
      "inner": 3694,
      "last</w>": 3695,
      "intValue</w>": 3696,
      "ority</w>": 3697,
      "indi": 3698,
      "Indent</w>": 3699,
      "TA": 3700,
      "<<</w>": 3701,
      "oi": 3702,
      "Plat": 3703,
      "ide": 3704,
      "bookmark": 3705,
      "num": 3706,
      "ential": 3707,
      "iter</w>": 3708,
      "ToolWindow": 3709,
      "Hierarch": 3710,
      "sBy": 3711,
      "mySettings</w>": 3712,
      "Results</w>": 3713,
      "commit": 3714,
      "Domain</w>": 3715,
      "WikiPage</w>": 3716,
      "Caret</w>": 3717,
      "code</w>": 3718,
      "getAttributeValue</w>": 3719,
      "Symbol": 3720,
      "range": 3721,
      "time</w>": 3722,
      "getT": 3723,
      "paths</w>": 3724,
      "ByG_": 3725,
      "GROU": 3726,
      "PortletRequest</w>": 3727,
      "prev</w>": 3728,
      "Store</w>": 3729,
      "server": 3730,
      "Primiti": 3731,
      "ProblemDescriptor</w>": 3732,
      "ony": 3733,
      "remote": 3734,
      "HE": 3735,
      "substitutor</w>": 3736,
      "isInstance</w>": 3737,
      "Rule</w>": 3738,
      "getOffset</w>": 3739,
      "before": 3740,
      "IgnoreCase</w>": 3741,
      "Implementor</w>": 3742,
      "Candid": 3743,
      "LowerCase</w>": 3744,
      "isSet": 3745,
      "dbc": 3746,
      "op</w>": 3747,
      "eet": 3748,
      "Seg": 3749,
      "Copy</w>": 3750,
      "asic": 3751,
      "allow": 3752,
      "Id_Last</w>": 3753,
      "Dependencies</w>": 3754,
      "JAVA_": 3755,
      "plid</w>": 3756,
      "Parser": 3757,
      "Infos</w>": 3758,
      "old</w>": 3759,
      "Choo": 3760,
      "ENABLED</w>": 3761,
      "findByUuid_": 3762,
      "CheckBox</w>": 3763,
      "VirtualFile": 3764,
      "DDMStructure": 3765,
      "searchContext</w>": 3766,
      "CACH": 3767,
      "send": 3768,
      "ES_": 3769,
      "DocumentManager</w>": 3770,
      "prim": 3771,
      "Phase</w>": 3772,
      "PAG": 3773,
      "RequestException</w>": 3774,
      "Popup</w>": 3775,
      "rop": 3776,
      "Ge": 3777,
      "fail": 3778,
      "matches</w>": 3779,
      "Only": 3780,
      "putResult</w>": 3781,
      "Selector</w>": 3782,
      "anonical": 3783,
      "EMPTY_ARRAY</w>": 3784,
      "Interceptor</w>": 3785,
      "COMM": 3786,
      "IM": 3787,
      "onymo": 3788,
      "ature": 3789,
      "Library</w>": 3790,
      "FF": 3791,
      "unk</w>": 3792,
      "portImportConfiguration</w>": 3793,
      "article": 3794,
      "execute": 3795,
      "verage": 3796,
      "Defin": 3797,
      "Callback</w>": 3798,
      "Timeout</w>": 3799,
      "ship": 3800,
      "Word": 3801,
      "conc": 3802,
      "channel</w>": 3803,
      "getGroup": 3804,
      "ency": 3805,
      "faces</w>": 3806,
      "Zone</w>": 3807,
      "keyspace</w>": 3808,
      "insert": 3809,
      "Runner</w>": 3810,
      "getName": 3811,
      "trash": 3812,
      "getO": 3813,
      "enabled</w>": 3814,
      "FIEL": 3815,
      "getUuid</w>": 3816,
      "apply</w>": 3817,
      "WebKeys</w>": 3818,
      "lim": 3819,
      "SQLException</w>": 3820,
      "setValue</w>": 3821,
      "Bag": 3822,
      "creen": 3823,
      "nown": 3824,
      "Counter</w>": 3825,
      "SST": 3826,
      "CodeReferenceElement</w>": 3827,
      "actual": 3828,
      "myContext</w>": 3829,
      "References</w>": 3830,
      "Enum": 3831,
      "tition</w>": 3832,
      "fileEntry</w>": 3833,
      "Safe": 3834,
      "Brid": 3835,
      "binder</w>": 3836,
      "getJ": 3837,
      "offset": 3838,
      "thon": 3839,
      "ement": 3840,
      "named": 3841,
      "script": 3842,
      "Allow": 3843,
      "fileType</w>": 3844,
      "box": 3845,
      "comment</w>": 3846,
      "getDataContext</w>": 3847,
      "sort": 3848,
      "TRUE</w>": 3849,
      "PrimaryKey": 3850,
      "Bound": 3851,
      "amil": 3852,
      "NONE</w>": 3853,
      "toSoapModels</w>": 3854,
      "alog": 3855,
      "Declaration</w>": 3856,
      "Extension": 3857,
      "ationId</w>": 3858,
      "Usage</w>": 3859,
      "parse</w>": 3860,
      "link": 3861,
      "ClassNameId</w>": 3862,
      "parentFolderId</w>": 3863,
      "Match</w>": 3864,
      "Operand</w>": 3865,
      "ait": 3866,
      "targetClass</w>": 3867,
      "Deprec": 3868,
      "initializer</w>": 3869,
      "paint": 3870,
      "event": 3871,
      "Spaces</w>": 3872,
      "trace</w>": 3873,
      "Queue</w>": 3874,
      "Dri": 3875,
      "lex": 3876,
      "AD": 3877,
      "Active</w>": 3878,
      "edValue</w>": 3879,
      "Separator</w>": 3880,
      "md</w>": 3881,
      "configuration": 3882,
      "Utili": 3883,
      "ond": 3884,
      "Options": 3885,
      "FIX</w>": 3886,
      "core": 3887,
      "stats</w>": 3888,
      "myFile</w>": 3889,
      "owner": 3890,
      "classes</w>": 3891,
      "getModel": 3892,
      "SimpleTextAttributes</w>": 3893,
      "host</w>": 3894,
      "HighlightInfo</w>": 3895,
      "ability</w>": 3896,
      "amb": 3897,
      "nouncements": 3898,
      "indexableActionableDynamicQuery</w>": 3899,
      "SHO": 3900,
      "BranchId</w>": 3901,
      "Deploy": 3902,
      "Scop": 3903,
      "ationContext</w>": 3904,
      "Literal</w>": 3905,
      "junc": 3906,
      "ArgumentList</w>": 3907,
      "ING": 3908,
      "userNotification": 3909,
      "Listeners</w>": 3910,
      "Console": 3911,
      "sched": 3912,
      "evalu": 3913,
      "view</w>": 3914,
      "INT</w>": 3915,
      "isNotNull</w>": 3916,
      "getSource</w>": 3917,
      "udit": 3918,
      "Stack</w>": 3919,
      "SERVI": 3920,
      "Border</w>": 3921,
      "Compiler": 3922,
      "getReturn": 3923,
      "scroll": 3924,
      "Values": 3925,
      "Available": 3926,
      "ActionGroup</w>": 3927,
      "VERS": 3928,
      "sh</w>": 3929,
      "Split": 3930,
      "STATU": 3931,
      "Icons</w>": 3932,
      "recent": 3933,
      "getUserName</w>": 3934,
      "myCb": 3935,
      "BinaryExpression</w>": 3936,
      "ON": 3937,
      "ector</w>": 3938,
      "XML_": 3939,
      "Assert</w>": 3940,
      "wrap": 3941,
      "AnAction</w>": 3942,
      "setName</w>": 3943,
      "Side</w>": 3944,
      "getMethod": 3945,
      "Response": 3946,
      "header</w>": 3947,
      "Conflic": 3948,
      "round</w>": 3949,
      "throw": 3950,
      "description": 3951,
      "Byte</w>": 3952,
      "Namespace": 3953,
      "metaData</w>": 3954,
      "beanName</w>": 3955,
      "SH": 3956,
      "Server</w>": 3957,
      "QName</w>": 3958,
      "getModifiedDate</w>": 3959,
      "stor</w>": 3960,
      "getVersion</w>": 3961,
      "analy": 3962,
      "Access</w>": 3963,
      "getPresentable": 3964,
      "deserializ": 3965,
      "MBMessage</w>": 3966,
      "SYSTEM_": 3967,
      "duc": 3968,
      "SIZE</w>": 3969,
      "LET": 3970,
      "Url": 3971,
      "bean</w>": 3972,
      "grade": 3973,
      "Html": 3974,
      "Background</w>": 3975,
      "lush": 3976,
      "Bundle": 3977,
      "ia</w>": 3978,
      "Get</w>": 3979,
      "Binder</w>": 3980,
      "Meta": 3981,
      "eContext</w>": 3982,
      "isWarn": 3983,
      "NotFound": 3984,
      "Header": 3985,
      "aries</w>": 3986,
      "Lines</w>": 3987,
      "qName</w>": 3988,
      "portletPreferences</w>": 3989,
      "Panel": 3990,
      "full": 3991,
      "Rows</w>": 3992,
      "Stro": 3993,
      "sWith": 3994,
      "BorderLayout</w>": 3995,
      "label</w>": 3996,
      "shi": 3997,
      "SQL</w>": 3998,
      "connection</w>": 3999,
      "abase": 4000,
      "window</w>": 4001,
      "METHO": 4002,
      "HibernateException</w>": 4003,
      "Absolute": 4004,
      "000000": 4005,
      "flags</w>": 4006,
      "prop": 4007,
      "Static": 4008,
      "LiteralExpression</w>": 4009,
      "-></w>": 4010,
      "declar": 4011,
      "Tuple": 4012,
      "Disposed</w>": 4013,
      "EP_": 4014,
      "elta</w>": 4015,
      "Static</w>": 4016,
      "uri</w>": 4017,
      "CodeBlock</w>": 4018,
      "float</w>": 4019,
      "transl": 4020,
      "invoke": 4021,
      "10</w>": 4022,
      "Move": 4023,
      "insets</w>": 4024,
      "prot</w>": 4025,
      "active</w>": 4026,
      "Present</w>": 4027,
      "isWarnEnabled</w>": 4028,
      "FILE_": 4029,
      "Local</w>": 4030,
      "EXT_": 4031,
      "kind</w>": 4032,
      "Home</w>": 4033,
      "eetup": 4034,
      "myTree</w>": 4035,
      "FailedException</w>": 4036,
      "PORT": 4037,
      "containingFile</w>": 4038,
      "acy": 4039,
      "fieldType</w>": 4040,
      "Equals</w>": 4041,
      "Cursor</w>": 4042,
      "zy": 4043,
      "unnel": 4044,
      "Scal": 4045,
      "ssi": 4046,
      "card": 4047,
      "PROPER": 4048,
      "polls": 4049,
      "Id_First</w>": 4050,
      "AR_": 4051,
      "Long": 4052,
      "command": 4053,
      "Iterable</w>": 4054,
      "alect</w>": 4055,
      "function</w>": 4056,
      "Future</w>": 4057,
      "Browser": 4058,
      "ample": 4059,
      "Visual": 4060,
      "oriz": 4061,
      "Email": 4062,
      "cket</w>": 4063,
      "Indicator</w>": 4064,
      "proble": 4065,
      "CommonClassNames</w>": 4066,
      "Files": 4067,
      "alias": 4068,
      "Runner": 4069,
      "tries": 4070,
      "Decor": 4071,
      "Variables</w>": 4072,
      "transform": 4073,
      "Def</w>": 4074,
      "Pointer</w>": 4075,
      "tocol": 4076,
      "emon": 4077,
      "signature</w>": 4078,
      "library": 4079,
      "UT_": 4080,
      "Profile": 4081,
      "Insets</w>": 4082,
      "own</w>": 4083,
      "split": 4084,
      "Point": 4085,
      "cr": 4086,
      "DE_": 4087,
      "addDependency</w>": 4088,
      "ERROR</w>": 4089,
      "0x000000": 4090,
      "delegate</w>": 4091,
      "Permissions</w>": 4092,
      "Support</w>": 4093,
      "Tunnel": 4094,
      "Before</w>": 4095,
      "chi": 4096,
      "draw": 4097,
      "Button": 4098,
      "variable": 4099,
      "Groups</w>": 4100,
      "ite</w>": 4101,
      "modifier": 4102,
      "artifact": 4103,
      "acro": 4104,
      "actions</w>": 4105,
      "LookupElement</w>": 4106,
      "LayoutRevision</w>": 4107,
      "Tasks</w>": 4108,
      "faults</w>": 4109,
      "cause</w>": 4110,
      "toLowerCase</w>": 4111,
      "Metrics</w>": 4112,
      "Sw": 4113,
      "ED": 4114,
      "Region": 4115,
      "vcs": 4116,
      "andom": 4117,
      "tif": 4118,
      "New</w>": 4119,
      "SE</w>": 4120,
      "IV": 4121,
      "MODUL": 4122,
      "isS": 4123,
      "NE": 4124,
      "UserName</w>": 4125,
      "getParameters</w>": 4126,
      "Timestamp</w>": 4127,
      "Relative": 4128,
      "resetOriginal": 4129,
      "NodeId</w>": 4130,
      "Core</w>": 4131,
      "stub</w>": 4132,
      "Modification": 4133,
      "Exprent</w>": 4134,
      "getEditor</w>": 4135,
      "resetOriginalValues</w>": 4136,
      "Terms</w>": 4137,
      "InvalidRequestException</w>": 4138,
      "GridBag": 4139,
      "getTokenType</w>": 4140,
      "aggreg": 4141,
      "GrReferenceExpression</w>": 4142,
      "Authenti": 4143,
      "suggest": 4144,
      "Memory": 4145,
      "GlobalSearchScope</w>": 4146,
      "container": 4147,
      "background": 4148,
      "myIn": 4149,
      "getE": 4150,
      "ail</w>": 4151,
      "angement": 4152,
      "Expressions</w>": 4153,
      "Anonymo": 4154,
      "multi": 4155,
      "ors</w>": 4156,
      "tive": 4157,
      "getParameterList</w>": 4158,
      "Specifi": 4159,
      "InetAddress</w>": 4160,
      "Synchroniz": 4161,
      "GroovyTokenTypes</w>": 4162,
      "Booking</w>": 4163,
      "Usages</w>": 4164,
      "PATH</w>": 4165,
      "getSettings</w>": 4166,
      "artifact</w>": 4167,
      "privateLayout</w>": 4168,
      "LanguageLevel</w>": 4169,
      "_get": 4170,
      "Arrangement": 4171,
      "Invocation</w>": 4172,
      "ipi": 4173,
      "make": 4174,
      "Formatter</w>": 4175,
      "tom": 4176,
      "Relation</w>": 4177,
      "ResultSet</w>": 4178,
      "color</w>": 4179,
      "HttpPrincipal</w>": 4180,
      "La": 4181,
      "DeploymentUnit</w>": 4182,
      "ParameterTypes": 4183,
      "Anchor</w>": 4184,
      "NOT_": 4185,
      "Parenth": 4186,
      "Packaging": 4187,
      "Box": 4188,
      "herit": 4189,
      "TunnelUtil</w>": 4190,
      "jsonObject</w>": 4191,
      "Finder": 4192,
      "NotFoundException</w>": 4193,
      "Place": 4194,
      "Protocol</w>": 4195,
      "buffer": 4196,
      "TH</w>": 4197,
      "Associ": 4198,
      "getSize</w>": 4199,
      "attributeName</w>": 4200,
      "virtual": 4201,
      "Utilities</w>": 4202,
      "Sched": 4203,
      "option": 4204,
      "userObject</w>": 4205,
      "getIndex": 4206,
      "Pointer": 4207,
      "original</w>": 4208,
      "ility": 4209,
      "tab": 4210,
      "ANG": 4211,
      "skip": 4212,
      "Hash</w>": 4213,
      "post": 4214,
      "UserNotification": 4215,
      "getTextLength</w>": 4216,
      "Full": 4217,
      "One": 4218,
      "Discus": 4219,
      "ess": 4220,
      "ddl": 4221,
      "DS</w>": 4222,
      "Indent": 4223,
      "Gad": 4224,
      "Compile": 4225,
      "Names": 4226,
      "edia": 4227,
      "igr": 4228,
      "Gadget": 4229,
      "ADD": 4230,
      "inputStream</w>": 4231,
      "ctx</w>": 4232,
      "Snapshot": 4233,
      "InspectionGadget": 4234,
      "Modifiable": 4235,
      "Es": 4236,
      "Constant": 4237,
      "Choi": 4238,
      "wrapper</w>": 4239,
      "initial": 4240,
      "Stroke</w>": 4241,
      "OperationFailedException</w>": 4242,
      "Managed": 4243,
      "Python": 4244,
      "Dig": 4245,
      "fetchByG_": 4246,
      "LIC": 4247,
      "Binding": 4248,
      "incre": 4249,
      "Equal</w>": 4250,
      "getSource": 4251,
      "Components</w>": 4252,
      "qualifiedName</w>": 4253,
      "ALL_": 4254,
      "IONS</w>": 4255,
      "irro": 4256,
      "PsiManager</w>": 4257,
      "ParameterList</w>": 4258,
      "FO": 4259,
      "getPack": 4260,
      "Doc</w>": 4261,
      "InstanceId</w>": 4262,
      "wrapp": 4263,
      "OperationContext</w>": 4264,
      "ViewProvider</w>": 4265,
      "Activity</w>": 4266,
      "Buffered": 4267,
      "UtilCore</w>": 4268,
      "encod": 4269,
      "Runnable</w>": 4270,
      "def</w>": 4271,
      "UUID_": 4272,
      "active": 4273,
      "Big": 4274,
      "KeyEvent</w>": 4275,
      "jar": 4276,
      "Collector</w>": 4277,
      "getService": 4278,
      "Reflection": 4279,
      "success</w>": 4280,
      "ddmFormField": 4281,
      "s2</w>": 4282,
      "Max": 4283,
      "Edge</w>": 4284,
      "Predicate</w>": 4285,
      "getCanonical": 4286,
      "wrap</w>": 4287,
      "getSuper": 4288,
      "locator</w>": 4289,
      "Extend": 4290,
      "Rest": 4291,
      "Registry": 4292,
      "ABLE_": 4293,
      "Form</w>": 4294,
      "Limit</w>": 4295,
      "00</w>": 4296,
      "Pool": 4297,
      "Offset": 4298,
      "anif": 4299,
      "PARAM": 4300,
      "py": 4301,
      "getResult</w>": 4302,
      "Attachment</w>": 4303,
      "sertion": 4304,
      "struct</w>": 4305,
      "caret": 4306,
      "assign": 4307,
      "Errors</w>": 4308,
      "ench": 4309,
      "OPT": 4310,
      "Wild": 4311,
      "getIcon": 4312,
      "PsiElementFactory</w>": 4313,
      "revision</w>": 4314,
      "Primitive": 4315,
      "ActionKeys</w>": 4316,
      "REF": 4317,
      "SOUR": 4318,
      "VcsException</w>": 4319,
      "Engine": 4320,
      "getClassName</w>": 4321,
      "global": 4322,
      "PL": 4323,
      "STAR": 4324,
      "spec</w>": 4325,
      "changes</w>": 4326,
      "Organization</w>": 4327,
      "getLanguage</w>": 4328,
      "check</w>": 4329,
      "Priv": 4330,
      "defin": 4331,
      "binary": 4332,
      "BE": 4333,
      "top": 4334,
      "ConfigurationException</w>": 4335,
      "STATIC</w>": 4336,
      "match</w>": 4337,
      "marker</w>": 4338,
      "setSelected</w>": 4339,
      "Recipi": 4340,
      "STATUS_": 4341,
      "lat": 4342,
      "ree": 4343,
      "RevisionNumber</w>": 4344,
      "intercep": 4345,
      "::</w>": 4346,
      "UnsupportedOperationException</w>": 4347,
      "PROJECT</w>": 4348,
      "myPanel</w>": 4349,
      "getIcon</w>": 4350,
      "ory</w>": 4351,
      "Basic": 4352,
      "s1</w>": 4353,
      "Use</w>": 4354,
      "Failure</w>": 4355,
      "TypeId</w>": 4356,
      "parator": 4357,
      "BlogsEntry</w>": 4358,
      "ced": 4359,
      "getQual": 4360,
      "PyClass</w>": 4361,
      "Param</w>": 4362,
      "ambda": 4363,
      "ta": 4364,
      "Executor": 4365,
      "getValue": 4366,
      "Lexer</w>": 4367,
      "dependency</w>": 4368,
      "'.": 4369,
      "Assignment</w>": 4370,
      "'.'</w>": 4371,
      "Merg": 4372,
      "Configurations</w>": 4373,
      "FriendlyURL</w>": 4374,
      "UUID_G</w>": 4375,
      "highlight": 4376,
      "Fetch": 4377,
      "lastIndex": 4378,
      "getSimple": 4379,
      "settings": 4380,
      "JSONArray</w>": 4381,
      "UP": 4382,
      "Step</w>": 4383,
      "NUL": 4384,
      "asString</w>": 4385,
      "ep</w>": 4386,
      "Toolti": 4387,
      "ret</w>": 4388,
      "position": 4389,
      "statements</w>": 4390,
      "Mon": 4391,
      "bar</w>": 4392,
      "Sever": 4393,
      "PsiJavaCodeReferenceElement</w>": 4394,
      "ceptions</w>": 4395,
      "sFor": 4396,
      "findElement": 4397,
      "toSoapModel</w>": 4398,
      "fileEntryId</w>": 4399,
      "available": 4400,
      "Dfa": 4401,
      "Platform": 4402,
      "Enumer": 4403,
      "CACHE_": 4404,
      "Min": 4405,
      "PsiBuilder</w>": 4406,
      "Relation": 4407,
      "filterFind": 4408,
      "sl": 4409,
      "lers</w>": 4410,
      "LIST_": 4411,
      "rup": 4412,
      "INDE": 4413,
      "'/": 4414,
      "'/'</w>": 4415,
      "Mis": 4416,
      "top</w>": 4417,
      "attributeValue</w>": 4418,
      "fun</w>": 4419,
      "HttpServletResponse</w>": 4420,
      "AssignmentExpression</w>": 4421,
      "getBase": 4422,
      "Ran": 4423,
      "base</w>": 4424,
      "search</w>": 4425,
      "usage</w>": 4426,
      "identifi": 4427,
      "bucket": 4428,
      "dispo": 4429,
      "Term": 4430,
      "Details</w>": 4431,
      "frame</w>": 4432,
      "DLFileEntry</w>": 4433,
      "external": 4434,
      "getRow": 4435,
      "vcs</w>": 4436,
      "ify": 4437,
      "ATOR</w>": 4438,
      "atural": 4439,
      "navig": 4440,
      "bundle": 4441,
      "findByC_": 4442,
      "shardId</w>": 4443,
      "newName</w>": 4444,
      "applic": 4445,
      "ur</w>": 4446,
      "getState</w>": 4447,
      "newInstance</w>": 4448,
      "pattern": 4449,
      "CUR": 4450,
      "utation</w>": 4451,
      ">>></w>": 4452,
      "aint</w>": 4453,
      "Area</w>": 4454,
      "OB": 4455,
      "ered": 4456,
      "aph</w>": 4457,
      "ormaliz": 4458,
      "TableName</w>": 4459,
      "Swing": 4460,
      "alias</w>": 4461,
      "ffsets</w>": 4462,
      "Require": 4463,
      "getStart": 4464,
      "LogicalPosition</w>": 4465,
      "roleId</w>": 4466,
      "off</w>": 4467,
      "PsiFile": 4468,
      "StagedModel": 4469,
      "Body</w>": 4470,
      "Interval</w>": 4471,
      "filtered": 4472,
      "fire": 4473,
      "JournalArticle": 4474,
      "bind</w>": 4475,
      "Notification</w>": 4476,
      "getTarget": 4477,
      "Geo": 4478,
      "ending": 4479,
      "Site": 4480,
      "getAbsolute": 4481,
      "mp</w>": 4482,
      "Application</w>": 4483,
      "sort</w>": 4484,
      "CLASS_NAME_": 4485,
      "Ejb": 4486,
      "Indi": 4487,
      "Folding": 4488,
      "getManager</w>": 4489,
      "Entries": 4490,
      "PsiMember</w>": 4491,
      "clude</w>": 4492,
      "XmlFile</w>": 4493,
      "Trace": 4494,
      "SECON": 4495,
      "BeanDefinition</w>": 4496,
      "isDisposed</w>": 4497,
      "Leaf</w>": 4498,
      "pk</w>": 4499,
      "YT": 4500,
      "getProject": 4501,
      "expand": 4502,
      "getExtensions</w>": 4503,
      "getMethod</w>": 4504,
      "StringUtils</w>": 4505,
      "elementType</w>": 4506,
      "NewExpression</w>": 4507,
      "ol</w>": 4508,
      "Import</w>": 4509,
      "PortletPreferences</w>": 4510,
      "Comparis": 4511,
      "GrType": 4512,
      "0x0000000": 4513,
      "statement": 4514,
      "calendar</w>": 4515,
      "pret": 4516,
      "qualifier": 4517,
      "Transaction</w>": 4518,
      "ensure": 4519,
      "getFactory</w>": 4520,
      "bar": 4521,
      "Persistent": 4522,
      "REG": 4523,
      "sure</w>": 4524,
      "CategoryId</w>": 4525,
      "Da": 4526,
      "Consum": 4527,
      "cluded": 4528,
      "prefix": 4529,
      "UUID</w>": 4530,
      "Setting": 4531,
      "After</w>": 4532,
      "getMax": 4533,
      "cell": 4534,
      "getPath": 4535,
      "ModelAttribute</w>": 4536,
      "Helper": 4537,
      "save": 4538,
      "signed": 4539,
      "getDisplayName</w>": 4540,
      "entryId</w>": 4541,
      "else": 4542,
      "Visible": 4543,
      "reground</w>": 4544,
      "TO_": 4545,
      "Enum</w>": 4546,
      "chars</w>": 4547,
      "prog": 4548,
      "VAR": 4549,
      "ine</w>": 4550,
      "DataProvider": 4551,
      "DefinitionId</w>": 4552,
      "Patch": 4553,
      "setParameter</w>": 4554,
      "Tokens</w>": 4555,
      "company": 4556,
      "Ma": 4557,
      "short": 4558,
      "ejb": 4559,
      "Selector": 4560,
      "Interceptor": 4561,
      "IfStatement</w>": 4562,
      "Activ": 4563,
      "board": 4564,
      "PAC": 4565,
      "Feed": 4566,
      "site": 4567,
      "timestamp</w>": 4568,
      "layoutRevision</w>": 4569,
      "collection</w>": 4570,
      "mmary</w>": 4571,
      "Owner": 4572,
      "Location": 4573,
      "Statements</w>": 4574,
      "QueryBuilder</w>": 4575,
      "ght": 4576,
      "Move</w>": 4577,
      "findChild": 4578,
      "Delete": 4579,
      "cvs": 4580,
      "AUT": 4581,
      "PyFunction</w>": 4582,
      "DER</w>": 4583,
      "getKaleo": 4584,
      "ASK</w>": 4585,
      "PREFIX</w>": 4586,
      "ks": 4587,
      "executor</w>": 4588,
      "var</w>": 4589,
      "register</w>": 4590,
      "DISP": 4591,
      "operand</w>": 4592,
      "getError": 4593,
      "notification": 4594,
      "Watch": 4595,
      "Schema</w>": 4596,
      "Second": 4597,
      "IL": 4598,
      "ermin": 4599,
      "ell": 4600,
      "PK": 4601,
      "DDMFormField": 4602,
      "Lookup</w>": 4603,
      "Select": 4604,
      "category</w>": 4605,
      "select</w>": 4606,
      "COP": 4607,
      "entries</w>": 4608,
      "long": 4609,
      "ools</w>": 4610,
      "Ancestor</w>": 4611,
      "singleton": 4612,
      "edSize</w>": 4613,
      "Accessor</w>": 4614,
      "lookup": 4615,
      "PsiExpression": 4616,
      "DLFolder</w>": 4617,
      "equalsIgnoreCase</w>": 4618,
      "arg</w>": 4619,
      "Optional": 4620,
      "Dynamic": 4621,
      "popu": 4622,
      "Leg": 4623,
      "resolveModelAttribute</w>": 4624,
      "iled": 4625,
      "convert</w>": 4626,
      "sst": 4627,
      "Transport": 4628,
      "getLayout</w>": 4629,
      "SUBSYSTEM_": 4630,
      "sdk</w>": 4631,
      "Control</w>": 4632,
      "SPACE</w>": 4633,
      "Lists</w>": 4634,
      "Polls": 4635,
      "client": 4636,
      "desc</w>": 4637,
      "Json": 4638,
      "imum": 4639,
      "Restri": 4640,
      "Hint": 4641,
      "checked": 4642,
      "Graphics</w>": 4643,
      "Progress</w>": 4644,
      "Booking": 4645,
      "findAll</w>": 4646,
      "Home": 4647,
      "Insert": 4648,
      "head</w>": 4649,
      "Mapper": 4650,
      "Jdk": 4651,
      "getElementFactory</w>": 4652,
      "mime": 4653,
      "ndi": 4654,
      "lastIndexOf</w>": 4655,
      "Anonymous": 4656,
      "then": 4657,
      "Term</w>": 4658,
      "Aw": 4659,
      "DDLRecord": 4660,
      "setUserId</w>": 4661,
      "getSession</w>": 4662,
      "that": 4663,
      "Validation": 4664,
      "ecy": 4665,
      "getOutput": 4666,
      "S_EMPTY</w>": 4667,
      "DDMStructure</w>": 4668,
      "status": 4669,
      "'\\</w>": 4670,
      "compute": 4671,
      "cached": 4672,
      "packageName</w>": 4673,
      "ailing": 4674,
      "Plugin</w>": 4675,
      "getLe": 4676,
      "Graphics": 4677,
      "odo": 4678,
      "uration</w>": 4679,
      "Tags</w>": 4680,
      "src": 4681,
      "FINDER_ARG": 4682,
      "FINDER_PATH_COUNT_ALL</w>": 4683,
      "FINDER_ARGS_EMPTY</w>": 4684,
      "S_PrevAndNext</w>": 4685,
      "PsiStatement</w>": 4686,
      "contr": 4687,
      "Idea": 4688,
      "IN</w>": 4689,
      "Vfs": 4690,
      "sStats": 4691,
      "Gu": 4692,
      "GridBagConstraints</w>": 4693,
      "servletContext</w>": 4694,
      "myLast": 4695,
      "Analyzer</w>": 4696,
      "Vocabulary</w>": 4697,
      "Bar</w>": 4698,
      "Patterns</w>": 4699,
      "parser": 4700,
      "getColumnBitmask</w>": 4701,
      "IZ": 4702,
      "phas": 4703,
      "Framework": 4704,
      "More": 4705,
      "cast": 4706,
      "ants</w>": 4707,
      "image": 4708,
      "napshot</w>": 4709,
      "FINDER_PATH_COUNT_BY_": 4710,
      "go": 4711,
      "Symbols</w>": 4712,
      "journalArticle": 4713,
      "SLAS": 4714,
      "CONFI": 4715,
      "VALU": 4716,
      "CharPool</w>": 4717,
      "Void</w>": 4718,
      "DISPLA": 4719,
      "activ": 4720,
      "CF": 4721,
      "idd": 4722,
      "chang": 4723,
      "Bench": 4724,
      "USE_": 4725,
      "ATTRIBUTE_": 4726,
      "omp": 4727,
      "getBoolean</w>": 4728,
      "Y_KEY</w>": 4729,
      "ATTRIBUTES</w>": 4730,
      "WAR": 4731,
      "The": 4732,
      "DDMTemplate": 4733,
      "IC_": 4734,
      "sport</w>": 4735,
      "SSTable": 4736,
      "indent</w>": 4737,
      "DataSource</w>": 4738,
      "fs</w>": 4739,
      "Jav": 4740,
      "ClassLoader": 4741,
      "Menu": 4742,
      "perform": 4743,
      "ID_": 4744,
      "stop": 4745,
      "entityName</w>": 4746,
      "constructor</w>": 4747,
      "endpoint</w>": 4748,
      "seg": 4749,
      "Align": 4750,
      "Routing": 4751,
      "ComboBox</w>": 4752,
      "dynamic": 4753,
      "getReturnType</w>": 4754,
      "calculate": 4755,
      "items</w>": 4756,
      "1_": 4757,
      "allo": 4758,
      "orted</w>": 4759,
      "unit</w>": 4760,
      "Restric": 4761,
      "Duplic": 4762,
      "protocol</w>": 4763,
      "Tri": 4764,
      "Record</w>": 4765,
      "getWidth</w>": 4766,
      "Soft": 4767,
      "option</w>": 4768,
      "getTh": 4769,
      "indicator</w>": 4770,
      "edExpression</w>": 4771,
      "ddmTemplate": 4772,
      "vm": 4773,
      "rout": 4774,
      "FINDER_CLASS_NAME_": 4775,
      "structure": 4776,
      "execution": 4777,
      "getClassPK</w>": 4778,
      "break": 4779,
      "Nest": 4780,
      "odes": 4781,
      "puts</w>": 4782,
      "ency</w>": 4783,
      "vocabul": 4784,
      "Failure": 4785,
      "sFolder</w>": 4786,
      "Std": 4787,
      "icon": 4788,
      "SqlType</w>": 4789,
      "PsiTypeParameter</w>": 4790,
      "Navigation": 4791,
      "Breakpoint": 4792,
      "ance</w>": 4793,
      "ody": 4794,
      "ObjectUtils</w>": 4795,
      "Select</w>": 4796,
      "getSec": 4797,
      "Problem</w>": 4798,
      "ine": 4799,
      "comparator</w>": 4800,
      "PRIMAR": 4801,
      "COLO": 4802,
      "getBody</w>": 4803,
      "RadComponent</w>": 4804,
      "overrid": 4805,
      "default</w>": 4806,
      "Insight": 4807,
      "PropsValues</w>": 4808,
      "DM": 4809,
      "XContentBuilder</w>": 4810,
      "Label": 4811,
      "maven": 4812,
      "generator</w>": 4813,
      "consume</w>": 4814,
      "Management": 4815,
      "COMP": 4816,
      "Coup": 4817,
      "liferay": 4818,
      "Ranges</w>": 4819,
      "Idx</w>": 4820,
      "PROPERT": 4821,
      "SLASH</w>": 4822,
      "red</w>": 4823,
      "Upper": 4824,
      "declared": 4825,
      "FieldMapper</w>": 4826,
      "sAnd": 4827,
      "getPsiElement</w>": 4828,
      "StandardTypes</w>": 4829,
      "renderRequest</w>": 4830,
      "className": 4831,
      "Retur": 4832,
      "INTER": 4833,
      "fecy": 4834,
      "Legacy": 4835,
      "Float</w>": 4836,
      "ire</w>": 4837,
      "PARAMET": 4838,
      "modifiable": 4839,
      "getString": 4840,
      "Hive": 4841,
      "son</w>": 4842,
      "DataHandler": 4843,
      "getDDM": 4844,
      "LANG_": 4845,
      "TT": 4846,
      "Analysi": 4847,
      "VIE": 4848,
      "namespace</w>": 4849,
      "lav": 4850,
      "EN_": 4851,
      "boolean": 4852,
      "fe": 4853,
      "ize": 4854,
      "LECT": 4855,
      "sistency": 4856,
      "Filters</w>": 4857,
      "provider": 4858,
      "getTemplate": 4859,
      "SearchContext</w>": 4860,
      "separator</w>": 4861,
      "KEY": 4862,
      "estion</w>": 4863,
      "stanti": 4864,
      "ID": 4865,
      "Commit</w>": 4866,
      "myElement</w>": 4867,
      "renderer</w>": 4868,
      "PsiDocumentManager</w>": 4869,
      "BYT": 4870,
      "just": 4871,
      "aw</w>": 4872,
      "schema": 4873,
      "Endpoint": 4874,
      "ATE</w>": 4875,
      "modifierList</w>": 4876,
      "dlFolder</w>": 4877,
      "getPreferredSize</w>": 4878,
      "Transl": 4879,
      "mall": 4880,
      "Deprecated</w>": 4881,
      "QuickFix</w>": 4882,
      "getTitle</w>": 4883,
      "argumentList</w>": 4884,
      "server</w>": 4885,
      "criter": 4886,
      "columnName</w>": 4887,
      "Usages": 4888,
      "Configurable": 4889,
      "properties": 4890,
      "reset</w>": 4891,
      "getContext": 4892,
      "ursi": 4893,
      "ABLE</w>": 4894,
      "recei": 4895,
      "InspectionGadgetsBundle</w>": 4896,
      "region</w>": 4897,
      "rhs</w>": 4898,
      "transaction": 4899,
      "Routing</w>": 4900,
      "Short</w>": 4901,
      "RES": 4902,
      "SET</w>": 4903,
      "nest": 4904,
      "myName</w>": 4905,
      "destination</w>": 4906,
      "getPsi</w>": 4907,
      "textRange</w>": 4908,
      "hel": 4909,
      "Enabled": 4910,
      "each": 4911,
      "2D</w>": 4912,
      "Famil": 4913,
      "ArrayType</w>": 4914,
      "ffec": 4915,
      "ution</w>": 4916,
      "PsiPackage</w>": 4917,
      "TextField</w>": 4918,
      "isD": 4919,
      "getSimpleName</w>": 4920,
      "SCRI": 4921,
      "modules</w>": 4922,
      "SUBSYSTEM_NAME</w>": 4923,
      "DomElement</w>": 4924,
      "serializer</w>": 4925,
      "EME_": 4926,
      "getStatus</w>": 4927,
      "Expected": 4928,
      "Focus": 4929,
      "Declaration": 4930,
      "Bas": 4931,
      "Right</w>": 4932,
      "SIT": 4933,
      "VInt</w>": 4934,
      "ared": 4935,
      "Inten": 4936,
      "indices</w>": 4937,
      "find</w>": 4938,
      "ync": 4939,
      "Additional": 4940,
      "rootElement</w>": 4941,
      "dlFileEntry</w>": 4942,
      "getHeight</w>": 4943,
      "notif": 4944,
      "rele": 4945,
      "compute</w>": 4946,
      "lhs</w>": 4947,
      "Required": 4948,
      "Out</w>": 4949,
      "ayload</w>": 4950,
      "place": 4951,
      "ATE_": 4952,
      "DDMTemplate</w>": 4953,
      "Sources</w>": 4954,
      "myFile": 4955,
      "SPACE_": 4956,
      "sn</w>": 4957,
      "straint</w>": 4958,
      "bot": 4959,
      "conflic": 4960,
      "Modifiers</w>": 4961,
      "resourceBlock": 4962,
      "ages": 4963,
      "Port</w>": 4964,
      "ExpandoBrid": 4965,
      "ElementTypes</w>": 4966,
      "TreeElement</w>": 4967,
      "cription": 4968,
      "AX": 4969,
      "Matching": 4970,
      "Attributes": 4971,
      "TimeMillis</w>": 4972,
      "HTM": 4973,
      "32</w>": 4974,
      "Fragment": 4975,
      "round": 4976,
      "stric": 4977,
      "covery": 4978,
      "AttributeValue</w>": 4979,
      "ally": 4980,
      "LanguageUtil</w>": 4981,
      "cell</w>": 4982,
      "DAV": 4983,
      "PathComponent</w>": 4984,
      "TypeDescriptor</w>": 4985,
      "ReturnType</w>": 4986,
      "keywords</w>": 4987,
      "PRIMARY_KEY</w>": 4988,
      "Destination</w>": 4989,
      "Deleg": 4990,
      "GrMethod</w>": 4991,
      "ORY</w>": 4992,
      "FieldName</w>": 4993,
      "Limit": 4994,
      "cessi": 4995,
      "Flow": 4996,
      "roots</w>": 4997,
      "registration</w>": 4998,
      "ColumnHandle</w>": 4999,
      "ByName</w>": 5000,
      "Audit": 5001,
      "fetchByUuid_": 5002,
      "SyncFile</w>": 5003,
      "Destination": 5004,
      "Sort": 5005,
      "shal": 5006,
      "FieldType</w>": 5007,
      "Poly": 5008,
      "fileEntry": 5009,
      "BeanFactory</w>": 5010,
      "dataId</w>": 5011,
      "Reader": 5012,
      "ddlRecord": 5013,
      "fragment</w>": 5014,
      "_NO_SUCH_ENTITY_WITH_PRIMARY_KEY</w>": 5015,
      "setVisible</w>": 5016,
      "MASK</w>": 5017,
      "logical": 5018,
      "invoc": 5019,
      "Children": 5020,
      "getIndex</w>": 5021,
      "RootManager</w>": 5022,
      "connector": 5023,
      "category": 5024,
      "ear</w>": 5025,
      "Flag": 5026,
      "MAX_VALUE</w>": 5027,
      "isEmpty": 5028,
      "lookup</w>": 5029,
      "SHOW_": 5030,
      "groupIds</w>": 5031,
      "definition</w>": 5032,
      "notNull</w>": 5033,
      "req</w>": 5034,
      "paint</w>": 5035,
      "retri": 5036,
      "header": 5037,
      "Expand": 5038,
      "getCategor": 5039,
      "Daemon": 5040,
      "getScope": 5041,
      "hs": 5042,
      "ableType</w>": 5043,
      "Split</w>": 5044,
      "pared": 5045,
      "Script</w>": 5046,
      "Engine</w>": 5047,
      "getAbsolutePath</w>": 5048,
      "ee": 5049,
      "Equi": 5050,
      "AssetCategory": 5051,
      "Deletion": 5052,
      "Keyspace</w>": 5053,
      "ActionRequest</w>": 5054,
      "Initial": 5055,
      "export": 5056,
      "Charset</w>": 5057,
      "ele": 5058,
      "assetCategory": 5059,
      "fill": 5060,
      "highlighter</w>": 5061,
      "findElementAt</w>": 5062,
      "DE</w>": 5063,
      "Dic": 5064,
      "image</w>": 5065,
      "DELET": 5066,
      "isInterface</w>": 5067,
      "PsiAnnotation</w>": 5068,
      "CacheEnabled</w>": 5069,
      "LinkedHashSet</w>": 5070,
      "Cast": 5071,
      "END": 5072,
      "INATION</w>": 5073,
      "Question": 5074,
      "Achi": 5075,
      "Escap": 5076,
      "Achieve": 5077,
      "MAN": 5078,
      "instruction</w>": 5079,
      "getPermissionChecker</w>": 5080,
      "EDIT": 5081,
      "visible": 5082,
      "Delivery": 5083,
      "attr": 5084,
      "Microblog": 5085,
      "may": 5086,
      "concat</w>": 5087,
      "sCache</w>": 5088,
      "Aliases</w>": 5089,
      "oki": 5090,
      "very</w>": 5091,
      "ApplicationContext</w>": 5092,
      "TableHandle</w>": 5093,
      "les</w>": 5094,
      "setCreate": 5095,
      "site</w>": 5096,
      "readFrom</w>": 5097,
      "Case": 5098,
      "utable</w>": 5099,
      "common": 5100,
      "sum</w>": 5101,
      "Tool</w>": 5102,
      "TimeZone</w>": 5103,
      "Blocks</w>": 5104,
      "getAs": 5105,
      "refElement</w>": 5106,
      "16</w>": 5107,
      "Check</w>": 5108,
      "relativePath</w>": 5109,
      "MBThread</w>": 5110,
      "ward</w>": 5111,
      "font": 5112,
      "vel": 5113,
      "Sen": 5114,
      "dependency": 5115,
      "Vocabulary": 5116,
      "revision": 5117,
      "Criterion</w>": 5118,
      "getOr": 5119,
      "PortletURL</w>": 5120,
      "now": 5121,
      "argument</w>": 5122,
      "PAGINATION</w>": 5123,
      "FINDER_CLASS_NAME_LIST_": 5124,
      "Cred": 5125,
      "QuickFix": 5126,
      "ess</w>": 5127,
      "feray": 5128,
      "ength": 5129,
      "Injected": 5130,
      "headers</w>": 5131,
      "setColor</w>": 5132,
      "cat": 5133,
      "ranges</w>": 5134,
      "core</w>": 5135,
      "Account": 5136,
      "Highlighter": 5137,
      "cls</w>": 5138,
      "Boo": 5139,
      "unique": 5140,
      "getNew": 5141,
      "Chain</w>": 5142,
      "superClass</w>": 5143,
      "Dependent": 5144,
      "hasFocus</w>": 5145,
      "resh</w>": 5146,
      "otal": 5147,
      "ccurr": 5148,
      "UB": 5149,
      "atures</w>": 5150,
      "Actions": 5151,
      "ToUse</w>": 5152,
      "NamedElement</w>": 5153,
      "Impl": 5154,
      "install</w>": 5155,
      "Coverage": 5156,
      "resolveResult</w>": 5157,
      "ProgressIndicator</w>": 5158,
      "NOR": 5159,
      "du": 5160,
      "Upgrade": 5161,
      "butt": 5162,
      "Te": 5163,
      "oder</w>": 5164,
      "control": 5165,
      "udi": 5166,
      "AN</w>": 5167,
      "Composite</w>": 5168,
      "atorFactory</w>": 5169,
      "Inform": 5170,
      "Roles</w>": 5171,
      "Evaluator</w>": 5172,
      "myIs": 5173,
      "THEME_": 5174,
      "Uri</w>": 5175,
      "bed": 5176,
      "this_present_": 5177,
      "that_present_": 5178,
      "Batch": 5179,
      "exception": 5180,
      "filterGet": 5181,
      "WORD</w>": 5182,
      "getRel": 5183,
      "debug": 5184,
      "getOperation": 5185,
      "composi": 5186,
      "Leaf": 5187,
      "LIST</w>": 5188,
      "timeout</w>": 5189,
      "DATE</w>": 5190,
      "LINE_": 5191,
      "total</w>": 5192,
      "destination": 5193,
      "Accep": 5194,
      "getLi": 5195,
      "ByteArray": 5196,
      "DEP": 5197,
      "languageId</w>": 5198,
      "random": 5199,
      "I_": 5200,
      "jection</w>": 5201,
      "loader</w>": 5202,
      "toString": 5203,
      "setIcon</w>": 5204,
      "SAP": 5205,
      "handler": 5206,
      "Caret": 5207,
      "Defined</w>": 5208,
      "iler</w>": 5209,
      "ACTION_": 5210,
      "vers</w>": 5211,
      "EP_NAME</w>": 5212,
      "direct": 5213,
      "region": 5214,
      "number": 5215,
      "Committed": 5216,
      "substitu": 5217,
      "assetTag": 5218,
      "getMvccVersion</w>": 5219,
      "getLength</w>": 5220,
      "SystemInfo</w>": 5221,
      "tokens</w>": 5222,
      "With</w>": 5223,
      "lines</w>": 5224,
      "Stamp</w>": 5225,
      "ERS</w>": 5226,
      "getDeclar": 5227,
      "getServiceName</w>": 5228,
      "ON_": 5229,
      "real": 5230,
      "acity</w>": 5231,
      "contentType</w>": 5232,
      "setCreateDate</w>": 5233,
      "Constructor": 5234,
      "pathAddress</w>": 5235,
      "PARATOR</w>": 5236,
      "constan": 5237,
      "tom</w>": 5238,
      "Constant</w>": 5239,
      "frame": 5240,
      "Getter</w>": 5241,
      "getMin": 5242,
      "getApplication</w>": 5243,
      "findChildBy": 5244,
      "Adv": 5245,
      "Inline": 5246,
      "myComponent</w>": 5247,
      "EREN": 5248,
      "getJava": 5249,
      "texts</w>": 5250,
      "Produc": 5251,
      "CHANG": 5252,
      "remain": 5253,
      "EntryException</w>": 5254,
      "Keyword</w>": 5255,
      "psi</w>": 5256,
      "mdrRuleGroup": 5257,
      "PORT_": 5258,
      "Scopes</w>": 5259,
      "journalArticle</w>": 5260,
      "entityCache</w>": 5261,
      "WE": 5262,
      "focu": 5263,
      "Lambda": 5264,
      "required": 5265,
      "BU": 5266,
      "Signature": 5267,
      "getRoot</w>": 5268,
      "spend": 5269,
      "forName</w>": 5270,
      "getGroup</w>": 5271,
      "Elements": 5272,
      "BOO": 5273,
      "rc</w>": 5274,
      "Shards</w>": 5275,
      "IT_": 5276,
      "known": 5277,
      "FileBy": 5278,
      "getUrl</w>": 5279,
      "Finder</w>": 5280,
      "auto": 5281,
      "vice</w>": 5282,
      "EntityName</w>": 5283,
      "setGroupId</w>": 5284,
      "dig": 5285,
      "Go": 5286,
      "NOW": 5287,
      "LAY": 5288,
      "Swit": 5289,
      "uccess": 5290,
      "Protocol": 5291,
      "ediaType</w>": 5292,
      "Rating": 5293,
      "non": 5294,
      "os": 5295,
      "Face": 5296,
      "Liferay": 5297,
      "ToolWindow</w>": 5298,
      "ECT": 5299,
      "components</w>": 5300,
      "down": 5301,
      "getSelectionModel</w>": 5302,
      "mode</w>": 5303,
      "getAction": 5304,
      "force": 5305,
      "getSu": 5306,
      "actionResponse</w>": 5307,
      "deploy": 5308,
      "singletonList</w>": 5309,
      "function": 5310,
      "AndGet</w>": 5311,
      "AssetCategory</w>": 5312,
      "VE</w>": 5313,
      "LOA": 5314,
      "methodExpression</w>": 5315,
      "shortc": 5316,
      "Wrap</w>": 5317,
      "Awar": 5318,
      "ApplicationManager</w>": 5319,
      "El": 5320,
      "snapshot": 5321,
      "dependent": 5322,
      "suffix</w>": 5323,
      "Benchmark</w>": 5324,
      "RefactoringBundle</w>": 5325,
      "rows</w>": 5326,
      "Organization": 5327,
      "PublishDate</w>": 5328,
      "ference": 5329,
      "bundle</w>": 5330,
      "ynamic</w>": 5331,
      "currentThread</w>": 5332,
      "ENTER</w>": 5333,
      "ServiceController</w>": 5334,
      "DISPLAY</w>": 5335,
      "JM": 5336,
      "Database": 5337,
      "XmlAttribute</w>": 5338,
      "myProject": 5339,
      "COLU": 5340,
      "ManagerImpl</w>": 5341,
      "attr</w>": 5342,
      "mbMessage</w>": 5343,
      "dispose</w>": 5344,
      "deserialize</w>": 5345,
      "setSelected": 5346,
      "constraints</w>": 5347,
      "KNOW": 5348,
      "clean": 5349,
      "refresh": 5350,
      "XMLStream": 5351,
      "expressions</w>": 5352,
      "FILE</w>": 5353,
      "COLUM": 5354,
      "ddmStructure</w>": 5355,
      "PUB": 5356,
      "Double": 5357,
      "C_PrevAndNext</w>": 5358,
      "caret</w>": 5359,
      "WH": 5360,
      "Messaging": 5361,
      "assetEntry": 5362,
      "SCOP": 5363,
      "visual": 5364,
      "advance": 5365,
      "Down": 5366,
      "arraycopy</w>": 5367,
      "Sel": 5368,
      "setModifiedDate</w>": 5369,
      "Short": 5370,
      "facet": 5371,
      "parameterMap</w>": 5372,
      "PUBLI": 5373,
      "SS_": 5374,
      "branch": 5375,
      "Slice": 5376,
      "HashCode</w>": 5377,
      "eetups": 5378,
      "ss</w>": 5379,
      "nullSafe": 5380,
      "profile</w>": 5381,
      "delta</w>": 5382,
      "ences</w>": 5383,
      "scal": 5384,
      "parts</w>": 5385,
      "TypeConversion": 5386,
      "ServiceBuilder</w>": 5387,
      "IfNe": 5388,
      "rever": 5389,
      "callback</w>": 5390,
      "LayoutRevision": 5391,
      "phaseContext</w>": 5392,
      "MavenDom": 5393,
      "enter": 5394,
      "JAVA_LANG_": 5395,
      "Shi": 5396,
      "AGE_": 5397,
      "groupName</w>": 5398,
      "MENT_": 5399,
      "Inherit": 5400,
      "getUserObject</w>": 5401,
      "strateg": 5402,
      "getLibr": 5403,
      "PsiNewExpression</w>": 5404,
      "Tabs</w>": 5405,
      "currentTimeMillis</w>": 5406,
      "Right": 5407,
      "RootType</w>": 5408,
      "Light": 5409,
      "init</w>": 5410,
      "Timer</w>": 5411,
      "entials</w>": 5412,
      "ates": 5413,
      "ChangeList": 5414,
      "ExternalProject": 5415,
      "getModule</w>": 5416,
      "Left": 5417,
      "WhiteSpace</w>": 5418,
      "Flags</w>": 5419,
      "pn": 5420,
      "VALUE_": 5421,
      "myType</w>": 5422,
      "newArrayList</w>": 5423,
      "Chunk</w>": 5424,
      "ains</w>": 5425,
      "EXT": 5426,
      "Dispatcher</w>": 5427,
      "ResourceBlock": 5428,
      "IVE_": 5429,
      "JLabel</w>": 5430,
      "patch</w>": 5431,
      "keyspace": 5432,
      "Aware</w>": 5433,
      "ListOwner</w>": 5434,
      "Return</w>": 5435,
      "restore": 5436,
      "Equival": 5437,
      "Nested": 5438,
      "DATA_": 5439,
      "Strings</w>": 5440,
      "anded</w>": 5441,
      "schema</w>": 5442,
      "getProperties</w>": 5443,
      "getStatus": 5444,
      "liter": 5445,
      "ia": 5446,
      "END_": 5447,
      "CFMetaData</w>": 5448,
      "connection": 5449,
      "proxy</w>": 5450,
      "collect</w>": 5451,
      "Wrapper": 5452,
      "md": 5453,
      "LAYO": 5454,
      "LanguageId</w>": 5455,
      "Transformer</w>": 5456,
      "sSet</w>": 5457,
      "articleId</w>": 5458,
      "PsiDoc": 5459,
      "startObject</w>": 5460,
      "Arch": 5461,
      "mbThread": 5462,
      "CodeStyleSettings</w>": 5463,
      "tax": 5464,
      "getActive": 5465,
      "THEME_DISPLAY</w>": 5466,
      "microblog": 5467,
      "nemon": 5468,
      "Defaults</w>": 5469,
      "DeploymentUnit": 5470,
      "DOUB": 5471,
      "Lazy": 5472,
      "polic": 5473,
      "slice</w>": 5474,
      "limit</w>": 5475,
      "TimeUnit</w>": 5476,
      "Exclude": 5477,
      "Weight</w>": 5478,
      "myEditor": 5479,
      "previous</w>": 5480,
      "codes</w>": 5481,
      "typeElement</w>": 5482,
      "Extended": 5483,
      "TableModel</w>": 5484,
      "setUserName</w>": 5485,
      "namespace": 5486,
      "Place</w>": 5487,
      "binding</w>": 5488,
      "AccessException</w>": 5489,
      "External</w>": 5490,
      "Marker": 5491,
      "retrieve": 5492,
      "show</w>": 5493,
      "PlanNode</w>": 5494,
      "myState</w>": 5495,
      "referenced": 5496,
      "Aware": 5497,
      "Definitions</w>": 5498,
      "isStatic</w>": 5499,
      "getSchem": 5500,
      "Accessi": 5501,
      "History": 5502,
      "Foreground</w>": 5503,
      "Occurr": 5504,
      "Plan</w>": 5505,
      "runn": 5506,
      "endObject</w>": 5507,
      "iration": 5508,
      "EXT</w>": 5509,
      "cfm</w>": 5510,
      "Strip": 5511,
      "setDescription</w>": 5512,
      "toUn": 5513,
      "SERVICE_": 5514,
      "NOT": 5515,
      "Required</w>": 5516,
      "Psi</w>": 5517,
      "trace": 5518,
      "edit": 5519,
      "lib": 5520,
      "psiMethod</w>": 5521,
      "ExecutionException</w>": 5522,
      "finish": 5523,
      "configure": 5524,
      "threadId</w>": 5525,
      "Diction": 5526,
      "myS": 5527,
      "Pas": 5528,
      "getInstance": 5529,
      "PortletDataContext</w>": 5530,
      "PARENT": 5531,
      "ifStatement</w>": 5532,
      "errors</w>": 5533,
      "conso": 5534,
      "soc": 5535,
      "classType</w>": 5536,
      "myDocument</w>": 5537,
      "Without": 5538,
      "annotations</w>": 5539,
      "portImportConfiguration": 5540,
      "Attachments</w>": 5541,
      "FriendlyURL": 5542,
      "ker</w>": 5543,
      "FileEditor": 5544,
      "yper": 5545,
      "mapped": 5546,
      "rating": 5547,
      "response": 5548,
      "Resources</w>": 5549,
      "channel": 5550,
      "mbst": 5551,
      "Diff</w>": 5552,
      "METHOD_": 5553,
      "Password</w>": 5554,
      "StringBuffer</w>": 5555,
      "track": 5556,
      "Priority</w>": 5557,
      "Atom": 5558,
      "LET_": 5559,
      "workflowDefinition": 5560,
      "enable": 5561,
      "getFirst</w>": 5562,
      "candidates</w>": 5563,
      "normaliz": 5564,
      "isAvailable</w>": 5565,
      "Mapped": 5566,
      "NodeDescriptor</w>": 5567,
      "ts": 5568,
      "Regist": 5569,
      "SessionImplementor</w>": 5570,
      "exportImportConfiguration</w>": 5571,
      "mote</w>": 5572,
      "tive</w>": 5573,
      "eld": 5574,
      "Naming": 5575,
      "AST</w>": 5576,
      "condi": 5577,
      "NotificationRecipi": 5578,
      "alContext</w>": 5579,
      "Print": 5580,
      "Visib": 5581,
      "ignored</w>": 5582,
      "TER_": 5583,
      "Join</w>": 5584,
      "O_": 5585,
      "XContent</w>": 5586,
      "ids</w>": 5587,
      "fetchByPrimaryKey</w>": 5588,
      "ipel": 5589,
      "modifiers</w>": 5590,
      "parameterList</w>": 5591,
      "UserData</w>": 5592,
      "ProcessingException</w>": 5593,
      "US": 5594,
      "emailAddress</w>": 5595,
      "isUn": 5596,
      "TRAN": 5597,
      "Phy": 5598,
      "In</w>": 5599,
      "WS": 5600,
      "wikiPage</w>": 5601,
      "ithub": 5602,
      "spection": 5603,
      "ization": 5604,
      "Driver</w>": 5605,
      "getUn": 5606,
      "BeanDefinition": 5607,
      "Ord": 5608,
      "getAnnotation</w>": 5609,
      "cludes</w>": 5610,
      "istinc": 5611,
      "article</w>": 5612,
      "getFirstChild</w>": 5613,
      "Graphics2D</w>": 5614,
      "merge</w>": 5615,
      "myBuilder</w>": 5616,
      "usages</w>": 5617,
      "myManager</w>": 5618,
      "Duration</w>": 5619,
      "empty</w>": 5620,
      "QueryRunner</w>": 5621,
      "MIN_": 5622,
      "Inner": 5623,
      "primary": 5624,
      "src</w>": 5625,
      "ular": 5626,
      "PrimKey</w>": 5627,
      "Specification</w>": 5628,
      "ELEMENT</w>": 5629,
      "isValid": 5630,
      "Trace</w>": 5631,
      "sdk": 5632,
      "TypeName</w>": 5633,
      "SERV": 5634,
      "Injection</w>": 5635,
      "TAG_": 5636,
      "igration": 5637,
      "Hits</w>": 5638,
      "modified": 5639,
      "Descriptors</w>": 5640,
      "Facet</w>": 5641,
      "tran": 5642,
      "QueryUtil</w>": 5643,
      "Left</w>": 5644,
      "SECONDS</w>": 5645,
      "side": 5646,
      "ENG": 5647,
      "newValue</w>": 5648,
      "CodeStyleManager</w>": 5649,
      "pointer</w>": 5650,
      "PsiClass": 5651,
      "script</w>": 5652,
      "metri": 5653,
      "referenceExpression</w>": 5654,
      "JD": 5655,
      "friendly": 5656,
      "nels</w>": 5657,
      "dataSource</w>": 5658,
      "isAncestor</w>": 5659,
      "system</w>": 5660,
      "security": 5661,
      "simp": 5662,
      "AllIcons</w>": 5663,
      "ash</w>": 5664,
      "utter": 5665,
      "Operations</w>": 5666,
      "KEY_": 5667,
      "Partition</w>": 5668,
      "holder": 5669,
      "Rele": 5670,
      "Export": 5671,
      "anifest": 5672,
      "ond</w>": 5673,
      "PsiCodeBlock</w>": 5674,
      "ObjectName</w>": 5675,
      "PackagingElement</w>": 5676,
      "Assertion": 5677,
      "mapping": 5678,
      "DefaultActionGroup</w>": 5679,
      "beanFactory</w>": 5680,
      "JECT_": 5681,
      "Github": 5682,
      "strip": 5683,
      "Sugg": 5684,
      "serviceName</w>": 5685,
      "oom": 5686,
      "Severity</w>": 5687,
      "Todo": 5688,
      "MIN": 5689,
      "lap": 5690,
      "leton</w>": 5691,
      "clustering</w>": 5692,
      "VersionId</w>": 5693,
      "getUserData</w>": 5694,
      "Injector</w>": 5695,
      "QUE": 5696,
      "DeploymentUnitProcessingException</w>": 5697,
      "SING": 5698,
      "getExpression</w>": 5699,
      "stat</w>": 5700,
      "announcements": 5701,
      "Lang": 5702,
      "Val</w>": 5703,
      "BookmarksEntry</w>": 5704,
      "getDeclared": 5705,
      "notify": 5706,
      "IC": 5707,
      "ra": 5708,
      "Dialect</w>": 5709,
      "proxy": 5710,
      "CACHE_ENABLED</w>": 5711,
      "adap": 5712,
      "sel": 5713,
      "getNode": 5714,
      "AssetEntry</w>": 5715,
      "Completion</w>": 5716,
      "Missing": 5717,
      "DA": 5718,
      "LinkedHashMap</w>": 5719,
      "cur</w>": 5720,
      "GROUP_": 5721,
      "pe</w>": 5722,
      "ImmutableMap</w>": 5723,
      "Intention": 5724,
      "anos</w>": 5725,
      "MethodSignature</w>": 5726,
      "ManagerEx</w>": 5727,
      "consumer</w>": 5728,
      "Close": 5729,
      "Enumeration</w>": 5730,
      "window": 5731,
      "Consumer</w>": 5732,
      "Supp": 5733,
      "store</w>": 5734,
      "REFEREN": 5735,
      "NoSuchEntryException</w>": 5736,
      "Inst": 5737,
      "organization</w>": 5738,
      "UpperCase</w>": 5739,
      "tedException</w>": 5740,
      "jsonArray</w>": 5741,
      "brow": 5742,
      "Delete</w>": 5743,
      "Shard</w>": 5744,
      "Emb": 5745,
      "ant</w>": 5746,
      "ColumnDefinition</w>": 5747,
      "ServletContext</w>": 5748,
      "comment": 5749,
      "aturalId": 5750,
      "Remove</w>": 5751,
      "DEFAULT</w>": 5752,
      "CustomSQL": 5753,
      "setup": 5754,
      "Wildcard": 5755,
      "Conditional": 5756,
      "FAL": 5757,
      "ANNOT": 5758,
      "UNKNOW": 5759,
      "getNextSibling</w>": 5760,
      "Interpret": 5761,
      "Lay": 5762,
      "getAttachment</w>": 5763,
      "LayoutSetBranch</w>": 5764,
      "Day</w>": 5765,
      "ForFile</w>": 5766,
      "aryId</w>": 5767,
      "Reco": 5768,
      "Generated": 5769,
      "Changed": 5770,
      "eded</w>": 5771,
      "indent": 5772,
      "Step": 5773,
      "Syntax": 5774,
      "expr": 5775,
      "usage": 5776,
      "esiz": 5777,
      "getInitializ": 5778,
      "Updat": 5779,
      "ple": 5780,
      "ENTITY_CACHE_ENABLED</w>": 5781,
      "GH": 5782,
      "ActionManager</w>": 5783,
      "Help": 5784,
      "EmailAddress</w>": 5785,
      "isNot": 5786,
      "ME": 5787,
      "determin": 5788,
      "Extern": 5789,
      "Graph</w>": 5790,
      "Contents</w>": 5791,
      "Directories</w>": 5792,
      "Sets</w>": 5793,
      "Bar": 5794,
      "address": 5795,
      "Criteria</w>": 5796,
      "_column": 5797,
      "Peri": 5798,
      "Working": 5799,
      "sical": 5800,
      "convertTo": 5801,
      "Zip": 5802,
      "Allowed</w>": 5803,
      "password</w>": 5804,
      "WorkflowConstants</w>": 5805,
      "Bucket": 5806,
      "GroupRole</w>": 5807,
      "alize</w>": 5808,
      "install": 5809,
      "side</w>": 5810,
      "ven": 5811,
      "tasks</w>": 5812,
      "Termin": 5813,
      "AssetTag": 5814,
      "ision</w>": 5815,
      "was": 5816,
      "cast</w>": 5817,
      "ason</w>": 5818,
      "used": 5819,
      "Handlers</w>": 5820,
      "Encoding</w>": 5821,
      "getAttributes</w>": 5822,
      "EntryImpl</w>": 5823,
      "comp</w>": 5824,
      "ExpandoBridge</w>": 5825,
      "ze</w>": 5826,
      "getEnd": 5827,
      "myType": 5828,
      "IndexableActionableDynamicQuery</w>": 5829,
      "substit": 5830,
      "lineNumber</w>": 5831,
      "sap": 5832,
      "edd": 5833,
      "LocalFileSystem</w>": 5834,
      "LINE</w>": 5835,
      "dynamic</w>": 5836,
      "getEditor": 5837,
      "ValuePair</w>": 5838,
      "ns": 5839,
      "Resolve</w>": 5840,
      "myModel</w>": 5841,
      "PortletId</w>": 5842,
      "Cle": 5843,
      "ORY_": 5844,
      "getCache": 5845,
      "CommandLine": 5846,
      "OF_": 5847,
      "serialize</w>": 5848,
      "Locator</w>": 5849,
      "CustomSQLUtil</w>": 5850,
      "myModule": 5851,
      "shoppingItem": 5852,
      "Tooltip</w>": 5853,
      "handle</w>": 5854,
      "checkArgument</w>": 5855,
      "BOOLE": 5856,
      "isEmptyOr": 5857,
      "getChar": 5858,
      "MODI": 5859,
      "SetId</w>": 5860,
      "STRING</w>": 5861,
      "sty": 5862,
      "setModel": 5863,
      "lavor</w>": 5864,
      "ling": 5865,
      "Support": 5866,
      "BlockBuilder</w>": 5867,
      "getCanonicalText</w>": 5868,
      "PP": 5869,
      "configurable</w>": 5870,
      "Hierarchy": 5871,
      "izedType</w>": 5872,
      "acing</w>": 5873,
      "escribe": 5874,
      "Brace</w>": 5875,
      "PRESS": 5876,
      "BAS": 5877,
      "descriptors</w>": 5878,
      "isEmptyOrSpaces</w>": 5879,
      "getRole": 5880,
      "choo": 5881,
      "net": 5882,
      "getN": 5883,
      "Locator": 5884,
      "record</w>": 5885,
      "RunConfiguration</w>": 5886,
      "MODULE_": 5887,
      "axb": 5888,
      "FACT": 5889,
      "getRequest": 5890,
      "transform</w>": 5891,
      "CU": 5892,
      "Breakpoint</w>": 5893,
      "gradle": 5894,
      "kaleoTaskAssignment": 5895,
      "This": 5896,
      "determine": 5897,
      "CHAR</w>": 5898,
      "db</w>": 5899,
      "getFileType</w>": 5900,
      "Recursi": 5901,
      "ContextName</w>": 5902,
      "calendarResource": 5903,
      "getBytes</w>": 5904,
      "isVisible</w>": 5905,
      "CalendarBooking</w>": 5906,
      "visit</w>": 5907,
      "typeName</w>": 5908,
      "complete": 5909,
      "increment": 5910,
      "Switch": 5911,
      "addElement</w>": 5912,
      "serviceReference</w>": 5913,
      "wait": 5914,
      "Sizes</w>": 5915,
      "cacheResult</w>": 5916,
      "InstanceTokenId</w>": 5917,
      "startElement</w>": 5918,
      "24</w>": 5919,
      "Over": 5920,
      "isRe": 5921,
      "hasMore": 5922,
      "SwingUtilities</w>": 5923,
      "AnonymousClass</w>": 5924,
      "ows</w>": 5925,
      "Runtime</w>": 5926,
      "Cancel": 5927,
      "ster</w>": 5928,
      "MENT</w>": 5929,
      "uler": 5930,
      "setBase": 5931,
      "etch</w>": 5932,
      "atable</w>": 5933,
      "GroupId_PrevAndNext</w>": 5934,
      "sUtil</w>": 5935,
      "eme</w>": 5936,
      "Opcodes</w>": 5937,
      "VisualPosition</w>": 5938,
      "MBCategory</w>": 5939,
      "POS</w>": 5940,
      "PyType</w>": 5941,
      "isPresent</w>": 5942,
      "Invo": 5943,
      "Generation": 5944,
      "Ag": 5945,
      "FF</w>": 5946,
      "getContext</w>": 5947,
      "getSession": 5948,
      "Present": 5949,
      "Push": 5950,
      "escape": 5951,
      "isInher": 5952,
      "VERSION_": 5953,
      "SCRIPT": 5954,
      "PAS": 5955,
      "slt": 5956,
      "booleanValue</w>": 5957,
      "Like": 5958,
      "Compati": 5959,
      "Intr": 5960,
      "identifier</w>": 5961,
      "ip</w>": 5962,
      "Offsets</w>": 5963,
      "contents</w>": 5964,
      "internal": 5965,
      "implement": 5966,
      "WARN": 5967,
      "OK": 5968,
      "App</w>": 5969,
      "RESOUR": 5970,
      "io</w>": 5971,
      "Drop": 5972,
      "getModifierList</w>": 5973,
      "Proto</w>": 5974,
      "Interface": 5975,
      "report": 5976,
      "newExpression</w>": 5977,
      "aPackage</w>": 5978,
      "getPosition": 5979,
      "StreamInput</w>": 5980,
      "Mode": 5981,
      "Projects</w>": 5982,
      "UserGroup</w>": 5983,
      "Actual": 5984,
      "SettingsProperties</w>": 5985,
      "MDRRuleGroup": 5986,
      "Sem": 5987,
      "term": 5988,
      "ere": 5989,
      "Tools</w>": 5990,
      "sProvider</w>": 5991,
      "referenceElement</w>": 5992,
      "tx": 5993,
      "Section</w>": 5994,
      "pop": 5995,
      "aries": 5996,
      "BAC": 5997,
      "getArgumentList</w>": 5998,
      "Providers</w>": 5999,
      "Dependencies": 6000,
      "double": 6001,
      "listener": 6002,
      "references</w>": 6003,
      "Del": 6004,
      "Old": 6005,
      "Ignored": 6006,
      "ELEMENT_": 6007,
      "strings</w>": 6008,
      "adjust": 6009,
      "Versions</w>": 6010,
      "ays": 6011,
      "Desc</w>": 6012,
      "ITY</w>": 6013,
      "box</w>": 6014,
      "Imports</w>": 6015,
      "JavaElementType</w>": 6016,
      "re</w>": 6017,
      "cription</w>": 6018,
      "myList</w>": 6019,
      "EvalContext</w>": 6020,
      "xml</w>": 6021,
      "ses</w>": 6022,
      "commit</w>": 6023,
      "Xslt": 6024,
      "getParameterTypes</w>": 6025,
      "ote": 6026,
      "art": 6027,
      "methodCallExpression</w>": 6028,
      "Externaliz": 6029,
      "HAS": 6030,
      "CRE": 6031,
      "Scalar": 6032,
      "Coordin": 6033,
      "itr</w>": 6034,
      "blocks</w>": 6035,
      "title": 6036,
      "pare</w>": 6037,
      "Based": 6038,
      "asc": 6039,
      "DLFolder": 6040,
      "isShow": 6041,
      "targetType</w>": 6042,
      "FIELD</w>": 6043,
      "ews</w>": 6044,
      "ALL_POS</w>": 6045,
      "AbstractType</w>": 6046,
      "GrStatement</w>": 6047,
      "HelperUtil</w>": 6048,
      "Xml</w>": 6049,
      "Formatter": 6050,
      "CONFIG": 6051,
      "Vertic": 6052,
      "short</w>": 6053,
      "Logg": 6054,
      "AndConfiguration": 6055,
      "ffect": 6056,
      "be</w>": 6057,
      "FALSE</w>": 6058,
      "SEPARATOR</w>": 6059,
      "PsiNamedElement</w>": 6060,
      "Wrapp": 6061,
      "CAT": 6062,
      "injected": 6063,
      "sto": 6064,
      "MODIFI": 6065,
      "assand": 6066,
      "Found</w>": 6067,
      "NonNull</w>": 6068,
      "Used": 6069,
      "Any": 6070,
      "shift": 6071,
      "getRepository": 6072,
      "VcsBundle</w>": 6073,
      "Sensi": 6074,
      "stag": 6075,
      "Clustering": 6076,
      "getField</w>": 6077,
      "helper</w>": 6078,
      "support": 6079,
      "Occ": 6080,
      "separator": 6081,
      "Macro": 6082,
      "Detector</w>": 6083,
      "locate</w>": 6084,
      "_result</w>": 6085,
      "ThreadLocal</w>": 6086,
      "partition</w>": 6087,
      "Profiles</w>": 6088,
      "number</w>": 6089,
      "AbstractTreeNode</w>": 6090,
      "fold": 6091,
      "defined": 6092,
      "getPlugin": 6093,
      "our</w>": 6094,
      "Strategy": 6095,
      "States</w>": 6096,
      "getModelAttributes</w>": 6097,
      "intersec": 6098,
      "Nanos</w>": 6099,
      "preferen": 6100,
      "Flush": 6101,
      "Constraint</w>": 6102,
      "DateTime": 6103,
      "estamp": 6104,
      "PLIC": 6105,
      "ManagerUtil</w>": 6106,
      "DOM": 6107,
      "bucket</w>": 6108,
      "Packages</w>": 6109,
      "cle</w>": 6110,
      "chunk": 6111,
      "FT</w>": 6112,
      "RunnerAndConfiguration": 6113,
      "CommandLine</w>": 6114,
      "AN_": 6115,
      "On</w>": 6116,
      "air": 6117,
      "MappingException</w>": 6118,
      "Jsp": 6119,
      "EG": 6120,
      "Bag</w>": 6121,
      "Exists</w>": 6122,
      "Interrup": 6123,
      "CONFIGUR": 6124,
      "getDefinition</w>": 6125,
      "getLanguage": 6126,
      "REMO": 6127,
      "compres": 6128,
      "Tombst": 6129,
      "obc</w>": 6130,
      "FromCache</w>": 6131,
      "parentCategoryId</w>": 6132,
      "setClassLoader</w>": 6133,
      "FileStatus</w>": 6134,
      "JournalFolder</w>": 6135,
      "uce": 6136,
      "userId": 6137,
      "setProperty</w>": 6138,
      "toSystem": 6139,
      "getMessage": 6140,
      "problem": 6141,
      "copyOf</w>": 6142,
      "umeric": 6143,
      "ful": 6144,
      "getContent</w>": 6145,
      "Logger": 6146,
      "Instances</w>": 6147,
      "moduleName</w>": 6148,
      "PropsKeys</w>": 6149,
      "TypeInfo</w>": 6150,
      "parseInt</w>": 6151,
      "ClusterState</w>": 6152,
      "tup": 6153,
      "Requests</w>": 6154,
      "Capability</w>": 6155,
      "SocialActivity</w>": 6156,
      "Initializer": 6157,
      "PrimitiveType</w>": 6158,
      "localQueryRunner</w>": 6159,
      "Wid": 6160,
      "GrClo": 6161,
      "Uri": 6162,
      "Contract</w>": 6163,
      "boo": 6164,
      "Cast</w>": 6165,
      "Dialog": 6166,
      "assertTh": 6167,
      "LayoutBranch</w>": 6168,
      "dependencies</w>": 6169,
      "Private": 6170,
      "batch": 6171,
      "mySelected": 6172,
      "fetchByC_": 6173,
      "interface": 6174,
      "Cf": 6175,
      "aces": 6176,
      "sav": 6177,
      "Compiler</w>": 6178,
      "Transport</w>": 6179,
      "Compaction": 6180,
      "priority</w>": 6181,
      "getPackage": 6182,
      "mallImage": 6183,
      "Jdbc": 6184,
      "CodeInsight": 6185,
      "Registrar</w>": 6186,
      "ready": 6187,
      "parsed": 6188,
      "DataException</w>": 6189,
      "Brace": 6190,
      "directory": 6191,
      "setPrimaryKey": 6192,
      "readString</w>": 6193,
      "cfs</w>": 6194,
      "Classpath</w>": 6195,
      "Keyboard": 6196,
      "queue</w>": 6197,
      "orizont": 6198,
      "bound</w>": 6199,
      "ImportStatement</w>": 6200,
      "XmlElement": 6201,
      "isNew</w>": 6202,
      "Dr": 6203,
      "Loo": 6204,
      "getA": 6205,
      "Places</w>": 6206,
      "builder": 6207,
      "Shift</w>": 6208,
      "getLocale</w>": 6209,
      "ExportImportConfiguration</w>": 6210,
      "WithDynamicQuery</w>": 6211,
      "plan": 6212,
      "WikiPage": 6213,
      "tName</w>": 6214,
      "Add</w>": 6215,
      "assertThat</w>": 6216,
      "getDescriptor</w>": 6217,
      "BeanName</w>": 6218,
      "CLASS</w>": 6219,
      "Storage</w>": 6220,
      "setBaseLocalService</w>": 6221,
      "getLastPathComponent</w>": 6222,
      "exp</w>": 6223,
      "findFileBy": 6224,
      "setModelClass</w>": 6225,
      "setPrimaryKeyPropertyName</w>": 6226,
      "CENTER</w>": 6227,
      "ilt": 6228,
      "myHolder</w>": 6229,
      "UniqueFinder": 6230,
      "UniqueFindersCache</w>": 6231,
      "struction": 6232,
      "vileg": 6233,
      "Company</w>": 6234,
      "TIME": 6235,
      "InBytes</w>": 6236,
      "ext": 6237,
      "setUuid</w>": 6238,
      "location": 6239,
      "Tokenizer</w>": 6240,
      "Rename": 6241,
      "TU": 6242,
      "NULL</w>": 6243,
      "oog": 6244,
      "Var</w>": 6245,
      "containing": 6246,
      "XmlTokenType</w>": 6247,
      "Bucket</w>": 6248,
      "getCal": 6249,
      "Asp": 6250,
      "Binary</w>": 6251,
      "exit": 6252,
      "getCustom": 6253,
      "BookmarksFolder</w>": 6254,
      "getQualifier": 6255,
      "Choice</w>": 6256,
      "Archive": 6257,
      "FileType": 6258,
      "STRING_": 6259,
      "filterFindByG_": 6260,
      "Indices</w>": 6261,
      "Announcements": 6262,
      "createExpression": 6263,
      "Incre": 6264,
      "graph": 6265,
      "BOOLEAN</w>": 6266,
      "Mailing": 6267,
      "wer</w>": 6268,
      "candidate": 6269,
      "attach": 6270,
      "myRoot": 6271,
      "Interfaces</w>": 6272,
      "CellRenderer</w>": 6273,
      "ix": 6274,
      "TON</w>": 6275,
      "ssible": 6276,
      "nested": 6277,
      "leaf</w>": 6278,
      "StringHelper</w>": 6279,
      "ioe</w>": 6280,
      "job": 6281,
      "persistence": 6282,
      "SSTableReader</w>": 6283,
      "inal": 6284,
      "PyNames</w>": 6285,
      "jndi": 6286,
      "OP": 6287,
      "getConfiguration</w>": 6288,
      "getTask": 6289,
      "ContentRevision</w>": 6290,
      "vy": 6291,
      "InElement</w>": 6292,
      "PsiReference": 6293,
      "ENTR": 6294,
      "Gutter": 6295,
      "Groovy</w>": 6296,
      "getScope</w>": 6297,
      "GrVariable</w>": 6298,
      "Lifecy": 6299,
      "Admin": 6300,
      "endpoint": 6301,
      "StreamReader</w>": 6302,
      "Sequence": 6303,
      "getModifiers</w>": 6304,
      "SETT": 6305,
      "HighlightInfo": 6306,
      "esizedExpression</w>": 6307,
      "RemoteProto</w>": 6308,
      "ffected": 6309,
      "tstr": 6310,
      "MultiMap</w>": 6311,
      "extension": 6312,
      "maybe": 6313,
      "ICO": 6314,
      "myP": 6315,
      "ock": 6316,
      "General": 6317,
      "orderBy": 6318,
      "acer</w>": 6319,
      "MetaData": 6320,
      "ability": 6321,
      "found</w>": 6322,
      "groups</w>": 6323,
      "verify": 6324,
      "Scan": 6325,
      "RangeMarker</w>": 6326,
      "TypeElement</w>": 6327,
      "methodCall</w>": 6328,
      "Words</w>": 6329,
      "getW": 6330,
      "FIL": 6331,
      "EventType</w>": 6332,
      "VK_": 6333,
      "OP_": 6334,
      "FOL": 6335,
      "Accessible</w>": 6336,
      "ks</w>": 6337,
      "blogsEntry</w>": 6338,
      "getOrder": 6339,
      "missing": 6340,
      "ImplUtil</w>": 6341,
      "Up</w>": 6342,
      "MBean": 6343,
      "adic": 6344,
      "direct</w>": 6345,
      "Membership": 6346,
      "PsiArrayType</w>": 6347,
      "trim": 6348,
      "Endpoint</w>": 6349,
      "GroovyResolveResult</w>": 6350,
      "getLineNumber</w>": 6351,
      "RunnerAndConfigurationSettings</w>": 6352,
      "ee</w>": 6353,
      "getCollection": 6354,
      "counter</w>": 6355,
      "ERROR_": 6356,
      "GroupRole": 6357,
      "EditorColor": 6358,
      "XS": 6359,
      "application": 6360,
      "Props</w>": 6361,
      "_service</w>": 6362,
      "Many": 6363,
      "Presto": 6364,
      "Open</w>": 6365,
      "nse": 6366,
      "RepositoryId</w>": 6367,
      "nsee</w>": 6368,
      "putAll</w>": 6369,
      "Statistics": 6370,
      "myResult</w>": 6371,
      "Chooser</w>": 6372,
      "Hints</w>": 6373,
      "Ipn": 6374,
      "ending</w>": 6375,
      "Ipnb": 6376,
      "sException</w>": 6377,
      "Annotated": 6378,
      "tableHandle</w>": 6379,
      "layoutSetBranchId</w>": 6380,
      "getInter": 6381,
      "EQU": 6382,
      "asset</w>": 6383,
      "IND": 6384,
      "MavenProject": 6385,
      "Clic": 6386,
      "parserContext</w>": 6387,
      "getLocalName</w>": 6388,
      "DescriptorImpl</w>": 6389,
      "Account</w>": 6390,
      "Highlighting": 6391,
      "Three": 6392,
      "getMemb": 6393,
      "label": 6394,
      "Distribu": 6395,
      "Write</w>": 6396,
      "fu": 6397,
      "Prop": 6398,
      "BackgroundTask</w>": 6399,
      "sable": 6400,
      "ingModel</w>": 6401,
      "print</w>": 6402,
      "before</w>": 6403,
      "CONTEXT_": 6404,
      "sifi": 6405,
      "MD</w>": 6406,
      "wikiPage": 6407,
      "failure</w>": 6408,
      "Modules</w>": 6409,
      "DOUBLE</w>": 6410,
      "refs</w>": 6411,
      "Discussion": 6412,
      "LocalVariable</w>": 6413,
      "getRaw": 6414,
      "flush": 6415,
      "anch</w>": 6416,
      "branch</w>": 6417,
      "EXPRESS": 6418,
      "InjectionSource</w>": 6419,
      "RegistryUtil</w>": 6420,
      "PortletPreferences": 6421,
      "Appl": 6422,
      "scheme</w>": 6423,
      "policy</w>": 6424,
      "getMethodExpression</w>": 6425,
      "Inheritance": 6426,
      "RIGH": 6427,
      "Depth</w>": 6428,
      "Finis": 6429,
      "Prepared": 6430,
      "Trash</w>": 6431,
      "tific": 6432,
      "SELECT": 6433,
      "operation": 6434,
      "Members</w>": 6435,
      "ChildNode</w>": 6436,
      "operand": 6437,
      "Unknown": 6438,
      "static": 6439,
      "MethodCall</w>": 6440,
      "assetEntry</w>": 6441,
      "ControlFlow": 6442,
      "myTree": 6443,
      "ByteCode": 6444,
      "lush</w>": 6445,
      "Alignment</w>": 6446,
      "HEA": 6447,
      "getCause</w>": 6448,
      "existing</w>": 6449,
      "que</w>": 6450,
      "Delivery</w>": 6451,
      "KeyStroke</w>": 6452,
      "descriptionMap</w>": 6453,
      "Folders</w>": 6454,
      "ab</w>": 6455,
      "PathElement</w>": 6456,
      "numberOf": 6457,
      "IL_": 6458,
      "myVcs</w>": 6459,
      "Decl</w>": 6460,
      "Transition</w>": 6461,
      "ReturnStatement</w>": 6462,
      "'\\": 6463,
      "_type</w>": 6464,
      "case": 6465,
      "getQuery": 6466,
      "popup</w>": 6467,
      "bottom</w>": 6468,
      "PsiAnonymousClass</w>": 6469,
      "getTreeParent</w>": 6470,
      "Jar</w>": 6471,
      "tool</w>": 6472,
      "Allocator</w>": 6473,
      "ources": 6474,
      "Title": 6475,
      "ClassNotFoundException</w>": 6476,
      "avor": 6477,
      "requireNonNull</w>": 6478,
      "MenuItem</w>": 6479,
      "SAPEntry</w>": 6480,
      "configure</w>": 6481,
      "getPortletId</w>": 6482,
      "ReadOnly</w>": 6483,
      "annotationType</w>": 6484,
      "Artifacts</w>": 6485,
      "props</w>": 6486,
      "plugin</w>": 6487,
      "Suffix</w>": 6488,
      "Integ": 6489,
      "PortletDataHandler": 6490,
      "e1</w>": 6491,
      "shard</w>": 6492,
      "Endpoints</w>": 6493,
      "HTT": 6494,
      "Implicit": 6495,
      "Preferred": 6496,
      "COLON</w>": 6497,
      "TRANS": 6498,
      "screen": 6499,
      "sib": 6500,
      "live": 6501,
      "closure</w>": 6502,
      "RuleGroup</w>": 6503,
      "schedule": 6504,
      "conflicts</w>": 6505,
      "myTable</w>": 6506,
      "Matches</w>": 6507,
      "predicate</w>": 6508,
      "done</w>": 6509,
      "adoc": 6510,
      "dri": 6511,
      "Insn</w>": 6512,
      "LocaleUtil</w>": 6513,
      "STRU": 6514,
      "JMS": 6515,
      "TypeConversionUtil</w>": 6516,
      "company</w>": 6517,
      "Fragments</w>": 6518,
      "backgroundTask": 6519,
      "Writable</w>": 6520,
      "ConnectorSession</w>": 6521,
      "retrieveFromCache</w>": 6522,
      "render</w>": 6523,
      "lee</w>": 6524,
      "addTo": 6525,
      "Discussion</w>": 6526,
      "env</w>": 6527,
      "deli": 6528,
      "ldap": 6529,
      "stack": 6530,
      "Score": 6531,
      "push</w>": 6532,
      "Ann</w>": 6533,
      "MESS": 6534,
      "Async": 6535,
      "PropertyValue</w>": 6536,
      "MavenProject</w>": 6537,
      "moveTo": 6538,
      "OPER": 6539,
      "Parameters": 6540,
      "symbol</w>": 6541,
      "DIRE": 6542,
      "getResolve": 6543,
      "VO": 6544,
      "WorkflowDefinition": 6545,
      "substitute</w>": 6546,
      "emailAddress": 6547,
      "sequ": 6548,
      "Templates</w>": 6549,
      "baseDir</w>": 6550,
      "isNotEmpty</w>": 6551,
      "mouse": 6552,
      "drop": 6553,
      "diff": 6554,
      "access</w>": 6555,
      "Processor": 6556,
      "fq": 6557,
      "createExpressionFromText</w>": 6558,
      "Lines": 6559,
      "CHAR": 6560,
      "ear": 6561,
      "enumer": 6562,
      "Rules</w>": 6563,
      "meta": 6564,
      "getFont": 6565,
      "BLOC": 6566,
      "NU": 6567,
      "Processing": 6568,
      "ClassName": 6569,
      "compo": 6570,
      "jdbc": 6571,
      "ATTRIBUTE</w>": 6572,
      "Substitu": 6573,
      "Area": 6574,
      "aster</w>": 6575,
      "duplic": 6576,
      "Len</w>": 6577,
      "XContentParser</w>": 6578,
      "FS": 6579,
      "getLocation</w>": 6580,
      "PsiModifier": 6581,
      "getByG_": 6582,
      "getOperand</w>": 6583,
      "Down</w>": 6584,
      "ecked</w>": 6585,
      "DESCRIPT": 6586,
      "Ballo": 6587,
      "airs</w>": 6588,
      "Resolv": 6589,
      "ned": 6590,
      "JO": 6591,
      "HAN": 6592,
      "ertific": 6593,
      "mimeType</w>": 6594,
      "PsiAssignmentExpression</w>": 6595,
      "getInteger</w>": 6596,
      "InfoImpl</w>": 6597,
      "targets</w>": 6598,
      "NodeImpl</w>": 6599,
      "readVInt</w>": 6600,
      "Evaluate": 6601,
      "getPositionCount</w>": 6602,
      "PsiJavaFile</w>": 6603,
      "Mac": 6604,
      "imported": 6605,
      "Timeout": 6606,
      "dot": 6607,
      "need": 6608,
      "userGroup</w>": 6609,
      "PsiLiteralExpression</w>": 6610,
      "getScroll": 6611,
      "ContentType</w>": 6612,
      "myClass</w>": 6613,
      "Urls</w>": 6614,
      "Schedule": 6615,
      "progress": 6616,
      "SIG": 6617,
      "getQualifierExpression</w>": 6618,
      "Analysis": 6619,
      "ename</w>": 6620,
      "getFull": 6621,
      "Privileg": 6622,
      "insert</w>": 6623,
      "ComponentDescription</w>": 6624,
      "stream": 6625,
      "Span</w>": 6626,
      "Factories</w>": 6627,
      "ards</w>": 6628,
      "PARENT_": 6629,
      "AsString</w>": 6630,
      "ped": 6631,
      "Identity": 6632,
      "Registration": 6633,
      "Candidate": 6634,
      "refer": 6635,
      "getSp": 6636,
      "getBuild": 6637,
      "uture": 6638,
      "SINGLE": 6639,
      "Mutation</w>": 6640,
      "getToken": 6641,
      "operator</w>": 6642,
      "parameterTypes</w>": 6643,
      "Shown</w>": 6644,
      "Raw</w>": 6645,
      "UT</w>": 6646,
      "getScopeGroupId</w>": 6647,
      "WARNING</w>": 6648,
      "DeploymentProcessor</w>": 6649,
      "findClass</w>": 6650,
      "Tables</w>": 6651,
      "AF": 6652,
      "final": 6653,
      "weight": 6654,
      "mvccVersion</w>": 6655,
      "Family": 6656,
      "ticsearch": 6657,
      "FIELD_": 6658,
      "getResource</w>": 6659,
      "irror": 6660,
      "S_Last</w>": 6661,
      "Information</w>": 6662,
      "getter</w>": 6663,
      "putUserData</w>": 6664,
      "ome": 6665,
      "Chooser": 6666,
      "yperlink": 6667,
      "iprot</w>": 6668,
      "om</w>": 6669,
      "SystemId</w>": 6670,
      "den</w>": 6671,
      "PersistedModel</w>": 6672,
      "Design": 6673,
      "ALI": 6674,
      "depth</w>": 6675,
      "Extrac": 6676,
      "isAnnotation": 6677,
      "PortletKeys</w>": 6678,
      "DataSource": 6679,
      "Presentation": 6680,
      "mySh": 6681,
      "Exceptions</w>": 6682,
      "consistency": 6683,
      "junction</w>": 6684,
      "nowIn": 6685,
      "PasswordPolicy": 6686,
      "MBThread": 6687,
      "Tail": 6688,
      "Api": 6689,
      "getReferenceName</w>": 6690,
      "include</w>": 6691,
      "cover": 6692,
      "ParseException</w>": 6693,
      "ImmutableSet</w>": 6694,
      "RefactoringUtil</w>": 6695,
      "simple": 6696,
      "ulk": 6697,
      "Indexes</w>": 6698,
      "push": 6699,
      "Outer": 6700,
      "gram": 6701,
      "Condition": 6702,
      "Suggest": 6703,
      "PsiExpressionList</w>": 6704,
      "DataProviderInstance</w>": 6705,
      "UNKNOWN</w>": 6706,
      "Discovery": 6707,
      "ET_": 6708,
      "GEN": 6709,
      "rid</w>": 6710,
      "iddle": 6711,
      "CONTENT_": 6712,
      "binaryExpression</w>": 6713,
      "Toolbar</w>": 6714,
      "ownerType</w>": 6715,
      "edge</w>": 6716,
      "vocabularyId</w>": 6717,
      "addAttribute</w>": 6718,
      "organization": 6719,
      "GroovyPsiElementFactory</w>": 6720,
      "Convert": 6721,
      "getH": 6722,
      "getChildren": 6723,
      "CellRenderer": 6724,
      "ByteBuffer": 6725,
      "GroovyFile</w>": 6726,
      "_columnBitmask</w>": 6727,
      "Dum": 6728,
      "vs</w>": 6729,
      "Sec</w>": 6730,
      "MediaType</w>": 6731,
      "Sin": 6732,
      "findWithDynamicQuery</w>": 6733,
      "OBJECT</w>": 6734,
      "getOperationTokenType</w>": 6735,
      "ListModel</w>": 6736,
      "ENC": 6737,
      "SET_": 6738,
      "adicExpression</w>": 6739,
      "sEntryModelImpl</w>": 6740,
      "getPrev": 6741,
      "team": 6742,
      "Introd": 6743,
      "QL": 6744,
      "Positions</w>": 6745,
      "LON": 6746,
      "OpenFile": 6747,
      "signee": 6748,
      "KaleoTaskAssignment": 6749,
      "PyTokenTypes</w>": 6750,
      "Tabbed": 6751,
      "POSIT": 6752,
      "grid": 6753,
      "diff</w>": 6754,
      "Controller": 6755,
      "Neg": 6756,
      "getLastElement</w>": 6757,
      "INT": 6758,
      "paramName</w>": 6759,
      "Multiple": 6760,
      "Aggregation": 6761,
      "Decorator</w>": 6762,
      "Pom": 6763,
      "ify</w>": 6764,
      "GrTypeDefinition</w>": 6765,
      "ITER": 6766,
      "firm": 6767,
      "nameMap</w>": 6768,
      "Ancestor": 6769,
      "Contexts</w>": 6770,
      "InterruptedException</w>": 6771,
      "environ": 6772,
      "vers": 6773,
      "EXTEN": 6774,
      "Ret": 6775,
      "Recei": 6776,
      "GROUP</w>": 6777,
      "Fields": 6778,
      "deleg": 6779,
      "ryp": 6780,
      "Formul": 6781,
      "XML</w>": 6782,
      "Equivalent</w>": 6783,
      "accepts</w>": 6784,
      "TException</w>": 6785,
      "ManagerFactory</w>": 6786,
      "TABLE_": 6787,
      "PsiModifierListOwner</w>": 6788,
      "Transfer": 6789,
      "MODULE</w>": 6790,
      "assignment": 6791,
      "Screen": 6792,
      "myDefault": 6793,
      "dialect</w>": 6794,
      "BackgroundTask": 6795,
      "connectorId</w>": 6796,
      "Jdk</w>": 6797,
      "Qualifier</w>": 6798,
      "showError": 6799,
      "shall": 6800,
      "VIEW</w>": 6801,
      "PortletResponse</w>": 6802,
      "FACTORY</w>": 6803,
      "JDOM": 6804,
      "Comparison": 6805,
      "ected</w>": 6806,
      "additional": 6807,
      "FocusManager</w>": 6808,
      "Adapter": 6809,
      "kaleoDefinitionId</w>": 6810,
      "paramType</w>": 6811,
      "single": 6812,
      "managed": 6813,
      "getTime</w>": 6814,
      "LinkedList</w>": 6815,
      "OutOf": 6816,
      "Rank": 6817,
      "Branches</w>": 6818,
      "mt</w>": 6819,
      "newArray</w>": 6820,
      "PyCallExpression</w>": 6821,
      "resolver</w>": 6822,
      "PUBLIC</w>": 6823,
      "ResourceBundle</w>": 6824,
      "Abs": 6825,
      "udy": 6826,
      "getObject</w>": 6827,
      "UND</w>": 6828,
      "Sorted": 6829,
      "getCli": 6830,
      "Authentication": 6831,
      "FINAL</w>": 6832,
      "DirName</w>": 6833,
      "READ_": 6834,
      "AssetVocabulary</w>": 6835,
      "clearUniqueFindersCache</w>": 6836,
      "avorite": 6837,
      "ere</w>": 6838,
      "0xff</w>": 6839,
      "Replic": 6840,
      "getThread": 6841,
      "Concurrent": 6842,
      "oldValue</w>": 6843,
      "requ": 6844,
      "getPlid</w>": 6845,
      "ParenthesizedExpression</w>": 6846,
      "Tab</w>": 6847,
      "visible</w>": 6848,
      "columnIndex</w>": 6849,
      "GENER": 6850,
      "ksName</w>": 6851,
      "sessionId</w>": 6852,
      "PropertiesFile</w>": 6853,
      "requestFocus</w>": 6854,
      "thread</w>": 6855,
      "Setter</w>": 6856,
      "WHIT": 6857,
      "isTrace": 6858,
      "unmodifiable": 6859,
      "ified</w>": 6860,
      "Feed</w>": 6861,
      "wrappedModel</w>": 6862,
      "toUnwrappedModel</w>": 6863,
      "clusi": 6864,
      "getReference</w>": 6865,
      "myData</w>": 6866,
      "START_": 6867,
      "ric": 6868,
      "PyTarget": 6869,
      "UTF": 6870,
      "getByUuid_": 6871,
      "LayoutBranch": 6872,
      "Scheme": 6873,
      "PersistenceUnit": 6874,
      "column_": 6875,
      "DeletionTime</w>": 6876,
      "Raw": 6877,
      "part</w>": 6878,
      "2_": 6879,
      "RegExp": 6880,
      "getRight": 6881,
      "passwordPolicy": 6882,
      "del": 6883,
      "removeAll</w>": 6884,
      "Accessor": 6885,
      "Users</w>": 6886,
      "Comments</w>": 6887,
      "CURR": 6888,
      "button</w>": 6889,
      "Cod": 6890,
      "accept": 6891,
      "Compil": 6892,
      "Principal": 6893,
      "IdeBundle</w>": 6894,
      "lus</w>": 6895,
      "FileTypes</w>": 6896,
      "LockMode</w>": 6897,
      "Toolbar": 6898,
      "elta": 6899,
      "EjbLogger</w>": 6900,
      "getShort": 6901,
      "Read</w>": 6902,
      "parentNode</w>": 6903,
      "HighlightType</w>": 6904,
      "KEYWORD</w>": 6905,
      "PrestoException</w>": 6906,
      "Association": 6907,
      "NotificationTemplate": 6908,
      "Fixed": 6909,
      "Used</w>": 6910,
      "ges</w>": 6911,
      "erClass</w>": 6912,
      "Declarations</w>": 6913,
      "Classes": 6914,
      "sScheme</w>": 6915,
      "Keyword": 6916,
      "Variants</w>": 6917,
      "superMethod</w>": 6918,
      "translate</w>": 6919,
      "getExpressions</w>": 6920,
      "Tempor": 6921,
      "Comparison</w>": 6922,
      "DOC_": 6923,
      "Dirty": 6924,
      "Encoding": 6925,
      "UND_": 6926,
      "tableId</w>": 6927,
      "hits</w>": 6928,
      "ACTI": 6929,
      "Parenthes": 6930,
      "exceptions</w>": 6931,
      "getPartition": 6932,
      "BytesRef</w>": 6933,
      "getViewProvider</w>": 6934,
      "PsiComment</w>": 6935,
      "escapedModel</w>": 6936,
      "eni": 6937,
      "subsystem</w>": 6938,
      "PACK": 6939,
      "Io": 6940,
      "getOwner": 6941,
      "ressed": 6942,
      "History</w>": 6943,
      "stop</w>": 6944,
      "Audi": 6945,
      "part": 6946,
      "journalContent": 6947,
      "UserNotificationEvent</w>": 6948,
      "CEPT": 6949,
      "pending": 6950,
      "repaint</w>": 6951,
      "white": 6952,
      "elem</w>": 6953,
      "mbThread</w>": 6954,
      "ReadWrite": 6955,
      "lback": 6956,
      "myText</w>": 6957,
      "getRange": 6958,
      "Holder": 6959,
      "Job": 6960,
      "payload</w>": 6961,
      "getDom": 6962,
      "Calc</w>": 6963,
      "VariableGroup</w>": 6964,
      "longValue</w>": 6965,
      "ffective": 6966,
      "Insert</w>": 6967,
      "Chunk": 6968,
      "LinkImpl</w>": 6969,
      "symbol": 6970,
      "vc": 6971,
      "Rendering": 6972,
      "lobal</w>": 6973,
      "Sq": 6974,
      "primary</w>": 6975,
      "isTraceEnabled</w>": 6976,
      "TemplateResource</w>": 6977,
      "Segment</w>": 6978,
      "PROPERTY</w>": 6979,
      "creen</w>": 6980,
      "Callable</w>": 6981,
      "reshold</w>": 6982,
      "C_Last</w>": 6983,
      "COR": 6984,
      "LookupElement": 6985,
      "lexer</w>": 6986,
      "OK</w>": 6987,
      "WA": 6988,
      "sType</w>": 6989,
      "Run</w>": 6990,
      "listeners</w>": 6991,
      "UuidAnd": 6992,
      "getBounds</w>": 6993,
      "ector": 6994,
      "Docs</w>": 6995,
      "scop": 6996,
      "urls</w>": 6997,
      "100": 6998,
      "Gap</w>": 6999,
      "Zone": 7000,
      "addContent</w>": 7001,
      "resourceBundle</w>": 7002,
      "children": 7003,
      "UTF</w>": 7004,
      "SUP": 7005,
      "Vote": 7006,
      "oto": 7007,
      "breakpoint</w>": 7008,
      "invalid": 7009,
      "charset</w>": 7010,
      "PORTLET_": 7011,
      "XMLStreamException</w>": 7012,
      "SAX": 7013,
      "interfaces</w>": 7014,
      "SINGLETON</w>": 7015,
      "findChildByType</w>": 7016,
      "icode": 7017,
      "JSON</w>": 7018,
      "Ct": 7019,
      "Socket</w>": 7020,
      "qPos</w>": 7021,
      "TIME_": 7022,
      "SERVICE_NAME</w>": 7023,
      "restric": 7024,
      "Aggregation</w>": 7025,
      "orization": 7026,
      "factory": 7027,
      "rowIndex</w>": 7028,
      "jet": 7029,
      "getDescrip": 7030,
      "getRelative": 7031,
      "AssertionError</w>": 7032,
      "Period</w>": 7033,
      "SystemItem</w>": 7034,
      "calendarBooking": 7035,
      "sBuilder</w>": 7036,
      "Nullable": 7037,
      "S_First</w>": 7038,
      "cacheName</w>": 7039,
      "LayoutSetBranch": 7040,
      "VERSION</w>": 7041,
      "filterGetByG_": 7042,
      "exclude": 7043,
      "Site</w>": 7044,
      "DiffRequest</w>": 7045,
      "References": 7046,
      "EventListener</w>": 7047,
      "DATA</w>": 7048,
      "analyzer</w>": 7049,
      "LLI": 7050,
      "EXP": 7051,
      "Advis": 7052,
      "getArtifact": 7053,
      "color": 7054,
      "HighlightInfoType</w>": 7055,
      "Ids": 7056,
      "GitRepository</w>": 7057,
      "describe": 7058,
      "hint</w>": 7059,
      "FileEditor</w>": 7060,
      "Rank</w>": 7061,
      "myDelegate</w>": 7062,
      "hint": 7063,
      "Body": 7064,
      "Snapshot</w>": 7065,
      "tten": 7066,
      "Channels</w>": 7067,
      "constructor": 7068,
      "SCOPE_": 7069,
      "umul": 7070,
      "details</w>": 7071,
      "Str</w>": 7072,
      "MILLI": 7073,
      "getAction</w>": 7074,
      "merged": 7075,
      "Simp": 7076,
      "ServiceReference</w>": 7077,
      "VM": 7078,
      "fixes</w>": 7079,
      "OrderRootType</w>": 7080,
      "componentType</w>": 7081,
      "Ban</w>": 7082,
      "ited": 7083,
      "Console</w>": 7084,
      "Optim": 7085,
      "Chain": 7086,
      "Rename</w>": 7087,
      "lay": 7088,
      "cessed</w>": 7089,
      "Deployment</w>": 7090,
      "getList": 7091,
      "templateId</w>": 7092,
      "Summary</w>": 7093,
      "nouncement": 7094,
      "okie</w>": 7095,
      "RESOURCE_": 7096,
      "Chars</w>": 7097,
      "USER_": 7098,
      "layoutSetPrototype": 7099,
      "Month</w>": 7100,
      "CellRendererComponent</w>": 7101,
      "removeBy": 7102,
      "Candidate</w>": 7103,
      "debugf</w>": 7104,
      "cl</w>": 7105,
      "ByteBufferUtil</w>": 7106,
      "Override": 7107,
      "DataNode</w>": 7108,
      "Interval": 7109,
      "associ": 7110,
      "Choice": 7111,
      "elementTo": 7112,
      "Refs</w>": 7113,
      "lot</w>": 7114,
      "PyReferenceExpression</w>": 7115,
      "portletPreferences": 7116,
      "digest</w>": 7117,
      "_service": 7118,
      "cmd</w>": 7119,
      "sFrom": 7120,
      "Menu</w>": 7121,
      "urrent</w>": 7122,
      "Events</w>": 7123,
      "Environment": 7124,
      "slice": 7125,
      "ServletRequest</w>": 7126,
      "filtered</w>": 7127,
      "IMPORT_": 7128,
      "Section": 7129,
      "getTextOffset</w>": 7130,
      "REGUL": 7131,
      "nouncementsEntry</w>": 7132,
      "tual</w>": 7133,
      "Weld": 7134,
      "mit": 7135,
      "chunk</w>": 7136,
      "Implementation</w>": 7137,
      "DELETE</w>": 7138,
      "injection": 7139,
      "routing": 7140,
      "EE": 7141,
      "getTime": 7142,
      "PRIV": 7143,
      "toUpperCase</w>": 7144,
      "arr</w>": 7145,
      "__equals": 7146,
      "__equalsCalc</w>": 7147,
      "processor": 7148,
      "fied": 7149,
      "ddmTemplate</w>": 7150,
      "tags</w>": 7151,
      "vely</w>": 7152,
      "OUT": 7153,
      "nextElement</w>": 7154,
      "BIG": 7155,
      "the": 7156,
      "SYN": 7157,
      "Keymap": 7158,
      "getCon": 7159,
      "crimin": 7160,
      "Question</w>": 7161,
      "Browser</w>": 7162,
      "FileVersion</w>": 7163,
      "INDEX_": 7164,
      "diction": 7165,
      "getEntityName</w>": 7166,
      "Windows</w>": 7167,
      "addService</w>": 7168,
      "ShoppingItem": 7169,
      "irror</w>": 7170,
      "Explicit": 7171,
      "Converter": 7172,
      "ReadOnly": 7173,
      "Inspection</w>": 7174,
      "getSecond</w>": 7175,
      "invocation</w>": 7176,
      "optional": 7177,
      "ponses</w>": 7178,
      "calendarBooking</w>": 7179,
      "getLibrary": 7180,
      "erFactory</w>": 7181,
      "acc": 7182,
      "toXContent</w>": 7183,
      "isEntity": 7184,
      "generic": 7185,
      "ek": 7186,
      "serviceRegistry</w>": 7187,
      "JBo": 7188,
      "Points</w>": 7189,
      "RequestBuilder</w>": 7190,
      "LanguageIds</w>": 7191,
      "getTotal": 7192,
      "lhs": 7193,
      "VfsUtilCore</w>": 7194,
      "DEFAULT_PARENT_": 7195,
      "TEM": 7196,
      "atis": 7197,
      "DEFIN": 7198,
      "LayoutSetPrototype</w>": 7199,
      "getQualifier</w>": 7200,
      "wer": 7201,
      "getImport": 7202,
      "PsiPrimitiveType</w>": 7203,
      "err</w>": 7204,
      "getCached": 7205,
      "TypeEvalContext</w>": 7206,
      "kaleoTimer": 7207,
      "brains</w>": 7208,
      "Checked": 7209,
      "jetbrains</w>": 7210,
      "_name</w>": 7211,
      "Functions</w>": 7212,
      "Views</w>": 7213,
      "Links</w>": 7214,
      "switch": 7215,
      "Conflict": 7216,
      "Duplicate": 7217,
      "Aut": 7218,
      "loy</w>": 7219,
      "getParentFile</w>": 7220,
      "descriptor": 7221,
      "displayDate</w>": 7222,
      "future</w>": 7223,
      "agr": 7224,
      "uri": 7225,
      "scale</w>": 7226,
      "rule</w>": 7227,
      "C_First</w>": 7228,
      "Capacity</w>": 7229,
      "gb": 7230,
      "now</w>": 7231,
      "WikiNode</w>": 7232,
      "PsiFormat": 7233,
      "SERVICE</w>": 7234,
      "OPTION_": 7235,
      "tagName</w>": 7236,
      "occurr": 7237,
      "renderResponse</w>": 7238,
      "Alph": 7239,
      "year</w>": 7240,
      "declaration</w>": 7241,
      "database": 7242,
      "soft": 7243,
      "ParameterizedType</w>": 7244,
      "Tuple</w>": 7245,
      "supports": 7246,
      "Pages</w>": 7247,
      "documentlibrary</w>": 7248,
      "BufferedReader</w>": 7249,
      "CacheKey</w>": 7250,
      "indices": 7251,
      "findFile</w>": 7252,
      "getCell": 7253,
      "Super</w>": 7254,
      "decor": 7255,
      "PsiTypeElement</w>": 7256,
      "score": 7257,
      "Org": 7258,
      "BEFOR": 7259,
      "NAME": 7260,
      "CalendarResource</w>": 7261,
      "CLU": 7262,
      "LY</w>": 7263,
      "cul": 7264,
      "myShow": 7265,
      "keyspaceName</w>": 7266,
      "GrParameter</w>": 7267,
      "ActionResponse</w>": 7268,
      "One</w>": 7269,
      "destro": 7270,
      "toolWindow</w>": 7271,
      "Inside": 7272,
      "29</w>": 7273,
      "conf</w>": 7274,
      "CastExpression</w>": 7275,
      "jbo": 7276,
      "Shap": 7277,
      "qname</w>": 7278,
      "sorted": 7279,
      "fileVersion</w>": 7280,
      "Disabled": 7281,
      "Staging": 7282,
      "Canceled</w>": 7283,
      "Complex": 7284,
      "addDeploymentProcessor</w>": 7285,
      "getCondition</w>": 7286,
      "GRA": 7287,
      "getField": 7288,
      "etwe": 7289,
      "Struct": 7290,
      "fixed": 7291,
      "DataManager</w>": 7292,
      "Finish": 7293,
      "getFolderId</w>": 7294,
      "prop</w>": 7295,
      "myText": 7296,
      "typed": 7297,
      "FileGroup</w>": 7298,
      "resultSet</w>": 7299,
      "escape</w>": 7300,
      "Digest</w>": 7301,
      "do</w>": 7302,
      "ColumnNames</w>": 7303,
      "Decim": 7304,
      "Bits</w>": 7305,
      "registerProblem</w>": 7306,
      "Ban": 7307,
      "comb": 7308,
      "Sensitive</w>": 7309,
      "road": 7310,
      "Exit": 7311,
      "FileRevision</w>": 7312,
      "IST": 7313,
      "Op</w>": 7314,
      "Stop": 7315,
      "PATTER": 7316,
      "dfa": 7317,
      "Terms": 7318,
      "propag": 7319,
      "ADDRES": 7320,
      "Comb": 7321,
      "BlockStatement</w>": 7322,
      "grade</w>": 7323,
      "bundleContext</w>": 7324,
      "WildcardType</w>": 7325,
      "rop</w>": 7326,
      "Day": 7327,
      "StructureId</w>": 7328,
      "callExpression</w>": 7329,
      "Deletion</w>": 7330,
      "RendererFactory</w>": 7331,
      "Renam": 7332,
      "INDEX</w>": 7333,
      "encode": 7334,
      "WebDAV": 7335,
      "sever": 7336,
      "layoutSet</w>": 7337,
      "cursor</w>": 7338,
      "formatter</w>": 7339,
      "Mime": 7340,
      "PA": 7341,
      "_in": 7342,
      "sPer": 7343,
      "throwable</w>": 7344,
      "kelet": 7345,
      "master": 7346,
      "EXTENS": 7347,
      "pages</w>": 7348,
      "less": 7349,
      "hasMoreElements</w>": 7350,
      "getPoint</w>": 7351,
      "terms</w>": 7352,
      "matched": 7353,
      "ulli": 7354,
      "COMMA</w>": 7355,
      "FINDER_PATH_FETCH_BY_UUID_G</w>": 7356,
      "VIR": 7357,
      "backgroundTask</w>": 7358,
      "ModelType</w>": 7359,
      "InstanceImpl</w>": 7360,
      "DLFileShortcut</w>": 7361,
      "Typed": 7362,
      "CHEC": 7363,
      "Delim": 7364,
      "subscription": 7365,
      "containerName</w>": 7366,
      "SQL_": 7367,
      "Separator": 7368,
      "getAsset": 7369,
      "Resolved": 7370,
      "ElementName</w>": 7371,
      "readInt</w>": 7372,
      "AGE</w>": 7373,
      "Dictionary</w>": 7374,
      "When": 7375,
      "getNamespace</w>": 7376,
      "myMap</w>": 7377,
      "edName</w>": 7378,
      "Dot": 7379,
      "startLine</w>": 7380,
      "FoldRegion</w>": 7381,
      "lasticsearch": 7382,
      "END</w>": 7383,
      "isInheritor</w>": 7384,
      "2d</w>": 7385,
      "0xFF</w>": 7386,
      "filterFindBy": 7387,
      "InputEvent</w>": 7388,
      "Numeric": 7389,
      "REQUE": 7390,
      "nexp": 7391,
      "Singleton": 7392,
      "idden</w>": 7393,
      "RequestImpl</w>": 7394,
      "variables</w>": 7395,
      "ddmFormField</w>": 7396,
      "ial": 7397,
      "isOn": 7398,
      "-=</w>": 7399,
      "VIRTU": 7400,
      "elseBranch</w>": 7401,
      "Pass</w>": 7402,
      "assandra": 7403,
      "Mem": 7404,
      "ways": 7405,
      "Report": 7406,
      "AttributeDefinition</w>": 7407,
      "CompanyId_PrevAndNext</w>": 7408,
      "Absent</w>": 7409,
      "vf</w>": 7410,
      "registerError</w>": 7411,
      "thenBranch</w>": 7412,
      "preferred": 7413,
      "EntityPersister</w>": 7414,
      "Arg": 7415,
      "PsiName": 7416,
      "PsiFileSystemItem</w>": 7417,
      "PLA": 7418,
      "RangeHighlighter</w>": 7419,
      "mem": 7420,
      "LAYOUT_": 7421,
      "setMvccVersion</w>": 7422,
      "myMatching": 7423,
      "LayoutPrototype</w>": 7424,
      "Supported": 7425,
      "c1</w>": 7426,
      "FileViewProvider</w>": 7427,
      "getLab": 7428,
      "Close</w>": 7429,
      "organizationId</w>": 7430,
      "BIGINT</w>": 7431,
      "og": 7432,
      "DataHandler</w>": 7433,
      "PluginDescriptor</w>": 7434,
      "publish": 7435,
      "expiration": 7436,
      "DLFileEntryType</w>": 7437,
      "Translator</w>": 7438,
      "Flavor</w>": 7439,
      "persistent": 7440,
      "offsetTo": 7441,
      "Nodes": 7442,
      "cfName</w>": 7443,
      "Mul": 7444,
      "inspection": 7445,
      "Parts</w>": 7446,
      "Couple</w>": 7447,
      "extra": 7448,
      "produc": 7449,
      "injector</w>": 7450,
      "Creator</w>": 7451,
      "getPersistence": 7452,
      "CODE</w>": 7453,
      "mappings</w>": 7454,
      "StagedModelType</w>": 7455,
      "isConstructor</w>": 7456,
      "work</w>": 7457,
      "PROX": 7458,
      "ADDR</w>": 7459,
      "FileName": 7460,
      "caretOffset</w>": 7461,
      "PASS": 7462,
      "createQuery</w>": 7463,
      "InstanceModelImpl</w>": 7464,
      "pk": 7465,
      "Refresh": 7466,
      "Theme": 7467,
      "parameterName</w>": 7468,
      "layoutPrototype": 7469,
      "converter</w>": 7470,
      "Closed</w>": 7471,
      "CH</w>": 7472,
      "edType</w>": 7473,
      "registrar</w>": 7474,
      "environment</w>": 7475,
      "LayoutFriendlyURL</w>": 7476,
      "month</w>": 7477,
      "Marshal": 7478,
      "unch": 7479,
      "atial": 7480,
      "WITHO": 7481,
      "persistence</w>": 7482,
      "WITHOUT_": 7483,
      "ROOT</w>": 7484,
      "getReferenced": 7485,
      "Atomic": 7486,
      "ActionPlaces</w>": 7487,
      "Equals": 7488,
      "AS_": 7489,
      "getValues</w>": 7490,
      "PermissionUtil</w>": 7491,
      "getChildCount</w>": 7492,
      "getTable</w>": 7493,
      "getSql": 7494,
      "groov": 7495,
      "100</w>": 7496,
      "getToken</w>": 7497,
      "myTarget": 7498,
      "STRUCT": 7499,
      "PsiModifierList</w>": 7500,
      "Study": 7501,
      "viewProvider</w>": 7502,
      "ediate": 7503,
      "link</w>": 7504,
      "definition": 7505,
      "getPackage</w>": 7506,
      "sn": 7507,
      "Backed": 7508,
      "JList</w>": 7509,
      "under": 7510,
      "Splitter</w>": 7511,
      "ca": 7512,
      "PathUtil</w>": 7513,
      "RefElement</w>": 7514,
      "PyTargetExpression</w>": 7515,
      "Elasticsearch": 7516,
      "app</w>": 7517,
      "EditorEx</w>": 7518,
      "facet</w>": 7519,
      "_level</w>": 7520,
      "Flow</w>": 7521,
      "hive": 7522,
      "Delta</w>": 7523,
      "_id</w>": 7524,
      "Constrain": 7525,
      "3_": 7526,
      "VcsManager</w>": 7527,
      "pathElement</w>": 7528,
      "nc</w>": 7529,
      "Migration": 7530,
      "sFolder": 7531,
      "compile</w>": 7532,
      "userName</w>": 7533,
      "SystemEvent": 7534,
      "sugg": 7535,
      "nextToken</w>": 7536,
      "receiver</w>": 7537,
      "getChild</w>": 7538,
      "Serialization": 7539,
      "getNamespace": 7540,
      "setType</w>": 7541,
      "PsiPoly": 7542,
      "Unfiltered": 7543,
      "10": 7544,
      "getPresentableText</w>": 7545,
      "PsiIfStatement</w>": 7546,
      "written": 7547,
      "Viewer</w>": 7548,
      "strategy</w>": 7549,
      "V_": 7550,
      "ServiceRegistry</w>": 7551,
      "StructureView": 7552,
      "Success</w>": 7553,
      "mut": 7554,
      "Vertical": 7555,
      "PyFile</w>": 7556,
      "START</w>": 7557,
      "delta": 7558,
      "CalendarBooking": 7559,
      "DLFileVersion</w>": 7560,
      "Dumb": 7561,
      "MER": 7562,
      "svn": 7563,
      "us</w>": 7564,
      "myLine": 7565,
      "getStart</w>": 7566,
      "myClass": 7567,
      "jdk</w>": 7568,
      "getColor</w>": 7569,
      "PKs</w>": 7570,
      "sstable</w>": 7571,
      "alet": 7572,
      "AND_": 7573,
      "psiManager</w>": 7574,
      "Dirty</w>": 7575,
      "IONS_": 7576,
      "Grouping": 7577,
      "upgrade": 7578,
      "dao</w>": 7579,
      "LAT": 7580,
      "defaults</w>": 7581,
      "getInput": 7582,
      "cached</w>": 7583,
      "InlineSQL": 7584,
      "OpenFileDescriptor</w>": 7585,
      "isUnder": 7586,
      "absolute": 7587,
      "getID</w>": 7588,
      "RevisionId</w>": 7589,
      "singleton</w>": 7590,
      "Clustering</w>": 7591,
      "messages</w>": 7592,
      "counter": 7593,
      "InlineSQLHelperUtil</w>": 7594,
      "Cmd": 7595,
      "PrefixExpression</w>": 7596,
      "dim": 7597,
      "ry": 7598,
      "proto": 7599,
      "dirs</w>": 7600,
      "font</w>": 7601,
      "getVisible": 7602,
      "VARI": 7603,
      "Vote</w>": 7604,
      "AssetTag</w>": 7605,
      "collector</w>": 7606,
      "ui": 7607,
      "ect</w>": 7608,
      "XmlElement</w>": 7609,
      "ProblemHighlightType</w>": 7610,
      "getTar": 7611,
      "messageId</w>": 7612,
      "myUse": 7613,
      "timeZone</w>": 7614,
      "Ui": 7615,
      "COL": 7616,
      "BUtilities</w>": 7617,
      "FBUtilities</w>": 7618,
      "answer</w>": 7619,
      "Plus</w>": 7620,
      "structure</w>": 7621,
      "analysi": 7622,
      "TheF": 7623,
      "stack</w>": 7624,
      "checkState</w>": 7625,
      "PsiWhiteSpace</w>": 7626,
      "cessary</w>": 7627,
      "Updated": 7628,
      "myParent": 7629,
      "Binder": 7630,
      "Addresses</w>": 7631,
      "ileStatement</w>": 7632,
      "displayDate": 7633,
      "ipeline": 7634,
      "Tx": 7635,
      "ten</w>": 7636,
      "DeclarationStatement</w>": 7637,
      "Same": 7638,
      "rewrite</w>": 7639,
      "Resolution": 7640,
      "Existing": 7641,
      "sqlUpdate</w>": 7642,
      "folderIds</w>": 7643,
      "PsiJavaToken</w>": 7644,
      "pc": 7645,
      "SCH": 7646,
      "defaultLocale</w>": 7647,
      "getStringValue</w>": 7648,
      "Contin": 7649,
      "main</w>": 7650,
      "workflowInstance": 7651,
      "lash": 7652,
      "getMatch": 7653,
      "IfAbsent</w>": 7654,
      "canonical": 7655,
      "Stripe": 7656,
      "Independent": 7657,
      "Achievement</w>": 7658,
      "AccountId</w>": 7659,
      "projection</w>": 7660,
      "FileIndex</w>": 7661,
      "umbn": 7662,
      "EN</w>": 7663,
      "Gre": 7664,
      "DOW": 7665,
      "plat": 7666,
      "valueType</w>": 7667,
      "servletContextName</w>": 7668,
      "mutation</w>": 7669,
      "Operator": 7670,
      "DEPLO": 7671,
      "LD</w>": 7672,
      "theme": 7673,
      "Contrib": 7674,
      "advance</w>": 7675,
      "iaQuery</w>": 7676,
      "PKsSet</w>": 7677,
      "ournal</w>": 7678,
      "sc": 7679,
      "ayload": 7680,
      "getBefore": 7681,
      "LEFT</w>": 7682,
      "sEntryImpl</w>": 7683,
      "TheFly</w>": 7684,
      "Repositories</w>": 7685,
      "Generator": 7686,
      "g2d</w>": 7687,
      "instanti": 7688,
      "loat": 7689,
      "jps</w>": 7690,
      "ByteArrayOutputStream</w>": 7691,
      "getLastPublishDate</w>": 7692,
      "PsiExpressionStatement</w>": 7693,
      "Promp": 7694,
      "ExpandoValue</w>": 7695,
      "progress</w>": 7696,
      "EDITOR</w>": 7697,
      "myR": 7698,
      "WebSocket": 7699,
      "expanded</w>": 7700,
      "metadata": 7701,
      "MANAG": 7702,
      "OP_ADDR</w>": 7703,
      "ative</w>": 7704,
      "Attr</w>": 7705,
      "getInstanceEx</w>": 7706,
      "SES</w>": 7707,
      "ContextImpl</w>": 7708,
      "queryDefinition</w>": 7709,
      "Initialized</w>": 7710,
      "PhaseContext</w>": 7711,
      "TAG</w>": 7712,
      "MicroblogsEntry</w>": 7713,
      "zip": 7714,
      "locate": 7715,
      "APPLIC": 7716,
      "Sort</w>": 7717,
      "api</w>": 7718,
      "ById</w>": 7719,
      "generated": 7720,
      "treeNode</w>": 7721,
      "Credentials</w>": 7722,
      "LambdaExpression</w>": 7723,
      "JBUI</w>": 7724,
      "SHOR": 7725,
      "Authentication</w>": 7726,
      "findByUuid</w>": 7727,
      "orderEntry</w>": 7728,
      "criminator": 7729,
      "abric": 7730,
      "charac": 7731,
      "RIGHT</w>": 7732,
      "day": 7733,
      "open</w>": 7734,
      "updated</w>": 7735,
      "localName</w>": 7736,
      "Plain": 7737,
      "dirName</w>": 7738,
      "TemplateVariableGroup</w>": 7739,
      "focus": 7740,
      "Real": 7741,
      "cance": 7742,
      "Whitespace": 7743,
      "erUtil</w>": 7744,
      "perc": 7745,
      "CODE_": 7746,
      "DATE_": 7747,
      "StackTrace</w>": 7748,
      "meetups": 7749,
      "setSize</w>": 7750,
      "Catch": 7751,
      "facade</w>": 7752,
      "vious": 7753,
      "InvocationHandler</w>": 7754,
      "25": 7755,
      "getParameter</w>": 7756,
      "displayName</w>": 7757,
      "ModifiableModel</w>": 7758,
      "SourceSet</w>": 7759,
      "ConditionalExpression</w>": 7760,
      "PreparedStatement</w>": 7761,
      "Center": 7762,
      "fileIndex</w>": 7763,
      "section</w>": 7764,
      "LayoutId</w>": 7765,
      "console": 7766,
      "notification</w>": 7767,
      "HtmlUtil</w>": 7768,
      "getFont</w>": 7769,
      "Locales</w>": 7770,
      "criteria</w>": 7771,
      "roadcast": 7772,
      "isFile": 7773,
      "sStatsUser</w>": 7774,
      "EL_": 7775,
      "ToString</w>": 7776,
      "LayoutSet</w>": 7777,
      "getIconWidth</w>": 7778,
      "processorTarget</w>": 7779,
      "LocalQuickFix</w>": 7780,
      "WR": 7781,
      "goog": 7782,
      "ComboBox": 7783,
      "ByteArray</w>": 7784,
      "providers</w>": 7785,
      "PyElement</w>": 7786,
      "SIZE_": 7787,
      "getRowCount</w>": 7788,
      "remaining</w>": 7789,
      "finish</w>": 7790,
      "Built": 7791,
      "obj": 7792,
      "IT</w>": 7793,
      "getView": 7794,
      "Slices</w>": 7795,
      "TEXT_": 7796,
      "sample": 7797,
      "storage": 7798,
      "getExtension</w>": 7799,
      "urse</w>": 7800,
      "encoding</w>": 7801,
      "flat": 7802,
      "protocol": 7803,
      "virtualHost": 7804,
      "over": 7805,
      "Instanti": 7806,
      "findByGroupId</w>": 7807,
      "interceptor": 7808,
      "getFiles</w>": 7809,
      "getHost": 7810,
      "release</w>": 7811,
      "neg": 7812,
      "COUNT</w>": 7813,
      "socialActivityCounter": 7814,
      "dlFileVersion</w>": 7815,
      "increment</w>": 7816,
      "KC": 7817,
      "TypesUtil</w>": 7818,
      "getRequired": 7819,
      "me</w>": 7820,
      "KaleoNode</w>": 7821,
      "getPrevSibling</w>": 7822,
      "s_": 7823,
      "getRemote": 7824,
      "STATEM": 7825,
      "Install": 7826,
      "Handle": 7827,
      "AbstractVcs</w>": 7828,
      "uses</w>": 7829,
      "nowInSec</w>": 7830,
      "isF": 7831,
      "profile": 7832,
      "ByUuidAnd": 7833,
      "NotificationTemplate</w>": 7834,
      "zz": 7835,
      "setDefault": 7836,
      "Separ": 7837,
      "Pane": 7838,
      "WITH_PAGINATION</w>": 7839,
      "activityCounter": 7840,
      "FINDER_CLASS_NAME_LIST_WITHOUT_": 7841,
      "FINDER_CLASS_NAME_LIST_WITH_PAGINATION</w>": 7842,
      "FINDER_CLASS_NAME_LIST_WITHOUT_PAGINATION</w>": 7843,
      "inher": 7844,
      "Resolvers</w>": 7845,
      "FormatException</w>": 7846,
      "ill": 7847,
      "ErrorMessages</w>": 7848,
      "backs</w>": 7849,
      "popup": 7850,
      "Unchecked": 7851,
      "BeanLocator": 7852,
      "TagName</w>": 7853,
      "queue": 7854,
      "INT_": 7855,
      "PrincipalException</w>": 7856,
      "NoSuchArticle": 7857,
      "journal</w>": 7858,
      "Compres": 7859,
      "JavaCodeStyleManager</w>": 7860,
      "failure": 7861,
      "cred": 7862,
      "3Subsystem": 7863,
      "getData": 7864,
      "SEAR": 7865,
      "resourcePrimKey</w>": 7866,
      "Can": 7867,
      "setBorder</w>": 7868,
      "PyString": 7869,
      "Closure</w>": 7870,
      "myMatchingVisitor</w>": 7871,
      "readLong</w>": 7872,
      "treePath</w>": 7873,
      "DER": 7874,
      "audit": 7875,
      "getIdentifier": 7876,
      "ItemSelector": 7877,
      "cal</w>": 7878,
      "Transition": 7879,
      "getConfiguration": 7880,
      "Price</w>": 7881,
      "getPresentableUrl</w>": 7882,
      "setInitial": 7883,
      "compile": 7884,
      "userTracker": 7885,
      "Generate": 7886,
      "NUMB": 7887,
      "_companyId</w>": 7888,
      "ness</w>": 7889,
      "tl": 7890,
      "GroovyBundle</w>": 7891,
      "NameElement</w>": 7892,
      "AntBuild": 7893,
      "VIRTUAL_": 7894,
      "strEqual</w>": 7895,
      "toStringArray</w>": 7896,
      "MQ": 7897,
      "ClassUtils</w>": 7898,
      "UNCT": 7899,
      "decode": 7900,
      "RadContainer</w>": 7901,
      "shortcut": 7902,
      "WRIT": 7903,
      "ContextClassLoader</w>": 7904,
      "DeploymentPhaseContext</w>": 7905,
      "EM</w>": 7906,
      "Edges</w>": 7907,
      "startTime</w>": 7908,
      "SK": 7909,
      "Include": 7910,
      "Templates": 7911,
      "rete": 7912,
      "getOld": 7913,
      "OptionsPanel</w>": 7914,
      "getExpandoBridge</w>": 7915,
      "vic": 7916,
      "ActionId</w>": 7917,
      "assetCategory</w>": 7918,
      "c2</w>": 7919,
      "ws": 7920,
      "tow": 7921,
      "readBoolean</w>": 7922,
      "CodeFragment</w>": 7923,
      "SessionFactory": 7924,
      "thet": 7925,
      "VariableDeclaration</w>": 7926,
      "InspectionTool": 7927,
      "Apply": 7928,
      "getTarget</w>": 7929,
      "JavaF": 7930,
      "lists</w>": 7931,
      "completion": 7932,
      "Create</w>": 7933,
      "ProcessingContext</w>": 7934,
      "syncFile</w>": 7935,
      "ump": 7936,
      "MethodName</w>": 7937,
      "LinkModelImpl</w>": 7938,
      "Supported</w>": 7939,
      "Bl": 7940,
      "reason</w>": 7941,
      "getLineStartOffset</w>": 7942,
      "domElement</w>": 7943,
      "NAL_": 7944,
      "Part": 7945,
      "OrNull</w>": 7946,
      "URE</w>": 7947,
      "repo</w>": 7948,
      "Stric": 7949,
      "PortletException</w>": 7950,
      "XmlAttributeValue</w>": 7951,
      "Evaluation": 7952,
      "layoutSetPrototype</w>": 7953,
      "AssetEntry": 7954,
      "ous": 7955,
      "Javadoc": 7956,
      "Extractor</w>": 7957,
      "myRoot</w>": 7958,
      "Cor": 7959,
      "WebService": 7960,
      "ReflectionIndex</w>": 7961,
      "getAvailable": 7962,
      "ell</w>": 7963,
      "Searcher</w>": 7964,
      "setLast": 7965,
      "lower": 7966,
      "javaType</w>": 7967,
      "getTypeParameters</w>": 7968,
      "XDebugger": 7969,
      "of": 7970,
      "getDelegate</w>": 7971,
      "aster": 7972,
      "initialize": 7973,
      "FQ": 7974,
      "readExternal</w>": 7975,
      "anifest</w>": 7976,
      "PSI": 7977,
      "HTML_": 7978,
      "Freq</w>": 7979,
      "Wiz": 7980,
      "onic": 7981,
      "putValue</w>": 7982,
      "EventImpl</w>": 7983,
      "binary</w>": 7984,
      "literal</w>": 7985,
      "IS_": 7986,
      "Compo": 7987,
      "Ans": 7988,
      "getDoc": 7989,
      "getComponentType</w>": 7990,
      "Shortcuts</w>": 7991,
      "ived": 7992,
      "Refresh</w>": 7993,
      "KE_": 7994,
      "Lt": 7995,
      "den": 7996,
      "hasText</w>": 7997,
      "Categories</w>": 7998,
      "getLeft": 7999,
      "Team": 8000,
      "updated": 8001,
      "replaceAll</w>": 8002,
      "SSION_": 8003,
      "changed</w>": 8004,
      "TransactionManager</w>": 8005,
      "anchor": 8006,
      "StagedModel</w>": 8007,
      "isInfo": 8008,
      "marshal": 8009,
      "webDAV": 8010,
      "sical</w>": 8011,
      "isInfoEnabled</w>": 8012,
      "DS_": 8013,
      "als</w>": 8014,
      "types": 8015,
      "lare": 8016,
      "QUI": 8017,
      "plain": 8018,
      "Embedd": 8019,
      "JavaFx": 8020,
      "ModuleComponent": 8021,
      "TextEditor</w>": 8022,
      "FORM": 8023,
      "Team</w>": 8024,
      "runnable</w>": 8025,
      "ther": 8026,
      "Remote</w>": 8027,
      "cancel": 8028,
      "FAC": 8029,
      "getDDMForm": 8030,
      "ProcessHandler</w>": 8031,
      "sableBlock</w>": 8032,
      "anc": 8033,
      "gre": 8034,
      "Issu": 8035,
      "OrganizationId</w>": 8036,
      "selectionModel</w>": 8037,
      "findByUuid_C</w>": 8038,
      "zer": 8039,
      "ValidationException</w>": 8040,
      "MAP</w>": 8041,
      "getClient": 8042,
      "down</w>": 8043,
      "section": 8044,
      "getSubstitutor</w>": 8045,
      "MessagingService</w>": 8046,
      "atisfied": 8047,
      "Direct": 8048,
      "Indices": 8049,
      "Screen</w>": 8050,
      "Thro": 8051,
      "ait</w>": 8052,
      "oards</w>": 8053,
      "getGlobal": 8054,
      "eboards</w>": 8055,
      "EntityManager</w>": 8056,
      "messageboards</w>": 8057,
      "BlockWrapper</w>": 8058,
      "JSONFactoryUtil</w>": 8059,
      "sByName</w>": 8060,
      "uler</w>": 8061,
      "Perc": 8062,
      "userGroupId</w>": 8063,
      "AntDom": 8064,
      "visited</w>": 8065,
      "memory": 8066,
      "TimeValue</w>": 8067,
      "ursor": 8068,
      "InheritanceUtil</w>": 8069,
      "composite": 8070,
      "getStatements</w>": 8071,
      "ROL": 8072,
      "Writer": 8073,
      "friendlyURL</w>": 8074,
      "flow</w>": 8075,
      "Try": 8076,
      "ResourceRegistration</w>": 8077,
      "TER</w>": 8078,
      "ll</w>": 8079,
      "tail": 8080,
      "NameTo": 8081,
      "DispatchThread</w>": 8082,
      "BEFORE_": 8083,
      "Designer": 8084,
      "Have": 8085,
      "getBlock</w>": 8086,
      "Dirs</w>": 8087,
      "currentState</w>": 8088,
      "populate": 8089,
      "getScrollingModel</w>": 8090,
      "IFI": 8091,
      "TInt": 8092,
      "myOriginal": 8093,
      "Hierarchy</w>": 8094,
      "nexpected": 8095,
      "Ui</w>": 8096,
      "ENTRY_": 8097,
      "IIO": 8098,
      "TS</w>": 8099,
      "enter</w>": 8100,
      "extensions</w>": 8101,
      "blob": 8102,
      "METHOD</w>": 8103,
      "interceptor</w>": 8104,
      "LONG</w>": 8105,
      "LITER": 8106,
      "length": 8107,
      "Segment": 8108,
      "Vector": 8109,
      "ElementTo": 8110,
      "getSelectedItem</w>": 8111,
      "DatabaseDescriptor</w>": 8112,
      "Introduce": 8113,
      "smallImage": 8114,
      "getBean": 8115,
      "drawLine</w>": 8116,
      "hist": 8117,
      "Score</w>": 8118,
      "getObject": 8119,
      "myBase": 8120,
      "Enable": 8121,
      "emptySet</w>": 8122,
      "serializedSize</w>": 8123,
      "aliases</w>": 8124,
      "refExpr</w>": 8125,
      "DataInput": 8126,
      "prepare</w>": 8127,
      "AccessType</w>": 8128,
      "assigned": 8129,
      "Libraries": 8130,
      "LoggerElement</w>": 8131,
      "p1</w>": 8132,
      "sable</w>": 8133,
      "ProjectRootManager</w>": 8134,
      "panel": 8135,
      "setter</w>": 8136,
      "ORS</w>": 8137,
      "VE_": 8138,
      "failed": 8139,
      "calendarResource</w>": 8140,
      "geo": 8141,
      "SS</w>": 8142,
      "toSystemIndependent": 8143,
      "JS": 8144,
      "Force": 8145,
      "FromElement</w>": 8146,
      "PROPERTY_": 8147,
      "Revisions</w>": 8148,
      "Rt</w>": 8149,
      "PLU": 8150,
      "bookmarksEntry</w>": 8151,
      "parentElement</w>": 8152,
      "deploy</w>": 8153,
      "ze": 8154,
      "Queries</w>": 8155,
      "LayoutSetPrototype": 8156,
      "Word</w>": 8157,
      "NotificationRecipient</w>": 8158,
      "modifier</w>": 8159,
      "Character": 8160,
      "IfNecessary</w>": 8161,
      "Js": 8162,
      "compiler": 8163,
      "annotationInstance</w>": 8164,
      "FinderCacheEnabled</w>": 8165,
      "pch": 8166,
      "ServiceTarget</w>": 8167,
      "KaleoInstanceToken</w>": 8168,
      "getPreferredName</w>": 8169,
      "replacement</w>": 8170,
      "Vars</w>": 8171,
      "jndiName</w>": 8172,
      "dest</w>": 8173,
      "myModule</w>": 8174,
      "PsiBinaryExpression</w>": 8175,
      "Register": 8176,
      "preferences</w>": 8177,
      "Num</w>": 8178,
      "clip</w>": 8179,
      "TrashEntry</w>": 8180,
      "tories": 8181,
      "parsed</w>": 8182,
      "Website</w>": 8183,
      "sing</w>": 8184,
      "Descriptions</w>": 8185,
      "IoFile</w>": 8186,
      "0L</w>": 8187,
      "ns</w>": 8188,
      "Whitespace</w>": 8189,
      "countByG_": 8190,
      "getX</w>": 8191,
      "members</w>": 8192,
      "IndexShard": 8193,
      "Replacement": 8194,
      "only": 8195,
      "filters</w>": 8196,
      "org": 8197,
      "resourceType": 8198,
      "controller</w>": 8199,
      "_args</w>": 8200,
      "jected": 8201,
      "findByCompanyId</w>": 8202,
      "ResolveState</w>": 8203,
      "Bootstr": 8204,
      "ring": 8205,
      "Wall": 8206,
      "JournalContent": 8207,
      "alogName</w>": 8208,
      "PortletDataHandlerKeys</w>": 8209,
      "FileObject</w>": 8210,
      "Added</w>": 8211,
      "PrivateLayout</w>": 8212,
      "getSign": 8213,
      "setPrimaryKey</w>": 8214,
      "idi": 8215,
      "actionManager</w>": 8216,
      "nemonic</w>": 8217,
      "lored": 8218,
      "FolderException</w>": 8219,
      "after</w>": 8220,
      "pluginId</w>": 8221,
      "SocialRequest</w>": 8222,
      "_add": 8223,
      "Modal": 8224,
      "MDRRuleGroupInstance</w>": 8225,
      "PATTERN</w>": 8226,
      "findMethod": 8227,
      "Colors</w>": 8228,
      "myTabs</w>": 8229,
      "keyType</w>": 8230,
      "MON": 8231,
      "ManagementResourceRegistration</w>": 8232,
      "clip": 8233,
      "clusterState</w>": 8234,
      "qualifierExpression</w>": 8235,
      "CT_": 8236,
      "nodes": 8237,
      "ward": 8238,
      "resourcePermission": 8239,
      "refresh</w>": 8240,
      "toolWrapper</w>": 8241,
      "NotNull": 8242,
      "found": 8243,
      "languageLevel</w>": 8244,
      "Removed</w>": 8245,
      "Live": 8246,
      "Final</w>": 8247,
      "getRole</w>": 8248,
      "IsSet</w>": 8249,
      "Signatures</w>": 8250,
      "wrapped": 8251,
      "Cl": 8252,
      "FUNCT": 8253,
      "sRequest</w>": 8254,
      "subsystem": 8255,
      "IGH": 8256,
      "userNotificationEvent</w>": 8257,
      "Merge</w>": 8258,
      "ry</w>": 8259,
      "sessionFactory</w>": 8260,
      "delegate": 8261,
      "Pass": 8262,
      "isFinderCacheEnabled</w>": 8263,
      "_re": 8264,
      "Keyspace": 8265,
      "vlet</w>": 8266,
      "AssetLink</w>": 8267,
      "isEntityCacheEnabled</w>": 8268,
      "ons</w>": 8269,
      "pure</w>": 8270,
      "Bus</w>": 8271,
      "orm</w>": 8272,
      "setting</w>": 8273,
      "CONN": 8274,
      "LENG": 8275,
      "endElement</w>": 8276,
      "typeId</w>": 8277,
      "buckets</w>": 8278,
      "browser": 8279,
      "getRequest</w>": 8280,
      "FileNames</w>": 8281,
      "isInitializ": 8282,
      "ShardRouting</w>": 8283,
      "Radio": 8284,
      "getRoleId</w>": 8285,
      "ADDRESS</w>": 8286,
      "pop</w>": 8287,
      "upper": 8288,
      "values": 8289,
      "ullize</w>": 8290,
      "FileElement</w>": 8291,
[...]
