[PAD]
[OOV]
[SOS]
[EOS]

!
"
#
$
%
&
'
(
)
*
+
,
-
.
/
0
1
2
3
4
5
6
7
8
9
:
;
<
=
>
?
@
A
B
C
D
E
F
G
H
I
J
K
L
M
N
O
P
Q
R
S
T
U
V
W
X
Y
Z
[
\
]
^
_
`
a
b
c
d
e
f
g
h
i
j
k
l
m
n
o
p
q
r
s
t
u
v
w
x
y
z
{
|
}
~
e</w>
t</w>
E</w>
d</w>
s</w>
r</w>
j</w>
a</w>
f</w>
l</w>
M</w>
2</w>
w</w>
n</w>
y</w>
g</w>
0</w>
p</w>
N</w>
L</w>
H</w>
T</w>
h</w>
x</w>
c</w>
D</w>
S</w>
m</w>
W</w>
k</w>
3</w>
Y</w>
R</w>
1</w>
o</w>
8</w>
'</w>
P</w>
X</w>
U</w>
6</w>
K</w>
F</w>
_</w>
O</w>
I</w>
b</w>
B</w>
A</w>
C</w>
G</w>
]</w>
i</w>
5</w>
7</w>
9</w>
4</w>
V</w>
v</w>
J</w>
q</w>
u</w>
%</w>
&</w>
<</w>
z</w>
[</w>
,</w>
"</w>
Q</w>
Z</w>
~</w>
/</w>
\</w>
.</w>
-</w>
;</w>
}</w>
$</w>
^</w>
)</w>
=</w>
`</w>
{</w>
(</w>
?</w>
#</w>
*</w>
></w>
|</w>
:</w>
@</w>
+</w>
!</w>
et
in
er
en
at
on
tr
le
get
ti
re
__
al
ur
ro
si
ar
on</w>
an
ul
st
er</w>
or
ce
as
etur
am
retur
te
return</w>
od
if</w>
li
ent</w>
es
ri
Str
is
il
ull</w>
ec
mp
ing</w>
pu
ati
or</w>
str
fin
tion</w>
In
yp
ac
ne
Ex
th
ent
null</w>
String</w>
al</w>
Co
res
Nam
el
las
_str
___</w>
___str
___str___</w>
ag
bli
ment</w>
publi
public</w>
Con
fi
ab
ad
Typ
ex
new</w>
Id</w>
final</w>
ing
Re
ver
ate
co
my
jec
Name</w>
tion
ch
ue</w>
se</w>
vi
oc
oo
ption</w>
Psi
qu
sion</w>
Pro
un
ap
lement</w>
et</w>
es</w>
ce</w>
le</w>
Type</w>
ception</w>
Clas
ate</w>
ile</w>
==</w>
Mod
rid
it
ed
Exception</w>
up
int</w>
ot
set
Fi
verrid
stan
Overrid
con
Override</w>
ut
ject</w>
pro
tex
St
id</w>
!=</w>
En
ment
ort
Comp
text</w>
ser
bu
der</w>
per
Element</w>
By
thro
ist</w>
List</w>
alue</w>
ation
ol
vo
Uti
ter
der
able
de
el</w>
eth
tor
ay
lo
void</w>
app
an</w>
pres
File</w>
ation</w>
Par
our
ode</w>
Class</w>
oole
fer
par
De
ang
try</w>
Res
Util</w>
oolean</w>
Ch
lec
&&</w>
Ob
ator</w>
File
Ar
Ser
able</w>
stance
clas
Not
ult</w>
Ac
nam
tri
Null</w>
boolean</w>
fal
false</w>
se
to
Ke
is</w>
lu
atic</w>
and
static</w>
Imp
ong</w>
this</w>
iz
pression</w>
qual
NotNull</w>
ap</w>
To
of</w>
for</w>
sag
ff
th</w>
Pat
instance
pri
instanceof</w>
Object</w>
end</w>
end
cri
ay</w>
roup
em
Context</w>
ve
let
Value</w>
Dat
ws</w>
ces
An
Meth
sion
Bu
equal
ain
else</w>
ilder</w>
ty
long</w>
po
true</w>
priv
get</w>
id
Servi
Tex
Class
throws</w>
private</w>
ig
equals</w>
eng
Se
anag
Expression</w>
essag
Impl</w>
ach
ength</w>
amet
av
mod
lement
typ
ic
feren
comp
ke
ted</w>
ub
escri
append</w>
port
Qu
cre
tory</w>
result</w>
add
od</w>
ty</w>
Map</w>
alu
Manag
ch</w>
||</w>
String
loc
tor</w>
throw</w>
Loc
ts</w>
element</w>
ifi
Node</w>
set</w>
fig
Vi
est</w>
ayo
name</w>
ource
E_
ist
ind
IN
ession</w>
Di
length</w>
ter</w>
class</w>
Arr
Set
Cont
und
At
Key</w>
Model</w>
quest</w>
Po
cont
tribu
Compar
Model
Proper
value</w>
orm
tribute
cess
ild
tu
find
fa
fo</w>
dex</w>
figur
Manager</w>
Set</w>
ler</w>
file</w>
Path</w>
Port
lum
stance</w>
yId</w>
mo
meth
Fac
pl
sh
getIn
ack
Comparator</w>
put</w>
ER
T_
Fiel
ted
ffset</w>
create
ting
has
Paramet
mm
derBy
AT
add</w>
Col
Id
ed</w>
Per
essage</w>
Element
tions</w>
derByComparator</w>
type</w>
escrip
Cach
IO
ow
Or
tec
unt</w>
Compon
st</w>
Lin
im
Builder</w>
Quer
ocu
protec
Sy
ult
protected</w>
Type
Referen
rec
age
ode
atch</w>
star
Pre
Group
PsiElement</w>
itor</w>
Entry</w>
Lo
siz
ers</w>
all
Hand
Ed
mb
class
uc
context</w>
ull
Tr
file
EN
Text</w>
Ev
put
dd
pat
getName</w>
Project</w>
ange</w>
ule
As
ject
read
ary
new
ayout
Method</w>
State
Local
ST
Configur
cop
igh
size</w>
ource</w>
ut</w>
Selec
not
Info</w>
Th
getS
Data
Key
User
at</w>
tual
Method
urr
group
up</w>
Gr
Tre
Data</w>
Service</w>
posi
project</w>
catch</w>
Un
Service
Array
UR
Request</w>
est
lumn
di
sp
la
ms
age</w>
session</w>
aliz
Action
try
rtual
Gro
Y_
eck
No
Null
Offset</w>
fault
tings</w>
ava
lic
ute</w>
Dis
tributes</w>
Sh
Factory</w>
contain
escriptor</w>
om
ari
anyId</w>
sist
reg
fini
Ver
Roo
getInstance</w>
Valu
atu
Py
ale
fac
LO
gg
orderByComparator</w>
emp
msg</w>
Collec
ob
ader</w>
Name
node</w>
builder</w>
in</w>
Ro
Text
model</w>
enti
CO
action
AR
Component</w>
op
Al
Modifi
List
Tim
Nullable</w>
Defini
form
Bund
ve</w>
Op
Result</w>
ace
ken
ar</w>
sup
ev
ateg
sub
Tree
rtualFile</w>
remo
Index</w>
user
Query</w>
ild</w>
atch
groupId</w>
gu
RE
ml
++</w>
lifer
urrent
Be
Syst
toString</w>
ace</w>
Emp
Dep
alid
aleo
Tas
am</w>
Field
com</w>
Oper
fiel
And
Handler</w>
IT
pre
ans
arch
H_
dat
liferay</w>
nal
pon
Count</w>
Comm
arr
gh
ener
Fol
Java
State</w>
Met
wor
S_
gin
Add
Reg
trib
valu
ocument</w>
RO
rea
Event</w>
getL
Reference
ash
enc
AN
Temp
message</w>
sb</w>
method
Portlet
findBy
ser</w>
ls</w>
AC
Stre
do
Ind
Su
portlet
method</w>
Bloc
ule</w>
tory
Settings</w>
resol
gn
Persist
Statement</w>
tribute</w>
tic
Resource
getC
angu
Siz
ard
Ite
Pri
tar
rom
it</w>
Entry
Sp
Types</w>
oth
ore
tt
Pan
parent</w>
ip
text
Provi
VirtualFile</w>
Descriptor</w>
Empty</w>
so
Contain
ew
Rec
Path
Star
Templ
ties</w>
psi
Inter
abled</w>
start
ence</w>
servi
Annot
lin
AM
ase</w>
ange
date
Range</w>
ure</w>
ress</w>
OR
gument
Column
AL
selec
ModelImpl</w>
Portal
proper
ategor
Message</w>
index</w>
Form
Default
Session</w>
Group</w>
ook
quest
Child
Token
For
ynam
Nex
ponse</w>
atus</w>
ase
array</w>
Layout
te</w>
getPar
list</w>
Cache</w>
mis
ag</w>
ail
leg
Names</w>
path</w>
process
isEmpty</w>
Field</w>
D_
ttp
Xml
ER_
Editor</w>
paramet
Vari
um
key</w>
visi
ith
editor</w>
iti
companyId</w>
Tar
ai
getD
Cache
Configuration</w>
Enabled</w>
ynamic
rro
int
red
Action</w>
cep
Size</w>
cal
G_
DE
wri
attributes</w>
start</w>
br
ayout</w>
gro
mary
N_
check
Attribute</w>
request</w>
itor
Definition</w>
Mapp
Hash
struc
Version</w>
tim
ArrayList</w>
Enti
nec
Parameter
ark
sy
escription</w>
Array</w>
count</w>
Property</w>
C_
Byte
Acti
ender
by
Date</w>
Direc
Content
Module
Exp
Project
ite
index
Out
NAM
other</w>
Run
ool
IOException</w>
nex
cope</w>
clu
key
expression</w>
EM
exp
emb
Erro
Code</w>
getClass</w>
Reference</w>
DD
umb
etch
Bo
Task
ffer</w>
asser
entry</w>
AS
portal</w>
Displ
compon
Messag
Resol
Br
Ap
Revi
parent
elet
Index
soap
ilter
nel</w>
Root
col
oci
ool</w>
Process
ligh
Such
Up
ken</w>
Regis
Property
ten
imp
NoSuch
adat
getP
current
are
Next</w>
ializ
Constan
ighligh
Sub
ma
Wr
unc
System
iter
ynamicQuery</w>
Table
be
Provider</w>
service
loy
Cal
sign
obj</w>
gs</w>
uid</w>
endenc
He
Loader</w>
super</w>
Of</w>
Posi
Stream</w>
ces</w>
Keys</w>
Parameter</w>
row
Instance
jav
cation
low
fetch
Bundle</w>
tifi
PsiClass</w>
java</w>
ast
Trans
sW
remove
getValue</w>
Code
fo
element
Argument
Line
Address</w>
eb
URL</w>
ort</w>
Bran
NO
Char
PortalException</w>
LE
Operation
From
Struc
Values</w>
that</w>
Langu
GroupId</w>
vlet
Query
maryKey</w>
Li
wh
Request
Reposi
for
out
Panel</w>
KE
Component
layout
Http
Sup
Persistence</w>
Response</w>
ner</w>
Permis
Check
Fr
00
dep
So
ator
update
log</w>
OrderByComparator</w>
Categor
valid
erro
ary</w>
pression
Value
Template
Bean
ight</w>
Fir
FI
lumn</w>
Editor
ble
Pack
Ids</w>
contains</w>
regist
type
chem
ust
Pool</w>
Source</w>
Attribute
cs
older</w>
ocial
Start
tit
resolve
App
ilter</w>
field</w>
Of
Tag</w>
ov
kaleo
offset</w>
ker
he
teg
gger</w>
Ur
Constants</w>
Properties</w>
fix</w>
column
act
Search
Utils</w>
SE
ly
lan
Node
Instance</w>
Kaleo
DL
Collection</w>
NAME</w>
Gener
On
info</w>
Visi
DDM
Content</w>
ord
bo
apper</w>
ENT
ron
Numb
Call
tifac
ations</w>
ddm
ign
Highligh
Block</w>
idth</w>
Layout</w>
cess</w>
ournal
ener</w>
Wri
Boolean</w>
Attributes</w>
getType</w>
Item</w>
Stat
value
loyment
Time
DynamicQuery</w>
ession
legal
field
hash
child</w>
Wind
All</w>
Il
End
Illegal
hand
Valid
state</w>
Entity
Exec
old
UN
getUser
Connec
Hel
Token</w>
getM
aClass</w>
adata</w>
date</w>
entifi
register
air</w>
PsiMethod</w>
state
ver</w>
utor</w>
Render
and</w>
P_
Long</w>
PK</w>
vity
entation</w>
repl
getClass
exception</w>
Lev
visit
teger</w>
log
em</w>
configur
ass
Notifi
With
Prev
FIN
while</w>
Groov
UL
Usag
UI
out</w>
PsiType</w>
StringUtil</w>
args</w>
exec
data
itializ
met
PT
return
Remo
Import
kernel</w>
cach
referen
default
Parameters</w>
Dependenc
getParent</w>
su
Ab
quer
TextRange</w>
userId</w>
CompanyId</w>
resource
SO
Iter
Position</w>
fir
ren</w>
L_
LocalService</w>
clo
match
ster
getProject</w>
status</w>
param
annot
DER_
Source
putStream</w>
child
Scope</w>
Directory</w>
last
ew</w>
Context
crip
values</w>
Display</w>
UT
ture
con</w>
Folder
soapModel</w>
ings</w>
Tool
fetchBy
Integer</w>
read</w>
ER</w>
ow</w>
min
eme
Groovy
Dec
aData</w>
Error
LOG</w>
Message
PsiFile</w>
dl
inter
Options</w>
ION_
write
ified
Asset
_log</w>
cle
LI
Servlet
StringBuilder</w>
ou
word
root
utable
component</w>
Assign
PrevAnd
PrevAndNext</w>
getR
ies</w>
ocument
und</w>
endar
Configuration
ast</w>
NameId</w>
getText</w>
Bundler</w>
StringBundler</w>
erg
ot</w>
ion
Vcs
per</w>
tend
Block
data</w>
RI
alo
tot
string</w>
Module</w>
orig
document</w>
Exten
StringPool</w>
lugin
spec
reposi
At</w>
qui
hashCode</w>
Revision</w>
Line</w>
Identifi
Wrapper</w>
one</w>
Dir</w>
Folder</w>
Resource</w>
rom</w>
Root</w>
Event
list
Ref
delet
group</w>
local
PrimaryKey</w>
event</w>
System</w>
ally</w>
Artic
Chang
parse
dis
Selected
Icon</w>
comm
lang</w>
PAT
ated
ustom
oper
Qual
build
ress
Ori
origin
DataContext</w>
mark
Web
aven
SU
time
temp
Expression
Notification
ner
can
Table</w>
nc
filter
ft</w>
ableDynamicQuery</w>
Contr
Item
odes</w>
Buffer</w>
Version
target</w>
Elements</w>
Length</w>
model
Object
Access
path
property
Memb
ki
>=</w>
Link
uble</w>
Files</w>
MB
Activity
fig</w>
Dom
CON
Annotation
Func
All
ments</w>
unt
View
error</w>
Ad
let</w>
asset
Document</w>
create</w>
ION</w>
finally</w>
Number</w>
char
settings</w>
byte</w>
sec
Color</w>
iterator</w>
ref
Tag
tern</w>
Description</w>
map</w>
tas
Status</w>
module</w>
Listener</w>
af
Get
format</w>
Structure
Language
Variable
myProject</w>
Target</w>
no
remove</w>
Variable</w>
Info
ative
Filter</w>
descriptor</w>
line
Mode</w>
ql
emeDisplay</w>
collec
Origin
ind</w>
CH_
inc
module
version</w>
Models</w>
FINDER_
Applic
EX
Role</w>
Url</w>
source
ft
Libr
assert</w>
uuid</w>
URL
Param
Le
next</w>
Helper</w>
dec
Match
KEY</w>
Debu
Pr
ith</w>
Change
Serializ
YP
Common
First</w>
Exter
jects</w>
className</w>
Task</w>
kf
search
Wor
gr
Pair</w>
Permission
Option
getB
Thread
To</w>
ex</w>
TYP
ame
Time</w>
Im
imple
Schem
ll
PRO
ElementType</w>
older
myC
trans
un</w>
Artifac
Selected</w>
root</w>
ack</w>
MetaData</w>
url</w>
cla
substring</w>
load
SQ
Original
Lab
Collections</w>
Conver
source</w>
Read
bloc
Log
gener
Registry</w>
Level</w>
entity
alog</w>
ler
assert
ps
fix
ion</w>
Preferen
Soap</w>
extend
ore</w>
table</w>
Point</w>
tings
acti
lar
mbo
arn
Annotation</w>
node
Definition
Manager
+=</w>
ke</w>
action</w>
kflow
Polic
Ow
ingClass</w>
AB
Abstr
Maven
pr
ET
vari
lob
Iterator</w>
conver
next
CacheModel</w>
ute
from
uth
original
stit
getFile
Bin
curr
Stream
Non
Tree</w>
table
position</w>
Factory
getF
cs</w>
Role
Container</w>
line</w>
ortc
Last</w>
brea
ClassName</w>
invo
led
voc
byte
iki
esp
ocialActivity
sed</w>
tre
logger</w>
Deployment
Reader</w>
claz
Mark
Descrip
Remote
ax
SP
Do
WIT
Pres
ical
selected
ServiceUtil</w>
parameter
EMPT
Session
getPersistence</w>
unds</w>
sEntry</w>
Branch</w>
templ
Rel
Processor</w>
ackgro
Is
Modifier
ando
oin
nch
reate
ature</w>
Com
Abstract
StartOffset</w>
Target
orted
clazz</w>
Tit
nchron
sing
Journal
Resolve
buffer</w>
Doc
opp
ITY_
ib
wr
LAS
case</w>
ity</w>
open
sWith</w>
ID</w>
ance
PsiExpression</w>
Template</w>
EC
column</w>
parameters</w>
serviceContext</w>
Cli
query
target
Branch
SI
ClassLoader</w>
Sty
Order
New
gan
ad</w>
Id_
CH
direc
Child</w>
PAR
getContain
Selection
TokenType</w>
Inspec
getParent
Ho
Holder</w>
If
incip
mar
Locale</w>
contin
ReferenceExpression</w>
View</w>
ganiz
CE</w>
ulti
max
Sign
Diff
JSO
Control
DO
Ali
DI
cope
Identifier</w>
Unit</w>
range</w>
debu
base
Config</w>
ArgumentException</w>
Sec
Look
Ter
PATH_
if
Book
Track
IllegalArgumentException</w>
tition
HashMap</w>
nchroniz
Document
token
content</w>
Imm
finder
MO
Map
cro
ble</w>
getKey</w>
isIn
Prox
name
TreeNode</w>
Frag
continue</w>
Complet
FileEntry
totyp
Build
Princip
Row</w>
Parent</w>
point</w>
ModelNode</w>
Handle</w>
ffer
ENT_
configuration</w>
getCompanyId</w>
andid
Simple
From</w>
row</w>
son
show
files</w>
ution
Qualified
content
Chan
factory</w>
getChild
extends</w>
LE_
VI
MA
build</w>
Validator</w>
ly</w>
syst
Injec
finderCache</w>
Throw
Error</w>
Metadata</w>
stitutor</w>
dk
ENTITY_
ity
delete
strain
ults</w>
eturn
Thread</w>
opping
super
getService</w>
ame</w>
Repository</w>
Load
Objects</w>
update</w>
Wh
folder
Format
Uuid</w>
Revision
HO
JB
Start</w>
tryId</w>
RA
reader</w>
any
Coun
XM
Page</w>
utt
aw
cap
use</w>
ES</w>
Rule
models</w>
ket
Usage
External
ties
Cel
Shard
Highlight
entry
memb
count
component
war
TO
manag
WITH_
ody</w>
Filter
clude
Bind
AST
Settings
Registr
Column</w>
bean
response</w>
argument
getSelected
params</w>
dk</w>
dition</w>
atus
replace
ure
ected
us
statement</w>
RAC
width</w>
Proble
request
FA
ActionableDynamicQuery</w>
Date
aret
Prototyp
sets</w>
uid
attribute
Obj</w>
valueOf</w>
classPK</w>
SE_
STAT
Output
User</w>
break</w>
portlet</w>
JSON
TreeUtil</w>
A_
Case</w>
cache
PO
tries</w>
HashSet</w>
croll
double</w>
NO_
Title</w>
Display
classNameId</w>
connec
Sequ
Application
Width</w>
com
Change</w>
Immutable
sTo
Window</w>
getData</w>
as</w>
Checker</w>
order
dr
righ
Shortc
exist
close
CallExpression</w>
tern
run</w>
cript
Principal</w>
fr
vs
ont
run
Fields</w>
TI
AG
themeDisplay</w>
nel
Clu
Pl
FINDER_PATH_
persist
ence
Repository
ifier</w>
Focu
ED</w>
aph
ved
Update
VAL
Uuid
endar</w>
Cop
OperationException</w>
Int</w>
lobal
EL
description</w>
ms</w>
assword
Category
gger
Mat
Clo
project
Owner</w>
osi
FileEntry</w>
spli
mapp
Collection
actionRequest</w>
Bytes</w>
Arrays</w>
Base
erge
tional
Parser</w>
ili
Icon
Row
Writer</w>
ingFile</w>
object</w>
http
categor
<=</w>
soapModels</w>
Delet
STAN
Inspection
render
Provider
rs</w>
bytes</w>
Result
Modifier</w>
Mapper</w>
SQL
stin
Pattern</w>
aly
addAll</w>
Label</w>
own
Package</w>
que
isSelected</w>
matcher</w>
Custom
Library
task
provi
Named
types</w>
HttpServlet
Mapping</w>
ATT
Cluster
Plugin
COM
system
ec</w>
Category</w>
scope</w>
elements</w>
BY_
Renderer</w>
item</w>
tag</w>
Record
sions</w>
fore
straints</w>
ActionEvent</w>
Window
uti
DEFA
getGroupId</w>
DEFAUL
Permission</w>
orrec
Ex</w>
properties</w>
alid</w>
org</w>
first
Function</w>
cli
K_
ASTNode</w>
Fin
PsiTreeUtil</w>
UE</w>
ture</w>
ref</w>
service</w>
Article
options</w>
nal</w>
CLAS
tors</w>
point
user</w>
metadata</w>
getDefault
edModel</w>
getPres
calendar
its</w>
langu
avi
SS
ClassType</w>
debug</w>
util</w>
ade</w>
INSTAN
Entity</w>
Page
sum
sq
Preferences</w>
Transaction
ServiceName</w>
shard
Runtime
Link</w>
Ign
Prefix</w>
word</w>
Nodes</w>
compar
cation</w>
Ref</w>
getPath</w>
Initializ
Location</w>
getBy
Join
Server
Strateg
resolve</w>
Construc
Container
0x
invoke</w>
OfType</w>
contains
pan
Handler
avig
view
abul
EndOffset</w>
modifi
Command
clear
Git
LE</w>
Pane</w>
PRE
IN_
Multi
Prog
handler</w>
ain</w>
getStartOffset</w>
height</w>
Math</w>
SystemException</w>
Auth
virtualFile</w>
call
journal
ho
End</w>
reference</w>
empty
reference
ff</w>
des
Language</w>
sed
java
Dialog</w>
synchroniz
Modified</w>
tach
toArray</w>
Det
lag
Namesp
amp</w>
First
Height</w>
fileName</w>
copy
parameter</w>
ub</w>
Head
ferred
replace</w>
messag
pos</w>
Extension</w>
Fix</w>
Dependency</w>
getParameter
bin
NO_SU
children</w>
Valid</w>
regis
NO_SUCH_
Suppres
startsWith</w>
mbol</w>
_NO_SUCH_
psiElement</w>
ENTITY_WITH_
_NO_SUCH_ENTITY_WITH_
first</w>
Visitor</w>
Box</w>
AV
present
cl
correc
ive
BRAC
ren
DataKeys</w>
Pu
libr
INSTANCE</w>
output
current</w>
Debug
Artifact
Uuid_
compare
Sequence</w>
Assignment
ENT</w>
Columns</w>
ROO
Throwable</w>
Policy</w>
StateException</w>
Lookup
ackground
res</w>
Graph
ight
ge</w>
qual</w>
Fo
execute</w>
Liter
Style
DAT
UserId</w>
pack
nap
accep
Status
ir
Av
Tab
TYPE_
Actions</w>
clud
presentation</w>
COUN
Show
CLO
Classes</w>
Repl
Methods</w>
initializ
Create
X_
Ignore
LOG
deployment
Modified
ps</w>
Resolver</w>
blog
space</w>
viron
Calendar
secon
manager</w>
findByPrimaryKey</w>
layout</w>
Article</w>
extr
PER
anch
Marker</w>
AnActionEvent</w>
tang
InputStream</w>
Butt
Sli
openSession</w>
ING</w>
Commit
psiFile</w>
vn
Invalid
context
napsh
men
returnObj</w>
closeSession</w>
QualifiedName</w>
folderId</w>
Sql
getUserId</w>
Messages</w>
IllegalStateException</w>
Ide
anges</w>
Bounds</w>
Stats</w>
getLast
Wiki
sql</w>
Popu
print
viou
Af
LAN
Return
her
31</w>
Input
quire
arnings</w>
prefix</w>
buf</w>
Invoc
char</w>
Range
Operation</w>
serializ
cluster
Buffer
Avail
ED_
Mo
correct
synchronized</w>
Kind</w>
Workflow
ched
riend
LA
Composi
wit
val</w>
indexOf</w>
Structure</w>
arch</w>
tangle</w>
factor
EntryId</w>
dic
Entries</w>
struction</w>
Declar
processException</w>
back</w>
riendly
cf
Member
Config
property</w>
other
ception
getElement</w>
BUT
FolderId</w>
EMPTY_
variable</w>
CT
Sing
annotation</w>
charAt</w>
Color
Base</w>
SER
Execution
sert
ated</w>
True</w>
ilder
ick
stre
Fragment</w>
Implement
DEFAULT_
oolean
candid
block</w>
descrip
space
Intercep
Sync
Parent
GER</w>
Signature</w>
token</w>
getLine
Serializable</w>
ong
AP
ls
Update</w>
role
operation</w>
with
ints</w>
rel
Constraints</w>
0000
psiClass</w>
Member</w>
Expando
isValid</w>
title</w>
getType
ByteBuffer</w>
getDocument</w>
fault</w>
getId</w>
cc
adata
primaryKey</w>
port</w>
getColumn
json
SuppressW
getTextRange</w>
attribute</w>
SuppressWarnings</w>
filter</w>
Visible</w>
resolved</w>
Package
getPre
Paths</w>
Logger</w>
Incorrect
col</w>
Next
expr</w>
getMessage</w>
dependenc
getElement
getText
getString</w>
socialActivity
hasNext</w>
LocalServiceUtil</w>
dataContext</w>
location</w>
ARRA
ach</w>
Properties
template
BRACE</w>
gument</w>
AL_
artifac
legate</w>
copy</w>
XmlTag</w>
Dir
_original
Call</w>
Global
bind
gin</w>
ory
portletDataContext</w>
Image</w>
Attach
IncorrectOperationException</w>
play
portImport
map
back
ported
Calendar</w>
Symbol</w>
Directory
JEC
tree
Rectangle</w>
Organiz
en</w>
istic
Binary
LOGGER</w>
max</w>
repository</w>
ages</w>
present_
TR
ING_
RIBUT
Agg
Problem
Fe
Evalu
uto
Strategy</w>
CLOSE_
JComponent</w>
Empty
Image
usag
PsiClassType</w>
Brea
address</w>
tag
tool
Aggreg
LayoutSet
provider</w>
Connection</w>
PsiModifier</w>
ffset
Refactor
convert
entrySet</w>
exten
func
ATTRIBUT
very
init
Find
illi
handle
ont</w>
block
My
ating
Spli
CE_
locale</w>
Completion
xml
Virtual
Linked
getFile</w>
Environ
Open
container</w>
annotation
one
ouse
COUNT_
amp
Comment</w>
min</w>
TH
CURL
web
Prim
umer
schem
UUI
process</w>
Stor
ST_
myEditor</w>
ile
holder</w>
plugin
ard</w>
sig
ddmForm
array
Substitutor</w>
Soap
processor</w>
Matcher</w>
Roots</w>
Adap
AL</w>
change</w>
MethodHandler</w>
itial
session
adle
Space
Registration</w>
uld
CONT
Facade</w>
ModifiedDate</w>
toSoap
ATION</w>
MethodCallExpression</w>
Grid
MethodKey</w>
use
POR
display
servlet
Publi
getAttribute</w>
write</w>
format
Svn
Mapping
methodKey</w>
urs
Selection</w>
propertyName</w>
Lim
methodHandler</w>
pa
STR
HttpServletRequest</w>
setText</w>
getAttribute
append
PsiElement
input
pol
dynamicQuery</w>
For</w>
left</w>
sert</w>
urity
Charac
Client
getRoot
White
Condition</w>
getAll
Mouse
len</w>
F_
ask</w>
Frame
idx</w>
_set
CURLY_
ARRAY</w>
ual
Cell
CURLY_BRACE</w>
ling</w>
Write
Stats
permis
work
ables</w>
SY
ments
sol
expression
ali
getCurrent
Analy
httpPrincipal</w>
isModified</w>
ATION_
TokenTypes</w>
Input</w>
Mutable
ACT
previou
task</w>
ud
sync
import
portletId</w>
getParentOfType</w>
store
chan
CLOSE_CURLY_BRACE</w>
pattern</w>
Level
highligh
query</w>
patch
Break
setAttribute</w>
assertTrue</w>
PsiField</w>
Command</w>
myCurrent
BO
string
XML
panel</w>
findByG_
Getter
layoutSet
to</w>
ern
Proxy
owner</w>
Equal
CLASS_
pare
tories</w>
MI
ArrayUtil</w>
Metadata
Changed</w>
_NO_SUCH_ENTITY_WITH_KEY</w>
ique
getEndOffset</w>
RuntimeException</w>
lid</w>
split</w>
Children</w>
ould
Stand
..
Deli
Output</w>
Generator</w>
clone</w>
OutputStream</w>
getContainingFile</w>
Statistic
ableActionableDynamicQuery</w>
Connector
result
Hom
editor
names</w>
ret
...</w>
each</w>
Soc
W_
ibern
Format</w>
Navig
message
instance</w>
parator</w>
Internal</w>
repository
startOffset</w>
workflow
Last
Host
loat</w>
aret</w>
jb
setEnabled</w>
warn</w>
act</w>
ket</w>
estamp</w>
UIUtil</w>
Spec
ant
getPortlet
qualifier</w>
actionableDynamicQuery</w>
ST</w>
ting</w>
inter</w>
Fail
ave
Voc
Scope
PsiJava
oin</w>
ParamUtil</w>
revi
um</w>
SocialActivity
Wrap
ServiceContext</w>
arguments</w>
Vocabul
from</w>
Sib
doc
Standard
Builder
Params</w>
generate
Arguments</w>
icator</w>
getPrimaryKey</w>
ROOT_
Types
val
face</w>
Dimen
Bit
ility</w>
Progress
containingClass</w>
FOR
flic
PsiReferenceExpression</w>
getRe
Presentation</w>
Dependency
Ne
lev
Props
wind
Tran
member</w>
Lock
Spec</w>
page
Company
FileUtil</w>
removeResult</w>
Enc
tree</w>
Dispo
Bean</w>
getContent
pair</w>
riter
sList</w>
QU
Rad
Ant
quired
LIN
DDMForm
ModifierProperty</w>
stream</w>
Pattern
Util
tocol</w>
ContainerUtil</w>
illis</w>
ause</w>
Phas
ION
thread
right</w>
ReferenceElement</w>
Host</w>
error
Post
form</w>
document
escap
getPresentation</w>
Copy
Cvs
artic
edi
FilePath</w>
body</w>
Stag
listener</w>
look
lags</w>
Descriptor
Refactoring
Process</w>
Shopping
da
order</w>
Scroll
CodeStyle
template</w>
toryId</w>
Pos</w>
TextAttributes</w>
Debugger
Counter
Converter</w>
PsiType
getVirtualFile</w>
shopping
Quick
Shortcut</w>
include
change
head
Binding</w>
VER
getElementType</w>
We
Configurable</w>
SPAC
bit
Client</w>
det
Lock</w>
Pol
ates</w>
getFirst
ized
ifier
noun
TYPE</w>
ord</w>
emptyList</w>
isAssign
Criter
Edit
Has
info
config
Extensions</w>
R_
Connection
ep
injec
Engin
ImmutableList</w>
nounce
partition
NAME_
ponse
lared
CE
Script
construc
PsiReference</w>
hs</w>
Statement
Composite
object
wiki
Args</w>
Generic
Super
methodName</w>
Ste
isual
napshot
columns</w>
ic</w>
Persister</w>
ignore
package
Primary
Before
EMPTY</w>
swit
Cla
Fix
Environment</w>
Id_PrevAndNext</w>
lab
ThemeDisplay</w>
Graphic
compare</w>
ResolveResult</w>
mask</w>
sEntry
Fold
validate
MD
LOC
Order</w>
Instruction</w>
o1</w>
Prototype
getComponent
face
custom
CommonDataKeys</w>
PropertyName</w>
Cap
Comparing</w>
Unit
Rout
FINDER_PATH_COUNT_
compareTo</w>
Executor</w>
Nls</w>
lock
param</w>
FET
OR</w>
eck</w>
FactoryUtil</w>
subs
we
signe
Hint</w>
getComponent</w>
U_
organiz
visitor</w>
Interface</w>
trim</w>
ibernate
Tracker</w>
version
o2</w>
getNode</w>
nodes</w>
Header</w>
Password
Address
Double</w>
getDescription</w>
Int
Warn
bund
Que
elt
ationException</w>
dir</w>
prepare
Social
Controller</w>
MutableTreeNode</w>
asList</w>
keySet</w>
PsiUtil</w>
Tracker
isEnabled</w>
writer</w>
isDebug
getLong</w>
mbol
getLocal
consum
calc
equal</w>
kaleoTask
sManager</w>
ROOT_LOGGER</w>
VALUE</w>
isDebugEnabled</w>
Fai
LU
sCount</w>
atic
stat
Namespace</w>
Brow
TER
XContent
prev
ded</w>
load</w>
_setOriginal
extract
ge
Transform
Perform
Border
Var
Proxy</w>
input</w>
Partition
DefaultMutableTreeNode</w>
ph
move
Channel</w>
JavaPsi
FETCH_
Friendly
resh
complet
classLoader</w>
Prototype</w>
CharSequence</w>
sr
Tup
FileType</w>
hasModifierProperty</w>
Bookmark
Expr</w>
Pla
apply
permission
ERRO
getQualifiedName</w>
Position
Identifier
JournalArticle</w>
persister</w>
icro
Only</w>
getLangu
Stub</w>
getEx
getSub
JAV
Jps
supported
lag</w>
Metri
UserGroup
bounds</w>
Number
Items</w>
ld
reset
sic
iler
selection
Trash
coun
endOffset</w>
Work
myM
Char</w>
--</w>
Sibling</w>
parser</w>
FINDER_PATH_FETCH_
FINDER_PATH_FETCH_BY_
Vcs</w>
Scheme</w>
countBy
Encod
icon</w>
getLayout
Constructor</w>
page</w>
Argument</w>
NE</w>
ache</w>
aretModel</w>
Rect</w>
PsiMethodCallExpression</w>
apache</w>
SV
actionId</w>
onical
getSelection
nodeId</w>
GRO
Destin
GetterUtil</w>
anchor</w>
vcc
vccVersion</w>
Sdk</w>
Option</w>
selected</w>
entity</w>
Millis</w>
Storage
utor
equals
mart
JSONObject</w>
getClassLoader</w>
Frame</w>
ddmStructure
eners</w>
fore</w>
getChildren</w>
getTree
Dimension</w>
main
Space</w>
resource</w>
role</w>
SIZ
Conso
ters</w>
merge
Shortcut
book
Focus</w>
destin
getProperty</w>
ggest
Character</w>
JavaPsiFacade</w>
code
BLAN
Default</w>
sure
Schema
getContainingClass</w>
isNull</w>
erializ
Bound</w>
returnValue</w>
InstanceToken</w>
str</w>
Button</w>
clear</w>
close</w>
InstanceToken
words</w>
Insi
Hibernate
cript</w>
FileName</w>
Stub
Optional</w>
Blog
|=</w>
Part</w>
should
Use
mapping</w>
ursor</w>
Literal
expected
Hi
dicate</w>
directory</w>
tokenType</w>
ClassNames</w>
RuleGroup
MET
PathAddress</w>
cket
fs
Expr
After
SearchScope</w>
fieldName</w>
Policy
Store
ct
Replace
output</w>
cache</w>
>></w>
prox
portletRequest</w>
lock</w>
PU
Single
IElementType</w>
ue
afe
db
GrExpression</w>
ackground</w>
isDirectory</w>
IC</w>
Sdk
Gradle
Function
Artifact</w>
ies
Performed</w>
Current
MAX_
rift</w>
Subsystem
af</w>
dlFile
language</w>
null
emory
ALL</w>
ingException</w>
hash</w>
SVN
expando
Changes
getResource
Region</w>
assword</w>
containsKey</w>
merg
select
ote</w>
deploymentUnit</w>
uture</w>
RemoteException</w>
Search</w>
ml</w>
host
zer</w>
eve
client</w>
Alias
si</w>
Size
fil
LED</w>
Channel
Auto
after
Slice</w>
solute
Cached
abled
URI</w>
Persistence
Changes</w>
ss
place</w>
getReference
arg
M_
right
Exception
icroblog
mark</w>
collection
collect
namesp
Preferences
Boolean
MDR
command</w>
Font
ingContext</w>
Low
defini
unk
Adapter</w>
JavaTokenType</w>
condition</w>
kip
JECT</w>
auth
library</w>
Operator</w>
Runn
Log</w>
Des
isAssignable
aint
EJB
OR_
C_C_
ked</w>
Cre
KaleoTask
getDec
vFile</w>
mdr
NonNls</w>
sMap</w>
ACH
SUB
FileSystem</w>
config</w>
_present_
sli
any</w>
Description
getOriginal
accept</w>
Portlet</w>
left
Loader
getKey
ade
cei
getPreferred
led</w>
uccess</w>
url
ime
ln</w>
stor
WOR
Renderer
validate</w>
MOD
Listener
PsiParameter</w>
IG
Invocation
endent
call</w>
password
getDisplay
SC
getSh
returnType</w>
Logical
Ren
relative
ide</w>
erarch
ize</w>
Internal
Smart
results</w>
Font</w>
Active
Em
Injection
lugin</w>
inst
social
getCreate
By</w>
Bytes
Cance
ENAB
AR</w>
entable
ARG
getNext
ect
actionPerformed</w>
Native
edModel
io
ails</w>
ChildRole</w>
Hist
Under
Profile</w>
this
mon
adv
PermissionChecker</w>
size
Publish
Hg
Rep
rule
rep
XPath
level</w>
Jar
existing
frag
de</w>
SYST
Cell</w>
Anch
methods</w>
item
tml
Found
ledException</w>
licit
BLANK</w>
PortalUtil</w>
Timer
ateLayout</w>
Merge
Recent
isAssignableFrom</w>
FromText</w>
Highlighter</w>
DLFileEntry
tableName</w>
selection</w>
registry</w>
Services</w>
member
TIM
folder</w>
Extr
Facet
ators</w>
Ph
Lower
dlFileEntry
Prefix
Ance
uplic
permissionChecker</w>
Are
PRI
ClassPK</w>
clearCache</w>
language
resolved
DDL
Count
bound
Flag</w>
require
filePath</w>
aging
previous
vity</w>
Popup
second</w>
JPanel</w>
Alias</w>
ural
Disc
Vo
HT
getModel</w>
println</w>
Mar
infos</w>
titu
DLFile
Reflec
Bitmask</w>
Background
getProperty
Headers</w>
email
registr
Syn
PsiVariable</w>
tro
fields</w>
portal
portletURL</w>
Comment
Plan
getSup
ELEM
Transi
Exist
soci
PyExpression</w>
endsWith</w>
ordin
ulate
ChangeList</w>
Setting</w>
exists</w>
Subs
getModule
estion
total
notifi
categoryId</w>
Initializer</w>
ffix</w>
Available</w>
EM_
ModifierList</w>
thrift</w>
sBundle</w>
agg
numb
Men
PsiSubstitutor</w>
PsiDirectory</w>
tr</w>
userGroup
Socket
switch</w>
Locale
Clause</w>
cur
OrderEntry</w>
getCaretModel</w>
leton
repositoryId</w>
getClassNameId</w>
cel
UsageInfo</w>
defaultValue</w>
activity
getInd
getCreateDate</w>
Conversion
Lex
second
enth
Statistics</w>
Parse
ResourceDefinition</w>
uble
MouseEvent</w>
delete</w>
Security
Combo
keys</w>
Mappings</w>
sql
Condi
Back
access
Inet
Serializer</w>
os</w>
MAR
points</w>
TreePath</w>
low</w>
REA
setM
dom
0_</w>
qualified
UI</w>
Top
Remove
getTable
Dispatch
itional
Stack
Field0_</w>
bitField0_</w>
alec
raw
Unique
finis
avail
Unsupported
doc</w>
join
Delegate</w>
setCompanyId</w>
candidate</w>
extension</w>
record
Style</w>
getEntity
join</w>
Annotations</w>
ternal
dialog</w>
scope
sIn
izer</w>
var
ExternalSystem
all</w>
dir
inner
last</w>
intValue</w>
ority</w>
indi
Indent</w>
TA
<<</w>
oi
Plat
ide
bookmark
num
ential
iter</w>
ToolWindow
Hierarch
sBy
mySettings</w>
Results</w>
commit
Domain</w>
WikiPage</w>
Caret</w>
code</w>
getAttributeValue</w>
Symbol
range
time</w>
getT
paths</w>
ByG_
GROU
PortletRequest</w>
prev</w>
Store</w>
server
Primiti
ProblemDescriptor</w>
ony
remote
HE
substitutor</w>
isInstance</w>
Rule</w>
getOffset</w>
before
IgnoreCase</w>
Implementor</w>
Candid
LowerCase</w>
isSet
dbc
op</w>
eet
Seg
Copy</w>
asic
allow
Id_Last</w>
Dependencies</w>
JAVA_
plid</w>
Parser
Infos</w>
old</w>
Choo
ENABLED</w>
findByUuid_
CheckBox</w>
VirtualFile
DDMStructure
searchContext</w>
CACH
send
ES_
DocumentManager</w>
prim
Phase</w>
PAG
RequestException</w>
Popup</w>
rop
Ge
fail
matches</w>
Only
putResult</w>
Selector</w>
anonical
EMPTY_ARRAY</w>
Interceptor</w>
COMM
IM
onymo
ature
Library</w>
FF
unk</w>
portImportConfiguration</w>
article
execute
verage
Defin
Callback</w>
Timeout</w>
ship
Word
conc
channel</w>
getGroup
ency
faces</w>
Zone</w>
keyspace</w>
insert
Runner</w>
getName
trash
getO
enabled</w>
FIEL
getUuid</w>
apply</w>
WebKeys</w>
lim
SQLException</w>
setValue</w>
Bag
creen
nown
Counter</w>
SST
CodeReferenceElement</w>
actual
myContext</w>
References</w>
Enum
tition</w>
fileEntry</w>
Safe
Brid
binder</w>
getJ
offset
thon
ement
named
script
Allow
fileType</w>
box
comment</w>
getDataContext</w>
sort
TRUE</w>
PrimaryKey
Bound
amil
NONE</w>
toSoapModels</w>
alog
Declaration</w>
Extension
ationId</w>
Usage</w>
parse</w>
link
ClassNameId</w>
parentFolderId</w>
Match</w>
Operand</w>
ait
targetClass</w>
Deprec
initializer</w>
paint
event
Spaces</w>
trace</w>
Queue</w>
Dri
lex
AD
Active</w>
edValue</w>
Separator</w>
md</w>
configuration
Utili
ond
Options
FIX</w>
core
stats</w>
myFile</w>
owner
classes</w>
getModel
SimpleTextAttributes</w>
host</w>
HighlightInfo</w>
ability</w>
amb
nouncements
indexableActionableDynamicQuery</w>
SHO
BranchId</w>
Deploy
Scop
ationContext</w>
Literal</w>
junc
ArgumentList</w>
ING
userNotification
Listeners</w>
Console
sched
evalu
view</w>
INT</w>
isNotNull</w>
getSource</w>
udit
Stack</w>
SERVI
Border</w>
Compiler
getReturn
scroll
Values
Available
ActionGroup</w>
VERS
sh</w>
Split
STATU
Icons</w>
recent
getUserName</w>
myCb
BinaryExpression</w>
ON
ector</w>
XML_
Assert</w>
wrap
AnAction</w>
setName</w>
Side</w>
getMethod
Response
header</w>
Conflic
round</w>
throw
description
Byte</w>
Namespace
metaData</w>
beanName</w>
SH
Server</w>
QName</w>
getModifiedDate</w>
stor</w>
getVersion</w>
analy
Access</w>
getPresentable
deserializ
MBMessage</w>
SYSTEM_
duc
SIZE</w>
LET
Url
bean</w>
grade
Html
Background</w>
lush
Bundle
ia</w>
Get</w>
Binder</w>
Meta
eContext</w>
isWarn
NotFound
Header
aries</w>
Lines</w>
qName</w>
portletPreferences</w>
Panel
full
Rows</w>
Stro
sWith
BorderLayout</w>
label</w>
shi
SQL</w>
connection</w>
abase
window</w>
METHO
HibernateException</w>
Absolute
000000
flags</w>
prop
Static
LiteralExpression</w>
-></w>
declar
Tuple
Disposed</w>
EP_
elta</w>
Static</w>
uri</w>
CodeBlock</w>
float</w>
transl
invoke
10</w>
Move
insets</w>
prot</w>
active</w>
Present</w>
isWarnEnabled</w>
FILE_
Local</w>
EXT_
kind</w>
Home</w>
eetup
myTree</w>
FailedException</w>
PORT
containingFile</w>
acy
fieldType</w>
Equals</w>
Cursor</w>
zy
unnel
Scal
ssi
card
PROPER
polls
Id_First</w>
AR_
Long
command
Iterable</w>
alect</w>
function</w>
Future</w>
Browser
ample
Visual
oriz
Email
cket</w>
Indicator</w>
proble
CommonClassNames</w>
Files
alias
Runner
tries
Decor
Variables</w>
transform
Def</w>
Pointer</w>
tocol
emon
signature</w>
library
UT_
Profile
Insets</w>
own</w>
split
Point
cr
DE_
addDependency</w>
ERROR</w>
0x000000
delegate</w>
Permissions</w>
Support</w>
Tunnel
Before</w>
chi
draw
Button
variable
Groups</w>
ite</w>
modifier
artifact
acro
actions</w>
LookupElement</w>
LayoutRevision</w>
Tasks</w>
faults</w>
cause</w>
toLowerCase</w>
Metrics</w>
Sw
ED
Region
vcs
andom
tif
New</w>
SE</w>
IV
MODUL
isS
NE
UserName</w>
getParameters</w>
Timestamp</w>
Relative
resetOriginal
NodeId</w>
Core</w>
stub</w>
Modification
Exprent</w>
getEditor</w>
resetOriginalValues</w>
Terms</w>
InvalidRequestException</w>
GridBag
getTokenType</w>
aggreg
GrReferenceExpression</w>
Authenti
suggest
Memory
GlobalSearchScope</w>
container
background
myIn
getE
ail</w>
angement
Expressions</w>
Anonymo
multi
ors</w>
tive
getParameterList</w>
Specifi
InetAddress</w>
Synchroniz
GroovyTokenTypes</w>
Booking</w>
Usages</w>
PATH</w>
getSettings</w>
artifact</w>
privateLayout</w>
LanguageLevel</w>
_get
Arrangement
Invocation</w>
ipi
make
Formatter</w>
tom
Relation</w>
ResultSet</w>
color</w>
HttpPrincipal</w>
La
DeploymentUnit</w>
ParameterTypes
Anchor</w>
NOT_
Parenth
Packaging
Box
herit
TunnelUtil</w>
jsonObject</w>
Finder
NotFoundException</w>
Place
Protocol</w>
buffer
TH</w>
Associ
getSize</w>
attributeName</w>
virtual
Utilities</w>
Sched
option
userObject</w>
getIndex
Pointer
original</w>
ility
tab
ANG
skip
Hash</w>
post
UserNotification
getTextLength</w>
Full
One
Discus
ess
ddl
DS</w>
Indent
Gad
Compile
Names
edia
igr
Gadget
ADD
inputStream</w>
ctx</w>
Snapshot
InspectionGadget
Modifiable
Es
Constant
Choi
wrapper</w>
initial
Stroke</w>
OperationFailedException</w>
Managed
Python
Dig
fetchByG_
LIC
Binding
incre
Equal</w>
getSource
Components</w>
qualifiedName</w>
ALL_
IONS</w>
irro
PsiManager</w>
ParameterList</w>
FO
getPack
Doc</w>
InstanceId</w>
wrapp
OperationContext</w>
ViewProvider</w>
Activity</w>
Buffered
UtilCore</w>
encod
Runnable</w>
def</w>
UUID_
active
Big
KeyEvent</w>
jar
Collector</w>
getService
Reflection
success</w>
ddmFormField
s2</w>
Max
Edge</w>
Predicate</w>
getCanonical
wrap</w>
getSuper
locator</w>
Extend
Rest
Registry
ABLE_
Form</w>
Limit</w>
00</w>
Pool
Offset
anif
PARAM
py
getResult</w>
Attachment</w>
sertion
struct</w>
caret
assign
Errors</w>
ench
OPT
Wild
getIcon
PsiElementFactory</w>
revision</w>
Primitive
ActionKeys</w>
REF
SOUR
VcsException</w>
Engine
getClassName</w>
global
PL
STAR
spec</w>
changes</w>
Organization</w>
getLanguage</w>
check</w>
Priv
defin
binary
BE
top
ConfigurationException</w>
STATIC</w>
match</w>
marker</w>
setSelected</w>
Recipi
STATUS_
lat
ree
RevisionNumber</w>
intercep
::</w>
UnsupportedOperationException</w>
PROJECT</w>
myPanel</w>
getIcon</w>
ory</w>
Basic
s1</w>
Use</w>
Failure</w>
TypeId</w>
parator
BlogsEntry</w>
ced
getQual
PyClass</w>
Param</w>
ambda
ta
Executor
getValue
Lexer</w>
dependency</w>
'.
Assignment</w>
'.'</w>
Merg
Configurations</w>
FriendlyURL</w>
UUID_G</w>
highlight
Fetch
lastIndex
getSimple
settings
JSONArray</w>
UP
Step</w>
NUL
asString</w>
ep</w>
Toolti
ret</w>
position
statements</w>
Mon
bar</w>
Sever
PsiJavaCodeReferenceElement</w>
ceptions</w>
sFor
findElement
toSoapModel</w>
fileEntryId</w>
available
Dfa
Platform
Enumer
CACHE_
Min
PsiBuilder</w>
Relation
filterFind
sl
lers</w>
LIST_
rup
INDE
'/
'/'</w>
Mis
top</w>
attributeValue</w>
fun</w>
HttpServletResponse</w>
AssignmentExpression</w>
getBase
Ran
base</w>
search</w>
usage</w>
identifi
bucket
dispo
Term
Details</w>
frame</w>
DLFileEntry</w>
external
getRow
vcs</w>
ify
ATOR</w>
atural
navig
bundle
findByC_
shardId</w>
newName</w>
applic
ur</w>
getState</w>
newInstance</w>
pattern
CUR
utation</w>
>>></w>
aint</w>
Area</w>
OB
ered
aph</w>
ormaliz
TableName</w>
Swing
alias</w>
ffsets</w>
Require
getStart
LogicalPosition</w>
roleId</w>
off</w>
PsiFile
StagedModel
Body</w>
Interval</w>
filtered
fire
JournalArticle
bind</w>
Notification</w>
getTarget
Geo
ending
Site
getAbsolute
mp</w>
Application</w>
sort</w>
CLASS_NAME_
Ejb
Indi
Folding
getManager</w>
Entries
PsiMember</w>
clude</w>
XmlFile</w>
Trace
SECON
BeanDefinition</w>
isDisposed</w>
Leaf</w>
pk</w>
YT
getProject
expand
getExtensions</w>
getMethod</w>
StringUtils</w>
elementType</w>
NewExpression</w>
ol</w>
Import</w>
PortletPreferences</w>
Comparis
GrType
0x0000000
statement
calendar</w>
pret
qualifier
Transaction</w>
ensure
getFactory</w>
bar
Persistent
REG
sure</w>
CategoryId</w>
Da
Consum
cluded
prefix
UUID</w>
Setting
After</w>
getMax
cell
getPath
ModelAttribute</w>
Helper
save
signed
getDisplayName</w>
entryId</w>
else
Visible
reground</w>
TO_
Enum</w>
chars</w>
prog
VAR
ine</w>
DataProvider
DefinitionId</w>
Patch
setParameter</w>
Tokens</w>
company
Ma
short
ejb
Selector
Interceptor
IfStatement</w>
Activ
board
PAC
Feed
site
timestamp</w>
layoutRevision</w>
collection</w>
mmary</w>
Owner
Location
Statements</w>
QueryBuilder</w>
ght
Move</w>
findChild
Delete
cvs
AUT
PyFunction</w>
DER</w>
getKaleo
ASK</w>
PREFIX</w>
ks
executor</w>
var</w>
register</w>
DISP
operand</w>
getError
notification
Watch
Schema</w>
Second
IL
ermin
ell
PK
DDMFormField
Lookup</w>
Select
category</w>
select</w>
COP
entries</w>
long
ools</w>
Ancestor</w>
singleton
edSize</w>
Accessor</w>
lookup
PsiExpression
DLFolder</w>
equalsIgnoreCase</w>
arg</w>
Optional
Dynamic
popu
Leg
resolveModelAttribute</w>
iled
convert</w>
sst
Transport
getLayout</w>
SUBSYSTEM_
sdk</w>
Control</w>
SPACE</w>
Lists</w>
Polls
client
desc</w>
Json
imum
Restri
Hint
checked
Graphics</w>
Progress</w>
Booking
findAll</w>
Home
Insert
head</w>
Mapper
Jdk
getElementFactory</w>
mime
ndi
lastIndexOf</w>
Anonymous
then
Term</w>
Aw
DDLRecord
setUserId</w>
getSession</w>
that
Validation
ecy
getOutput
S_EMPTY</w>
DDMStructure</w>
status
'\</w>
compute
cached
packageName</w>
ailing
Plugin</w>
getLe
Graphics
odo
uration</w>
Tags</w>
src
FINDER_ARG
FINDER_PATH_COUNT_ALL</w>
FINDER_ARGS_EMPTY</w>
S_PrevAndNext</w>
PsiStatement</w>
contr
Idea
IN</w>
Vfs
sStats
Gu
GridBagConstraints</w>
servletContext</w>
myLast
Analyzer</w>
Vocabulary</w>
Bar</w>
Patterns</w>
parser
getColumnBitmask</w>
IZ
phas
Framework
More
cast
ants</w>
image
napshot</w>
FINDER_PATH_COUNT_BY_
go
Symbols</w>
journalArticle
SLAS
CONFI
VALU
CharPool</w>
Void</w>
DISPLA
activ
CF
idd
chang
Bench
USE_
ATTRIBUTE_
omp
getBoolean</w>
Y_KEY</w>
ATTRIBUTES</w>
WAR
The
DDMTemplate
IC_
sport</w>
SSTable
indent</w>
DataSource</w>
fs</w>
Jav
ClassLoader
Menu
perform
ID_
stop
entityName</w>
constructor</w>
endpoint</w>
seg
Align
Routing
ComboBox</w>
dynamic
getReturnType</w>
calculate
items</w>
1_
allo
orted</w>
unit</w>
Restric
Duplic
protocol</w>
Tri
Record</w>
getWidth</w>
Soft
option</w>
getTh
indicator</w>
edExpression</w>
ddmTemplate
vm
rout
FINDER_CLASS_NAME_
structure
execution
getClassPK</w>
break
Nest
odes
puts</w>
ency</w>
vocabul
Failure
sFolder</w>
Std
icon
SqlType</w>
PsiTypeParameter</w>
Navigation
Breakpoint
ance</w>
ody
ObjectUtils</w>
Select</w>
getSec
Problem</w>
ine
comparator</w>
PRIMAR
COLO
getBody</w>
RadComponent</w>
overrid
default</w>
Insight
PropsValues</w>
DM
XContentBuilder</w>
Label
maven
generator</w>
consume</w>
Management
COMP
Coup
liferay
Ranges</w>
Idx</w>
PROPERT
SLASH</w>
red</w>
Upper
declared
FieldMapper</w>
sAnd
getPsiElement</w>
StandardTypes</w>
renderRequest</w>
className
Retur
INTER
fecy
Legacy
Float</w>
ire</w>
PARAMET
modifiable
getString
Hive
son</w>
DataHandler
getDDM
LANG_
TT
Analysi
VIE
namespace</w>
lav
EN_
boolean
fe
ize
LECT
sistency
Filters</w>
provider
getTemplate
SearchContext</w>
separator</w>
KEY
estion</w>
stanti
ID
Commit</w>
myElement</w>
renderer</w>
PsiDocumentManager</w>
BYT
just
aw</w>
schema
Endpoint
ATE</w>
modifierList</w>
dlFolder</w>
getPreferredSize</w>
Transl
mall
Deprecated</w>
QuickFix</w>
getTitle</w>
argumentList</w>
server</w>
criter
columnName</w>
Usages
Configurable
properties
reset</w>
getContext
ursi
ABLE</w>
recei
InspectionGadgetsBundle</w>
region</w>
rhs</w>
transaction
Routing</w>
Short</w>
RES
SET</w>
nest
myName</w>
destination</w>
getPsi</w>
textRange</w>
hel
Enabled
each
2D</w>
Famil
ArrayType</w>
ffec
ution</w>
PsiPackage</w>
TextField</w>
isD
getSimpleName</w>
SCRI
modules</w>
SUBSYSTEM_NAME</w>
DomElement</w>
serializer</w>
EME_
getStatus</w>
Expected
Focus
Declaration
Bas
Right</w>
SIT
VInt</w>
ared
Inten
indices</w>
find</w>
ync
Additional
rootElement</w>
dlFileEntry</w>
getHeight</w>
notif
rele
compute</w>
lhs</w>
Required
Out</w>
ayload</w>
place
ATE_
DDMTemplate</w>
Sources</w>
myFile
SPACE_
sn</w>
straint</w>
bot
conflic
Modifiers</w>
resourceBlock
ages
Port</w>
ExpandoBrid
ElementTypes</w>
TreeElement</w>
cription
AX
Matching
Attributes
TimeMillis</w>
HTM
32</w>
Fragment
round
stric
covery
AttributeValue</w>
ally
LanguageUtil</w>
cell</w>
DAV
PathComponent</w>
TypeDescriptor</w>
ReturnType</w>
keywords</w>
PRIMARY_KEY</w>
Destination</w>
Deleg
GrMethod</w>
ORY</w>
FieldName</w>
Limit
cessi
Flow
roots</w>
registration</w>
ColumnHandle</w>
ByName</w>
Audit
fetchByUuid_
SyncFile</w>
Destination
Sort
shal
FieldType</w>
Poly
fileEntry
BeanFactory</w>
dataId</w>
Reader
ddlRecord
fragment</w>
_NO_SUCH_ENTITY_WITH_PRIMARY_KEY</w>
setVisible</w>
MASK</w>
logical
invoc
Children
getIndex</w>
RootManager</w>
connector
category
ear</w>
Flag
MAX_VALUE</w>
isEmpty
lookup</w>
SHOW_
groupIds</w>
definition</w>
notNull</w>
req</w>
paint</w>
retri
header
Expand
getCategor
Daemon
getScope
hs
ableType</w>
Split</w>
pared
Script</w>
Engine</w>
getAbsolutePath</w>
ee
Equi
AssetCategory
Deletion
Keyspace</w>
ActionRequest</w>
Initial
export
Charset</w>
ele
assetCategory
fill
highlighter</w>
findElementAt</w>
DE</w>
Dic
image</w>
DELET
isInterface</w>
PsiAnnotation</w>
CacheEnabled</w>
LinkedHashSet</w>
Cast
END
INATION</w>
Question
Achi
Escap
Achieve
MAN
instruction</w>
getPermissionChecker</w>
EDIT
visible
Delivery
attr
Microblog
may
concat</w>
sCache</w>
Aliases</w>
oki
very</w>
ApplicationContext</w>
TableHandle</w>
les</w>
setCreate
site</w>
readFrom</w>
Case
utable</w>
common
sum</w>
Tool</w>
TimeZone</w>
Blocks</w>
getAs
refElement</w>
16</w>
Check</w>
relativePath</w>
MBThread</w>
ward</w>
font
vel
Sen
dependency
Vocabulary
revision
Criterion</w>
getOr
PortletURL</w>
now
argument</w>
PAGINATION</w>
FINDER_CLASS_NAME_LIST_
Cred
QuickFix
ess</w>
feray
ength
Injected
headers</w>
setColor</w>
cat
ranges</w>
core</w>
Account
Highlighter
cls</w>
Boo
unique
getNew
Chain</w>
superClass</w>
Dependent
hasFocus</w>
resh</w>
otal
ccurr
UB
atures</w>
Actions
ToUse</w>
NamedElement</w>
Impl
install</w>
Coverage
resolveResult</w>
ProgressIndicator</w>
NOR
du
Upgrade
butt
Te
oder</w>
control
udi
AN</w>
Composite</w>
atorFactory</w>
Inform
Roles</w>
Evaluator</w>
myIs
THEME_
Uri</w>
bed
this_present_
that_present_
Batch
exception
filterGet
WORD</w>
getRel
debug
getOperation
composi
Leaf
LIST</w>
timeout</w>
DATE</w>
LINE_
total</w>
destination
Accep
getLi
ByteArray
DEP
languageId</w>
random
I_
jection</w>
loader</w>
toString
setIcon</w>
SAP
handler
Caret
Defined</w>
iler</w>
ACTION_
vers</w>
EP_NAME</w>
direct
region
number
Committed
substitu
assetTag
getMvccVersion</w>
getLength</w>
SystemInfo</w>
tokens</w>
With</w>
lines</w>
Stamp</w>
ERS</w>
getDeclar
getServiceName</w>
ON_
real
acity</w>
contentType</w>
setCreateDate</w>
Constructor
pathAddress</w>
PARATOR</w>
constan
tom</w>
Constant</w>
frame
Getter</w>
getMin
getApplication</w>
findChildBy
Adv
Inline
myComponent</w>
EREN
getJava
texts</w>
Produc
CHANG
remain
EntryException</w>
Keyword</w>
psi</w>
mdrRuleGroup
PORT_
Scopes</w>
journalArticle</w>
entityCache</w>
WE
focu
Lambda
required
BU
Signature
getRoot</w>
spend
forName</w>
getGroup</w>
Elements
BOO
rc</w>
Shards</w>
IT_
known
FileBy
getUrl</w>
Finder</w>
auto
vice</w>
EntityName</w>
setGroupId</w>
dig
Go
NOW
LAY
Swit
uccess
Protocol
ediaType</w>
Rating
non
os
Face
Liferay
ToolWindow</w>
ECT
components</w>
down
getSelectionModel</w>
mode</w>
getAction
force
getSu
actionResponse</w>
deploy
singletonList</w>
function
AndGet</w>
AssetCategory</w>
VE</w>
LOA
methodExpression</w>
shortc
Wrap</w>
Awar
ApplicationManager</w>
El
snapshot
dependent
suffix</w>
Benchmark</w>
RefactoringBundle</w>
rows</w>
Organization
PublishDate</w>
ference
bundle</w>
ynamic</w>
currentThread</w>
ENTER</w>
ServiceController</w>
DISPLAY</w>
JM
Database
XmlAttribute</w>
myProject
COLU
ManagerImpl</w>
attr</w>
mbMessage</w>
dispose</w>
deserialize</w>
setSelected
constraints</w>
KNOW
clean
refresh
XMLStream
expressions</w>
FILE</w>
COLUM
ddmStructure</w>
PUB
Double
C_PrevAndNext</w>
caret</w>
WH
Messaging
assetEntry
SCOP
visual
advance
Down
arraycopy</w>
Sel
setModifiedDate</w>
Short
facet
parameterMap</w>
PUBLI
SS_
branch
Slice
HashCode</w>
eetups
ss</w>
nullSafe
profile</w>
delta</w>
ences</w>
scal
parts</w>
TypeConversion
ServiceBuilder</w>
IfNe
rever
callback</w>
LayoutRevision
phaseContext</w>
MavenDom
enter
JAVA_LANG_
Shi
AGE_
groupName</w>
MENT_
Inherit
getUserObject</w>
strateg
getLibr
PsiNewExpression</w>
Tabs</w>
currentTimeMillis</w>
Right
RootType</w>
Light
init</w>
Timer</w>
entials</w>
ates
ChangeList
ExternalProject
getModule</w>
Left
WhiteSpace</w>
Flags</w>
pn
VALUE_
myType</w>
newArrayList</w>
Chunk</w>
ains</w>
EXT
Dispatcher</w>
ResourceBlock
IVE_
JLabel</w>
patch</w>
keyspace
Aware</w>
ListOwner</w>
Return</w>
restore
Equival
Nested
DATA_
Strings</w>
anded</w>
schema</w>
getProperties</w>
getStatus
liter
ia
END_
CFMetaData</w>
connection
proxy</w>
collect</w>
Wrapper
md
LAYO
LanguageId</w>
Transformer</w>
sSet</w>
articleId</w>
PsiDoc
startObject</w>
Arch
mbThread
CodeStyleSettings</w>
tax
getActive
THEME_DISPLAY</w>
microblog
nemon
Defaults</w>
DeploymentUnit
DOUB
Lazy
polic
slice</w>
limit</w>
TimeUnit</w>
Exclude
Weight</w>
myEditor
previous</w>
codes</w>
typeElement</w>
Extended
TableModel</w>
setUserName</w>
namespace
Place</w>
binding</w>
AccessException</w>
External</w>
Marker
retrieve
show</w>
PlanNode</w>
myState</w>
referenced
Aware
Definitions</w>
isStatic</w>
getSchem
Accessi
History
Foreground</w>
Occurr
Plan</w>
runn
endObject</w>
iration
EXT</w>
cfm</w>
Strip
setDescription</w>
toUn
SERVICE_
NOT
Required</w>
Psi</w>
trace
edit
lib
psiMethod</w>
ExecutionException</w>
finish
configure
threadId</w>
Diction
myS
Pas
getInstance
PortletDataContext</w>
PARENT
ifStatement</w>
errors</w>
conso
soc
classType</w>
myDocument</w>
Without
annotations</w>
portImportConfiguration
Attachments</w>
FriendlyURL
ker</w>
FileEditor
yper
mapped
rating
response
Resources</w>
channel
mbst
Diff</w>
METHOD_
Password</w>
StringBuffer</w>
track
Priority</w>
Atom
LET_
workflowDefinition
enable
getFirst</w>
candidates</w>
normaliz
isAvailable</w>
Mapped
NodeDescriptor</w>
ts
Regist
SessionImplementor</w>
exportImportConfiguration</w>
mote</w>
tive</w>
eld
Naming
AST</w>
condi
NotificationRecipi
alContext</w>
Print
Visib
ignored</w>
TER_
Join</w>
O_
XContent</w>
ids</w>
fetchByPrimaryKey</w>
ipel
modifiers</w>
parameterList</w>
UserData</w>
ProcessingException</w>
US
emailAddress</w>
isUn
TRAN
Phy
In</w>
WS
wikiPage</w>
ithub
spection
ization
Driver</w>
getUn
BeanDefinition
Ord
getAnnotation</w>
cludes</w>
istinc
article</w>
getFirstChild</w>
Graphics2D</w>
merge</w>
myBuilder</w>
usages</w>
myManager</w>
Duration</w>
empty</w>
QueryRunner</w>
MIN_
Inner
primary
src</w>
ular
PrimKey</w>
Specification</w>
ELEMENT</w>
isValid
Trace</w>
sdk
TypeName</w>
SERV
Injection</w>
TAG_
igration
Hits</w>
modified
Descriptors</w>
Facet</w>
tran
QueryUtil</w>
Left</w>
SECONDS</w>
side
ENG
newValue</w>
CodeStyleManager</w>
pointer</w>
PsiClass
script</w>
metri
referenceExpression</w>
JD
friendly
nels</w>
dataSource</w>
isAncestor</w>
system</w>
security
simp
AllIcons</w>
ash</w>
utter
Operations</w>
KEY_
Partition</w>
holder
Rele
Export
anifest
ond</w>
PsiCodeBlock</w>
ObjectName</w>
PackagingElement</w>
Assertion
mapping
DefaultActionGroup</w>
beanFactory</w>
JECT_
Github
strip
Sugg
serviceName</w>
oom
Severity</w>
Todo
MIN
lap
leton</w>
clustering</w>
VersionId</w>
getUserData</w>
Injector</w>
QUE
DeploymentUnitProcessingException</w>
SING
getExpression</w>
stat</w>
announcements
Lang
Val</w>
BookmarksEntry</w>
getDeclared
notify
IC
ra
Dialect</w>
proxy
CACHE_ENABLED</w>
adap
sel
getNode
AssetEntry</w>
Completion</w>
Missing
DA
LinkedHashMap</w>
cur</w>
GROUP_
pe</w>
ImmutableMap</w>
Intention
anos</w>
MethodSignature</w>
ManagerEx</w>
consumer</w>
Close
Enumeration</w>
window
Consumer</w>
Supp
store</w>
REFEREN
NoSuchEntryException</w>
Inst
organization</w>
UpperCase</w>
tedException</w>
jsonArray</w>
brow
Delete</w>
Shard</w>
Emb
ant</w>
ColumnDefinition</w>
ServletContext</w>
comment
aturalId
Remove</w>
DEFAULT</w>
CustomSQL
setup
Wildcard
Conditional
FAL
ANNOT
UNKNOW
getNextSibling</w>
Interpret
Lay
getAttachment</w>
LayoutSetBranch</w>
Day</w>
ForFile</w>
aryId</w>
Reco
Generated
Changed
eded</w>
indent
Step
Syntax
expr
usage
esiz
getInitializ
Updat
ple
ENTITY_CACHE_ENABLED</w>
GH
ActionManager</w>
Help
EmailAddress</w>
isNot
ME
determin
Extern
Graph</w>
Contents</w>
Directories</w>
Sets</w>
Bar
address
Criteria</w>
_column
Peri
Working
sical
convertTo
Zip
Allowed</w>
password</w>
WorkflowConstants</w>
Bucket
GroupRole</w>
alize</w>
install
side</w>
ven
tasks</w>
Termin
AssetTag
ision</w>
was
cast</w>
ason</w>
used
Handlers</w>
Encoding</w>
getAttributes</w>
EntryImpl</w>
comp</w>
ExpandoBridge</w>
ze</w>
getEnd
myType
IndexableActionableDynamicQuery</w>
substit
lineNumber</w>
sap
edd
LocalFileSystem</w>
LINE</w>
dynamic</w>
getEditor
ValuePair</w>
ns
Resolve</w>
myModel</w>
PortletId</w>
Cle
ORY_
getCache
CommandLine
OF_
serialize</w>
Locator</w>
CustomSQLUtil</w>
myModule
shoppingItem
Tooltip</w>
handle</w>
checkArgument</w>
BOOLE
isEmptyOr
getChar
MODI
SetId</w>
STRING</w>
sty
setModel
lavor</w>
ling
Support
BlockBuilder</w>
getCanonicalText</w>
PP
configurable</w>
Hierarchy
izedType</w>
acing</w>
escribe
Brace</w>
PRESS
BAS
descriptors</w>
isEmptyOrSpaces</w>
getRole
choo
net
getN
Locator
record</w>
RunConfiguration</w>
MODULE_
axb
FACT
getRequest
transform</w>
CU
Breakpoint</w>
gradle
kaleoTaskAssignment
This
determine
CHAR</w>
db</w>
getFileType</w>
Recursi
ContextName</w>
calendarResource
getBytes</w>
isVisible</w>
CalendarBooking</w>
visit</w>
typeName</w>
complete
increment
Switch
addElement</w>
serviceReference</w>
wait
Sizes</w>
cacheResult</w>
InstanceTokenId</w>
startElement</w>
24</w>
Over
isRe
hasMore
SwingUtilities</w>
AnonymousClass</w>
ows</w>
Runtime</w>
Cancel
ster</w>
MENT</w>
uler
setBase
etch</w>
atable</w>
GroupId_PrevAndNext</w>
sUtil</w>
eme</w>
Opcodes</w>
VisualPosition</w>
MBCategory</w>
POS</w>
PyType</w>
isPresent</w>
Invo
Generation
Ag
FF</w>
getContext</w>
getSession
Present
Push
escape
isInher
VERSION_
SCRIPT
PAS
slt
booleanValue</w>
Like
Compati
Intr
identifier</w>
ip</w>
Offsets</w>
contents</w>
internal
implement
WARN
OK
App</w>
RESOUR
io</w>
Drop
getModifierList</w>
Proto</w>
Interface
report
newExpression</w>
aPackage</w>
getPosition
StreamInput</w>
Mode
Projects</w>
UserGroup</w>
Actual
SettingsProperties</w>
MDRRuleGroup
Sem
term
ere
Tools</w>
sProvider</w>
referenceElement</w>
tx
Section</w>
pop
aries
BAC
getArgumentList</w>
Providers</w>
Dependencies
double
listener
references</w>
Del
Old
Ignored
ELEMENT_
strings</w>
adjust
Versions</w>
ays
Desc</w>
ITY</w>
box</w>
Imports</w>
JavaElementType</w>
re</w>
cription</w>
myList</w>
EvalContext</w>
xml</w>
ses</w>
commit</w>
Xslt
getParameterTypes</w>
ote
art
methodCallExpression</w>
Externaliz
HAS
CRE
Scalar
Coordin
itr</w>
blocks</w>
title
pare</w>
Based
asc
DLFolder
isShow
targetType</w>
FIELD</w>
ews</w>
ALL_POS</w>
AbstractType</w>
GrStatement</w>
HelperUtil</w>
Xml</w>
Formatter
CONFIG
Vertic
short</w>
Logg
AndConfiguration
ffect
be</w>
FALSE</w>
SEPARATOR</w>
PsiNamedElement</w>
Wrapp
CAT
injected
sto
MODIFI
assand
Found</w>
NonNull</w>
Used
Any
shift
getRepository
VcsBundle</w>
Sensi
stag
Clustering
getField</w>
helper</w>
support
Occ
separator
Macro
Detector</w>
locate</w>
_result</w>
ThreadLocal</w>
partition</w>
Profiles</w>
number</w>
AbstractTreeNode</w>
fold
defined
getPlugin
our</w>
Strategy
States</w>
getModelAttributes</w>
intersec
Nanos</w>
preferen
Flush
Constraint</w>
DateTime
estamp
PLIC
ManagerUtil</w>
DOM
bucket</w>
Packages</w>
cle</w>
chunk
FT</w>
RunnerAndConfiguration
CommandLine</w>
AN_
On</w>
air
MappingException</w>
Jsp
EG
Bag</w>
Exists</w>
Interrup
CONFIGUR
getDefinition</w>
getLanguage
REMO
compres
Tombst
obc</w>
FromCache</w>
parentCategoryId</w>
setClassLoader</w>
FileStatus</w>
JournalFolder</w>
uce
userId
setProperty</w>
toSystem
getMessage
problem
copyOf</w>
umeric
ful
getContent</w>
Logger
Instances</w>
moduleName</w>
PropsKeys</w>
TypeInfo</w>
parseInt</w>
ClusterState</w>
tup
Requests</w>
Capability</w>
SocialActivity</w>
Initializer
PrimitiveType</w>
localQueryRunner</w>
Wid
GrClo
Uri
Contract</w>
boo
Cast</w>
Dialog
assertTh
LayoutBranch</w>
dependencies</w>
Private
batch
mySelected
fetchByC_
interface
Cf
aces
sav
Compiler</w>
Transport</w>
Compaction
priority</w>
getPackage
mallImage
Jdbc
CodeInsight
Registrar</w>
ready
parsed
DataException</w>
Brace
directory
setPrimaryKey
readString</w>
cfs</w>
Classpath</w>
Keyboard
queue</w>
orizont
bound</w>
ImportStatement</w>
XmlElement
isNew</w>
Dr
Loo
getA
Places</w>
builder
Shift</w>
getLocale</w>
ExportImportConfiguration</w>
WithDynamicQuery</w>
plan
WikiPage
tName</w>
Add</w>
assertThat</w>
getDescriptor</w>
BeanName</w>
CLASS</w>
Storage</w>
setBaseLocalService</w>
getLastPathComponent</w>
exp</w>
findFileBy
setModelClass</w>
setPrimaryKeyPropertyName</w>
CENTER</w>
ilt
myHolder</w>
UniqueFinder
UniqueFindersCache</w>
struction
vileg
Company</w>
TIME
InBytes</w>
ext
setUuid</w>
location
Tokenizer</w>
Rename
TU
NULL</w>
oog
Var</w>
containing
XmlTokenType</w>
Bucket</w>
getCal
Asp
Binary</w>
exit
getCustom
BookmarksFolder</w>
getQualifier
Choice</w>
Archive
FileType
STRING_
filterFindByG_
Indices</w>
Announcements
createExpression
Incre
graph
BOOLEAN</w>
Mailing
wer</w>
candidate
attach
myRoot
Interfaces</w>
CellRenderer</w>
ix
TON</w>
ssible
nested
leaf</w>
StringHelper</w>
ioe</w>
job
persistence
SSTableReader</w>
inal
PyNames</w>
jndi
OP
getConfiguration</w>
getTask
ContentRevision</w>
vy
InElement</w>
PsiReference
ENTR
Gutter
Groovy</w>
getScope</w>
GrVariable</w>
Lifecy
Admin
endpoint
StreamReader</w>
Sequence
getModifiers</w>
SETT
HighlightInfo
esizedExpression</w>
RemoteProto</w>
ffected
tstr
MultiMap</w>
extension
maybe
ICO
myP
ock
General
orderBy
acer</w>
MetaData
ability
found</w>
groups</w>
verify
Scan
RangeMarker</w>
TypeElement</w>
methodCall</w>
Words</w>
getW
FIL
EventType</w>
VK_
OP_
FOL
Accessible</w>
ks</w>
blogsEntry</w>
getOrder
missing
ImplUtil</w>
Up</w>
MBean
adic
direct</w>
Membership
PsiArrayType</w>
trim
Endpoint</w>
GroovyResolveResult</w>
getLineNumber</w>
RunnerAndConfigurationSettings</w>
ee</w>
getCollection
counter</w>
ERROR_
GroupRole
EditorColor
XS
application
Props</w>
_service</w>
Many
Presto
Open</w>
nse
RepositoryId</w>
nsee</w>
putAll</w>
Statistics
myResult</w>
Chooser</w>
Hints</w>
Ipn
ending</w>
Ipnb
sException</w>
Annotated
tableHandle</w>
layoutSetBranchId</w>
getInter
EQU
asset</w>
IND
MavenProject
Clic
parserContext</w>
getLocalName</w>
DescriptorImpl</w>
Account</w>
Highlighting
Three
getMemb
label
Distribu
Write</w>
fu
Prop
BackgroundTask</w>
sable
ingModel</w>
print</w>
before</w>
CONTEXT_
sifi
MD</w>
wikiPage
failure</w>
Modules</w>
DOUBLE</w>
refs</w>
Discussion
LocalVariable</w>
getRaw
flush
anch</w>
branch</w>
EXPRESS
InjectionSource</w>
RegistryUtil</w>
PortletPreferences
Appl
scheme</w>
policy</w>
getMethodExpression</w>
Inheritance
RIGH
Depth</w>
Finis
Prepared
Trash</w>
tific
SELECT
operation
Members</w>
ChildNode</w>
operand
Unknown
static
MethodCall</w>
assetEntry</w>
ControlFlow
myTree
ByteCode
lush</w>
Alignment</w>
HEA
getCause</w>
existing</w>
que</w>
Delivery</w>
KeyStroke</w>
descriptionMap</w>
Folders</w>
ab</w>
PathElement</w>
numberOf
IL_
myVcs</w>
Decl</w>
Transition</w>
ReturnStatement</w>
'\
_type</w>
case
getQuery
popup</w>
bottom</w>
PsiAnonymousClass</w>
getTreeParent</w>
Jar</w>
tool</w>
Allocator</w>
ources
Title
ClassNotFoundException</w>
avor
requireNonNull</w>
MenuItem</w>
SAPEntry</w>
configure</w>
getPortletId</w>
ReadOnly</w>
annotationType</w>
Artifacts</w>
props</w>
plugin</w>
Suffix</w>
Integ
PortletDataHandler
e1</w>
shard</w>
Endpoints</w>
HTT
Implicit
Preferred
COLON</w>
TRANS
screen
sib
live
closure</w>
RuleGroup</w>
schedule
conflicts</w>
myTable</w>
Matches</w>
predicate</w>
done</w>
adoc
dri
Insn</w>
LocaleUtil</w>
STRU
JMS
TypeConversionUtil</w>
company</w>
Fragments</w>
backgroundTask
Writable</w>
ConnectorSession</w>
retrieveFromCache</w>
render</w>
lee</w>
addTo
Discussion</w>
env</w>
deli
ldap
stack
Score
push</w>
Ann</w>
MESS
Async
PropertyValue</w>
MavenProject</w>
moveTo
OPER
Parameters
symbol</w>
DIRE
getResolve
VO
WorkflowDefinition
substitute</w>
emailAddress
sequ
Templates</w>
baseDir</w>
isNotEmpty</w>
mouse
drop
diff
access</w>
Processor
fq
createExpressionFromText</w>
Lines
CHAR
ear
enumer
Rules</w>
meta
getFont
BLOC
NU
Processing
ClassName
compo
jdbc
ATTRIBUTE</w>
Substitu
Area
aster</w>
duplic
Len</w>
XContentParser</w>
FS
getLocation</w>
PsiModifier
getByG_
getOperand</w>
Down</w>
ecked</w>
DESCRIPT
Ballo
airs</w>
Resolv
ned
JO
HAN
ertific
mimeType</w>
PsiAssignmentExpression</w>
getInteger</w>
InfoImpl</w>
targets</w>
NodeImpl</w>
readVInt</w>
Evaluate
getPositionCount</w>
PsiJavaFile</w>
Mac
imported
Timeout
dot
need
userGroup</w>
PsiLiteralExpression</w>
getScroll
ContentType</w>
myClass</w>
Urls</w>
Schedule
progress
SIG
getQualifierExpression</w>
Analysis
ename</w>
getFull
Privileg
insert</w>
ComponentDescription</w>
stream
Span</w>
Factories</w>
ards</w>
PARENT_
AsString</w>
ped
Identity
Registration
Candidate
refer
getSp
getBuild
uture
SINGLE
Mutation</w>
getToken
operator</w>
parameterTypes</w>
Shown</w>
Raw</w>
UT</w>
getScopeGroupId</w>
WARNING</w>
DeploymentProcessor</w>
findClass</w>
Tables</w>
AF
final
weight
mvccVersion</w>
Family
ticsearch
FIELD_
getResource</w>
irror
S_Last</w>
Information</w>
getter</w>
putUserData</w>
ome
Chooser
yperlink
iprot</w>
om</w>
SystemId</w>
den</w>
PersistedModel</w>
Design
ALI
depth</w>
Extrac
isAnnotation
PortletKeys</w>
DataSource
Presentation
mySh
Exceptions</w>
consistency
junction</w>
nowIn
PasswordPolicy
MBThread
Tail
Api
getReferenceName</w>
include</w>
cover
ParseException</w>
ImmutableSet</w>
RefactoringUtil</w>
simple
ulk
Indexes</w>
push
Outer
gram
Condition
Suggest
PsiExpressionList</w>
DataProviderInstance</w>
UNKNOWN</w>
Discovery
ET_
GEN
rid</w>
iddle
CONTENT_
binaryExpression</w>
Toolbar</w>
ownerType</w>
edge</w>
vocabularyId</w>
addAttribute</w>
organization
GroovyPsiElementFactory</w>
Convert
getH
getChildren
CellRenderer
ByteBuffer
GroovyFile</w>
_columnBitmask</w>
Dum
vs</w>
Sec</w>
MediaType</w>
Sin
findWithDynamicQuery</w>
OBJECT</w>
getOperationTokenType</w>
ListModel</w>
ENC
SET_
adicExpression</w>
sEntryModelImpl</w>
getPrev
team
Introd
QL
Positions</w>
LON
OpenFile
signee
KaleoTaskAssignment
PyTokenTypes</w>
Tabbed
POSIT
grid
diff</w>
Controller
Neg
getLastElement</w>
INT
paramName</w>
Multiple
Aggregation
Decorator</w>
Pom
ify</w>
GrTypeDefinition</w>
ITER
firm
nameMap</w>
Ancestor
Contexts</w>
InterruptedException</w>
environ
vers
EXTEN
Ret
Recei
GROUP</w>
Fields
deleg
ryp
Formul
XML</w>
Equivalent</w>
accepts</w>
TException</w>
ManagerFactory</w>
TABLE_
PsiModifierListOwner</w>
Transfer
MODULE</w>
assignment
Screen
myDefault
dialect</w>
BackgroundTask
connectorId</w>
Jdk</w>
Qualifier</w>
showError
shall
VIEW</w>
PortletResponse</w>
FACTORY</w>
JDOM
Comparison
ected</w>
additional
FocusManager</w>
Adapter
kaleoDefinitionId</w>
paramType</w>
single
managed
getTime</w>
LinkedList</w>
OutOf
Rank
Branches</w>
mt</w>
newArray</w>
PyCallExpression</w>
resolver</w>
PUBLIC</w>
ResourceBundle</w>
Abs
udy
getObject</w>
UND</w>
Sorted
getCli
Authentication
FINAL</w>
DirName</w>
READ_
AssetVocabulary</w>
clearUniqueFindersCache</w>
avorite
ere</w>
0xff</w>
Replic
getThread
Concurrent
oldValue</w>
requ
getPlid</w>
ParenthesizedExpression</w>
Tab</w>
visible</w>
columnIndex</w>
GENER
ksName</w>
sessionId</w>
PropertiesFile</w>
requestFocus</w>
thread</w>
Setter</w>
WHIT
isTrace
unmodifiable
ified</w>
Feed</w>
wrappedModel</w>
toUnwrappedModel</w>
clusi
getReference</w>
myData</w>
START_
ric
PyTarget
UTF
getByUuid_
LayoutBranch
Scheme
PersistenceUnit
column_
DeletionTime</w>
Raw
part</w>
2_
RegExp
getRight
passwordPolicy
del
removeAll</w>
Accessor
Users</w>
Comments</w>
CURR
button</w>
Cod
accept
Compil
Principal
IdeBundle</w>
lus</w>
FileTypes</w>
LockMode</w>
Toolbar
elta
EjbLogger</w>
getShort
Read</w>
parentNode</w>
HighlightType</w>
KEYWORD</w>
PrestoException</w>
Association
NotificationTemplate
Fixed
Used</w>
ges</w>
erClass</w>
Declarations</w>
Classes
sScheme</w>
Keyword
Variants</w>
superMethod</w>
translate</w>
getExpressions</w>
Tempor
Comparison</w>
DOC_
Dirty
Encoding
UND_
tableId</w>
hits</w>
ACTI
Parenthes
exceptions</w>
getPartition
BytesRef</w>
getViewProvider</w>
PsiComment</w>
escapedModel</w>
eni
subsystem</w>
PACK
Io
getOwner
ressed
History</w>
stop</w>
Audi
part
journalContent
UserNotificationEvent</w>
CEPT
pending
repaint</w>
white
elem</w>
mbThread</w>
ReadWrite
lback
myText</w>
getRange
Holder
Job
payload</w>
getDom
Calc</w>
VariableGroup</w>
longValue</w>
ffective
Insert</w>
Chunk
LinkImpl</w>
symbol
vc
Rendering
lobal</w>
Sq
primary</w>
isTraceEnabled</w>
TemplateResource</w>
Segment</w>
PROPERTY</w>
creen</w>
Callable</w>
reshold</w>
C_Last</w>
COR
LookupElement
lexer</w>
OK</w>
WA
sType</w>
Run</w>
listeners</w>
UuidAnd
getBounds</w>
ector
Docs</w>
scop
urls</w>
100
Gap</w>
Zone
addContent</w>
resourceBundle</w>
children
UTF</w>
SUP
Vote
oto
breakpoint</w>
invalid
charset</w>
PORTLET_
XMLStreamException</w>
SAX
interfaces</w>
SINGLETON</w>
findChildByType</w>
icode
JSON</w>
Ct
Socket</w>
qPos</w>
TIME_
SERVICE_NAME</w>
restric
Aggregation</w>
orization
factory
rowIndex</w>
jet
getDescrip
getRelative
AssertionError</w>
Period</w>
SystemItem</w>
calendarBooking
sBuilder</w>
Nullable
S_First</w>
cacheName</w>
LayoutSetBranch
VERSION</w>
filterGetByG_
exclude
Site</w>
DiffRequest</w>
References
EventListener</w>
DATA</w>
analyzer</w>
LLI
EXP
Advis
getArtifact
color
HighlightInfoType</w>
Ids
GitRepository</w>
describe
hint</w>
FileEditor</w>
Rank</w>
myDelegate</w>
hint
Body
Snapshot</w>
tten
Channels</w>
constructor
SCOPE_
umul
details</w>
Str</w>
MILLI
getAction</w>
merged
Simp
ServiceReference</w>
VM
fixes</w>
OrderRootType</w>
componentType</w>
Ban</w>
ited
Console</w>
Optim
Chain
Rename</w>
lay
cessed</w>
Deployment</w>
getList
templateId</w>
Summary</w>
nouncement
okie</w>
RESOURCE_
Chars</w>
USER_
layoutSetPrototype
Month</w>
CellRendererComponent</w>
removeBy
Candidate</w>
debugf</w>
cl</w>
ByteBufferUtil</w>
Override
DataNode</w>
Interval
associ
Choice
elementTo
Refs</w>
lot</w>
PyReferenceExpression</w>
portletPreferences
digest</w>
_service
cmd</w>
sFrom
Menu</w>
urrent</w>
Events</w>
Environment
slice
ServletRequest</w>
filtered</w>
IMPORT_
Section
getTextOffset</w>
REGUL
nouncementsEntry</w>
tual</w>
Weld
mit
chunk</w>
Implementation</w>
DELETE</w>
injection
routing
EE
getTime
PRIV
toUpperCase</w>
arr</w>
__equals
__equalsCalc</w>
processor
fied
ddmTemplate</w>
tags</w>
vely</w>
OUT
nextElement</w>
BIG
the
SYN
Keymap
getCon
crimin
Question</w>
Browser</w>
FileVersion</w>
INDEX_
diction
getEntityName</w>
Windows</w>
addService</w>
ShoppingItem
irror</w>
Explicit
Converter
ReadOnly
Inspection</w>
getSecond</w>
invocation</w>
optional
ponses</w>
calendarBooking</w>
getLibrary
erFactory</w>
acc
toXContent</w>
isEntity
generic
ek
serviceRegistry</w>
JBo
Points</w>
RequestBuilder</w>
LanguageIds</w>
getTotal
lhs
VfsUtilCore</w>
DEFAULT_PARENT_
TEM
atis
DEFIN
LayoutSetPrototype</w>
getQualifier</w>
wer
getImport
PsiPrimitiveType</w>
err</w>
getCached
TypeEvalContext</w>
kaleoTimer
brains</w>
Checked
jetbrains</w>
_name</w>
Functions</w>
Views</w>
Links</w>
switch
Conflict
Duplicate
Aut
loy</w>
getParentFile</w>
descriptor
displayDate</w>
future</w>
agr
uri
scale</w>
rule</w>
C_First</w>
Capacity</w>
gb
now</w>
WikiNode</w>
PsiFormat
SERVICE</w>
OPTION_
tagName</w>
occurr
renderResponse</w>
Alph
year</w>
declaration</w>
database
soft
ParameterizedType</w>
Tuple</w>
supports
Pages</w>
documentlibrary</w>
BufferedReader</w>
CacheKey</w>
indices
findFile</w>
getCell
Super</w>
decor
PsiTypeElement</w>
score
Org
BEFOR
NAME
CalendarResource</w>
CLU
LY</w>
cul
myShow
keyspaceName</w>
GrParameter</w>
ActionResponse</w>
One</w>
destro
toolWindow</w>
Inside
29</w>
conf</w>
CastExpression</w>
jbo
Shap
qname</w>
sorted
fileVersion</w>
Disabled
Staging
Canceled</w>
Complex
addDeploymentProcessor</w>
getCondition</w>
GRA
getField
etwe
Struct
fixed
DataManager</w>
Finish
getFolderId</w>
prop</w>
myText
typed
FileGroup</w>
resultSet</w>
escape</w>
Digest</w>
do</w>
ColumnNames</w>
Decim
Bits</w>
registerProblem</w>
Ban
comb
Sensitive</w>
road
Exit
FileRevision</w>
IST
Op</w>
Stop
PATTER
dfa
Terms
propag
ADDRES
Comb
BlockStatement</w>
grade</w>
bundleContext</w>
WildcardType</w>
rop</w>
Day
StructureId</w>
callExpression</w>
Deletion</w>
RendererFactory</w>
Renam
INDEX</w>
encode
WebDAV
sever
layoutSet</w>
cursor</w>
formatter</w>
Mime
PA
_in
sPer
throwable</w>
kelet
master
EXTENS
pages</w>
less
hasMoreElements</w>
getPoint</w>
terms</w>
matched
ulli
COMMA</w>
FINDER_PATH_FETCH_BY_UUID_G</w>
VIR
backgroundTask</w>
ModelType</w>
InstanceImpl</w>
DLFileShortcut</w>
Typed
CHEC
Delim
subscription
containerName</w>
SQL_
Separator
getAsset
Resolved
ElementName</w>
readInt</w>
AGE</w>
Dictionary</w>
When
getNamespace</w>
myMap</w>
edName</w>
Dot
startLine</w>
FoldRegion</w>
lasticsearch
END</w>
isInheritor</w>
2d</w>
0xFF</w>
filterFindBy
InputEvent</w>
Numeric
REQUE
nexp
Singleton
idden</w>
RequestImpl</w>
variables</w>
ddmFormField</w>
ial
isOn
-=</w>
VIRTU
elseBranch</w>
Pass</w>
assandra
Mem
ways
Report
AttributeDefinition</w>
CompanyId_PrevAndNext</w>
Absent</w>
vf</w>
registerError</w>
thenBranch</w>
preferred
EntityPersister</w>
Arg
PsiName
PsiFileSystemItem</w>
PLA
RangeHighlighter</w>
mem
LAYOUT_
setMvccVersion</w>
myMatching
LayoutPrototype</w>
Supported
c1</w>
FileViewProvider</w>
getLab
Close</w>
organizationId</w>
BIGINT</w>
og
DataHandler</w>
PluginDescriptor</w>
publish
expiration
DLFileEntryType</w>
Translator</w>
Flavor</w>
persistent
offsetTo
Nodes
cfName</w>
Mul
inspection
Parts</w>
Couple</w>
extra
produc
injector</w>
Creator</w>
getPersistence
CODE</w>
mappings</w>
StagedModelType</w>
isConstructor</w>
work</w>
PROX
ADDR</w>
FileName
caretOffset</w>
PASS
createQuery</w>
InstanceModelImpl</w>
pk
Refresh
Theme
parameterName</w>
layoutPrototype
converter</w>
Closed</w>
CH</w>
edType</w>
registrar</w>
environment</w>
LayoutFriendlyURL</w>
month</w>
Marshal
unch
atial
WITHO
persistence</w>
WITHOUT_
ROOT</w>
getReferenced
Atomic
ActionPlaces</w>
Equals
AS_
getValues</w>
PermissionUtil</w>
getChildCount</w>
getTable</w>
getSql
groov
100</w>
getToken</w>
myTarget
STRUCT
PsiModifierList</w>
Study
viewProvider</w>
ediate
link</w>
definition
getPackage</w>
sn
Backed
JList</w>
under
Splitter</w>
ca
PathUtil</w>
RefElement</w>
PyTargetExpression</w>
Elasticsearch
app</w>
EditorEx</w>
facet</w>
_level</w>
Flow</w>
hive
Delta</w>
_id</w>
Constrain
3_
VcsManager</w>
pathElement</w>
nc</w>
Migration
sFolder
compile</w>
userName</w>
SystemEvent
sugg
nextToken</w>
receiver</w>
getChild</w>
Serialization
getNamespace
setType</w>
PsiPoly
Unfiltered
10
getPresentableText</w>
PsiIfStatement</w>
written
Viewer</w>
strategy</w>
V_
ServiceRegistry</w>
StructureView
Success</w>
mut
Vertical
PyFile</w>
START</w>
delta
CalendarBooking
DLFileVersion</w>
Dumb
MER
svn
us</w>
myLine
getStart</w>
myClass
jdk</w>
getColor</w>
PKs</w>
sstable</w>
alet
AND_
psiManager</w>
Dirty</w>
IONS_
Grouping
upgrade
dao</w>
LAT
defaults</w>
getInput
cached</w>
InlineSQL
OpenFileDescriptor</w>
isUnder
absolute
getID</w>
RevisionId</w>
singleton</w>
Clustering</w>
messages</w>
counter
InlineSQLHelperUtil</w>
Cmd
PrefixExpression</w>
dim
ry
proto
dirs</w>
font</w>
getVisible
VARI
Vote</w>
AssetTag</w>
collector</w>
ui
ect</w>
XmlElement</w>
ProblemHighlightType</w>
getTar
messageId</w>
myUse
timeZone</w>
Ui
COL
BUtilities</w>
FBUtilities</w>
answer</w>
Plus</w>
structure</w>
analysi
TheF
stack</w>
checkState</w>
PsiWhiteSpace</w>
cessary</w>
Updated
myParent
Binder
Addresses</w>
ileStatement</w>
displayDate
ipeline
Tx
ten</w>
DeclarationStatement</w>
Same
rewrite</w>
Resolution
Existing
sqlUpdate</w>
folderIds</w>
PsiJavaToken</w>
pc
SCH
defaultLocale</w>
getStringValue</w>
Contin
main</w>
workflowInstance
lash
getMatch
IfAbsent</w>
canonical
Stripe
Independent
Achievement</w>
AccountId</w>
projection</w>
FileIndex</w>
umbn
EN</w>
Gre
DOW
plat
valueType</w>
servletContextName</w>
mutation</w>
Operator
DEPLO
LD</w>
theme
Contrib
advance</w>
iaQuery</w>
PKsSet</w>
ournal</w>
sc
ayload
getBefore
LEFT</w>
sEntryImpl</w>
TheFly</w>
Repositories</w>
Generator
g2d</w>
instanti
loat
jps</w>
ByteArrayOutputStream</w>
getLastPublishDate</w>
PsiExpressionStatement</w>
Promp
ExpandoValue</w>
progress</w>
EDITOR</w>
myR
WebSocket
expanded</w>
metadata
MANAG
OP_ADDR</w>
ative</w>
Attr</w>
getInstanceEx</w>
SES</w>
ContextImpl</w>
queryDefinition</w>
Initialized</w>
PhaseContext</w>
TAG</w>
MicroblogsEntry</w>
zip
locate
APPLIC
Sort</w>
api</w>
ById</w>
generated
treeNode</w>
Credentials</w>
LambdaExpression</w>
JBUI</w>
SHOR
Authentication</w>
findByUuid</w>
orderEntry</w>
criminator
abric
charac
RIGHT</w>
day
open</w>
updated</w>
localName</w>
Plain
dirName</w>
TemplateVariableGroup</w>
focus
Real
cance
Whitespace
erUtil</w>
perc
CODE_
DATE_
StackTrace</w>
meetups
setSize</w>
Catch
facade</w>
vious
InvocationHandler</w>
25
getParameter</w>
displayName</w>
ModifiableModel</w>
SourceSet</w>
ConditionalExpression</w>
PreparedStatement</w>
Center
fileIndex</w>
section</w>
LayoutId</w>
console
notification</w>
HtmlUtil</w>
getFont</w>
Locales</w>
criteria</w>
roadcast
isFile
sStatsUser</w>
EL_
ToString</w>
LayoutSet</w>
getIconWidth</w>
processorTarget</w>
LocalQuickFix</w>
WR
goog
ComboBox
ByteArray</w>
providers</w>
PyElement</w>
SIZE_
getRowCount</w>
remaining</w>
finish</w>
Built
obj
IT</w>
getView
Slices</w>
TEXT_
sample
storage
getExtension</w>
urse</w>
encoding</w>
flat
protocol
virtualHost
over
Instanti
findByGroupId</w>
interceptor
getFiles</w>
getHost
release</w>
neg
COUNT</w>
socialActivityCounter
dlFileVersion</w>
increment</w>
KC
TypesUtil</w>
getRequired
me</w>
KaleoNode</w>
getPrevSibling</w>
s_
getRemote
STATEM
Install
Handle
AbstractVcs</w>
uses</w>
nowInSec</w>
isF
profile
ByUuidAnd
NotificationTemplate</w>
zz
setDefault
Separ
Pane
WITH_PAGINATION</w>
activityCounter
FINDER_CLASS_NAME_LIST_WITHOUT_
FINDER_CLASS_NAME_LIST_WITH_PAGINATION</w>
FINDER_CLASS_NAME_LIST_WITHOUT_PAGINATION</w>
inher
Resolvers</w>
FormatException</w>
ill
ErrorMessages</w>
backs</w>
popup
Unchecked
BeanLocator
TagName</w>
queue
INT_
PrincipalException</w>
NoSuchArticle
journal</w>
Compres
JavaCodeStyleManager</w>
failure
cred
3Subsystem
getData
SEAR
resourcePrimKey</w>
Can
setBorder</w>
PyString
Closure</w>
myMatchingVisitor</w>
readLong</w>
treePath</w>
DER
audit
getIdentifier
ItemSelector
cal</w>
Transition
getConfiguration
Price</w>
getPresentableUrl</w>
setInitial
compile
userTracker
Generate
NUMB
_companyId</w>
ness</w>
tl
GroovyBundle</w>
NameElement</w>
AntBuild
VIRTUAL_
strEqual</w>
toStringArray</w>
MQ
ClassUtils</w>
UNCT
decode
RadContainer</w>
shortcut
WRIT
ContextClassLoader</w>
DeploymentPhaseContext</w>
EM</w>
Edges</w>
startTime</w>
SK
Include
Templates
rete
getOld
OptionsPanel</w>
getExpandoBridge</w>
vic
ActionId</w>
assetCategory</w>
c2</w>
ws
tow
readBoolean</w>
CodeFragment</w>
SessionFactory
thet
VariableDeclaration</w>
InspectionTool
Apply
getTarget</w>
JavaF
lists</w>
completion
Create</w>
ProcessingContext</w>
syncFile</w>
ump
MethodName</w>
LinkModelImpl</w>
Supported</w>
Bl
reason</w>
getLineStartOffset</w>
domElement</w>
NAL_
Part
OrNull</w>
URE</w>
repo</w>
Stric
PortletException</w>
XmlAttributeValue</w>
Evaluation
layoutSetPrototype</w>
AssetEntry
ous
Javadoc
Extractor</w>
myRoot</w>
Cor
WebService
ReflectionIndex</w>
getAvailable
ell</w>
Searcher</w>
setLast
lower
javaType</w>
getTypeParameters</w>
XDebugger
of
getDelegate</w>
aster
initialize
FQ
readExternal</w>
anifest</w>
PSI
HTML_
Freq</w>
Wiz
onic
putValue</w>
EventImpl</w>
binary</w>
literal</w>
IS_
Compo
Ans
getDoc
getComponentType</w>
Shortcuts</w>
ived
Refresh</w>
KE_
Lt
den
hasText</w>
Categories</w>
getLeft
Team
updated
replaceAll</w>
SSION_
changed</w>
TransactionManager</w>
anchor
StagedModel</w>
isInfo
marshal
webDAV
sical</w>
isInfoEnabled</w>
DS_
als</w>
types
lare
QUI
plain
Embedd
JavaFx
ModuleComponent
TextEditor</w>
FORM
Team</w>
runnable</w>
ther
Remote</w>
cancel
FAC
getDDMForm
ProcessHandler</w>
sableBlock</w>
anc
gre
Issu
OrganizationId</w>
selectionModel</w>
findByUuid_C</w>
zer
ValidationException</w>
MAP</w>
getClient
down</w>
section
getSubstitutor</w>
MessagingService</w>
atisfied
Direct
Indices
Screen</w>
Thro
ait</w>
oards</w>
getGlobal
eboards</w>
EntityManager</w>
messageboards</w>
BlockWrapper</w>
JSONFactoryUtil</w>
sByName</w>
uler</w>
Perc
userGroupId</w>
AntDom
visited</w>
memory
TimeValue</w>
ursor
InheritanceUtil</w>
composite
getStatements</w>
ROL
Writer
friendlyURL</w>
flow</w>
Try
ResourceRegistration</w>
TER</w>
ll</w>
tail
NameTo
DispatchThread</w>
BEFORE_
Designer
Have
getBlock</w>
Dirs</w>
currentState</w>
populate
getScrollingModel</w>
IFI
TInt
myOriginal
Hierarchy</w>
nexpected
Ui</w>
ENTRY_
IIO
TS</w>
enter</w>
extensions</w>
blob
METHOD</w>
interceptor</w>
LONG</w>
LITER
length
Segment
Vector
ElementTo
getSelectedItem</w>
DatabaseDescriptor</w>
Introduce
smallImage
getBean
drawLine</w>
hist
Score</w>
getObject
myBase
Enable
emptySet</w>
serializedSize</w>
aliases</w>
refExpr</w>
DataInput
prepare</w>
AccessType</w>
assigned
Libraries
LoggerElement</w>
p1</w>
sable</w>
ProjectRootManager</w>
panel
setter</w>
ORS</w>
VE_
failed
calendarResource</w>
geo
SS</w>
toSystemIndependent
JS
Force
FromElement</w>
PROPERTY_
Revisions</w>
Rt</w>
PLU
bookmarksEntry</w>
parentElement</w>
deploy</w>
ze
Queries</w>
LayoutSetPrototype
Word</w>
NotificationRecipient</w>
modifier</w>
Character
IfNecessary</w>
Js
compiler
annotationInstance</w>
FinderCacheEnabled</w>
pch
ServiceTarget</w>
KaleoInstanceToken</w>
getPreferredName</w>
replacement</w>
Vars</w>
jndiName</w>
dest</w>
myModule</w>
PsiBinaryExpression</w>
Register
preferences</w>
Num</w>
clip</w>
TrashEntry</w>
tories
parsed</w>
Website</w>
sing</w>
Descriptions</w>
IoFile</w>
0L</w>
ns</w>
Whitespace</w>
countByG_
getX</w>
members</w>
IndexShard
Replacement
only
filters</w>
org
resourceType
controller</w>
_args</w>
jected
findByCompanyId</w>
ResolveState</w>
Bootstr
ring
Wall
JournalContent
alogName</w>
PortletDataHandlerKeys</w>
FileObject</w>
Added</w>
PrivateLayout</w>
getSign
setPrimaryKey</w>
idi
actionManager</w>
nemonic</w>
lored
FolderException</w>
after</w>
pluginId</w>
SocialRequest</w>
_add
Modal
MDRRuleGroupInstance</w>
PATTERN</w>
findMethod
Colors</w>
myTabs</w>
keyType</w>
MON
ManagementResourceRegistration</w>
clip
clusterState</w>
qualifierExpression</w>
CT_
nodes
ward
resourcePermission
refresh</w>
toolWrapper</w>
NotNull
found
languageLevel</w>
Removed</w>
Live
Final</w>
getRole</w>
IsSet</w>
Signatures</w>
wrapped
Cl
FUNCT
sRequest</w>
subsystem
IGH
userNotificationEvent</w>
Merge</w>
ry</w>
sessionFactory</w>
delegate
Pass
isFinderCacheEnabled</w>
_re
Keyspace
vlet</w>
AssetLink</w>
isEntityCacheEnabled</w>
ons</w>
pure</w>
Bus</w>
orm</w>
setting</w>
CONN
LENG
endElement</w>
typeId</w>
buckets</w>
browser
getRequest</w>
FileNames</w>
isInitializ
ShardRouting</w>
Radio
getRoleId</w>
ADDRESS</w>
pop</w>
upper
values
ullize</w>
FileElement</w>
fetchByCompany
ancestor
Synchronized
Year</w>
tml</w>
ignore</w>
Documents</w>
dimen
sSequence</w>
Instruction
TypedValue</w>
release
ACCE
choose
macro
offsets</w>
Parsing
Unicode
ChangeEvent</w>
20</w>
PARAMETER_
lastChild</w>
Unsigned
registerSub
ample</w>
getResolveScope</w>
Net
dest
resourceRequest</w>
canonic
getPortal
LEV
imumSize</w>
Loop
64</w>
cen
public
TargetException</w>
passwordPolicy</w>
Achievement
calendarId</w>
Replace</w>
cols</w>
myParent</w>
checkFor
Editing</w>
Phone</w>
UPDATE</w>
orizontal
PyUtil</w>
Ivy
NumberFormatException</w>
Width
PERIO
deep
FileInfo</w>
LibraryOrderEntry</w>
membership
flush</w>
InProgress</w>
Localized
NoSuchFolderException</w>
StatementList</w>
getDeclaringClass</w>
sibling</w>
MERG
AndSet</w>
Navigatable</w>
Cmdline
indexer</w>
validationException</w>
Disposer</w>
PsiKeyword</w>
FileDocumentManager</w>
errorMessage</w>
Occur
TRAC
temp</w>
InvocationTargetException</w>
getOutputSymbols</w>
composite</w>
getAfter
HttpHeaders</w>
pe
getUser</w>
ServiceManager</w>
interval
Tooltip
PARENTHE
condition
getRecord
Forward</w>
authenti
ReflectionUtil</w>
EvaluateException</w>
getMethods</w>
requests</w>
CAN
USE
body
JTree</w>
exportImportConfiguration
Classpath
DateTime</w>
pee
stub
myMethod</w>
Resolver
Labe
doubleValue</w>
PortalBeanLocator
operator
Synchronization
DDLRecord</w>
disjunction</w>
INF
Maps</w>
DDLRecordSet</w>
ise
propertiesFile</w>
Lifecycle
12</w>
classes
RelativePath</w>
vice
Load</w>
getEl
PK_
isM
xmlTag</w>
Visibility
native
INVAL
IndexMetaData</w>
atom
componentClass</w>
layoutFriendlyURL</w>
getExport
KEEP_
DESCRIPTION</w>
accessor</w>
afe</w>
getServiceRegistry</w>
Current</w>
hide
getAnnotations</w>
ServletResponse</w>
VersionModelImpl</w>
maj
getFolder
ainter</w>
MethodParameter</w>
RunConfiguration
LanguageInjection
Checked</w>
CollectionType</w>
advis
PLAC
Lw
myT
getBackground
describe_
safe
permission</w>
clusive</w>
Authorization
getPackageName</w>
TEMPL
groovy
getColumn</w>
ProjectStructure
CommittedChangeList</w>
shortcut</w>
PasswordPolicy</w>
izationUtil</w>
REGULAR_
ClassIn
STOR
startIndex</w>
KaleoDefinition
sifier</w>
Put
Shared
Subscription
PSI_
ResourcePermission</w>
PRIVATE</w>
google</w>
TEXT</w>
enum
edFiles</w>
Aggregator</w>
Queue
scan
getColor
Patch</w>
Build</w>
CalEvent</w>
GrClosableBlock</w>
myValue</w>
myCached
URI
PROVI
bility</w>
Projection</w>
writeInt</w>
ScrollPane</w>
toSystemIndependentName</w>
11</w>
ColumnName</w>
ENTS</w>
getNameIdentifier</w>
nan
Consistency
EXPRESSION</w>
day</w>
getDeploymentUnit</w>
generate</w>
umbnail
Batch</w>
getPrimaryKey
getInternal
GrField</w>
graph</w>
BACK
CandidateInfo</w>
PortalBeanLocatorUtil</w>
projects</w>
outputStream</w>
getPropertyName</w>
GROO
timer</w>
GROOV
getVariable
Declared
ReadCommand</w>
ADD_
SoftWrap
':
Warning
separatorChar</w>
CmdlineRemoteProto</w>
':'</w>
findByC_C_
refClass</w>
SmartList</w>
Length
elved
Stage</w>
TypeImpl</w>
queryParameters</w>
_c
_equals</w>
Transformation
artifactId</w>
ann</w>
RootModel</w>
ustom</w>
ro</w>
nameElement</w>
capit
pageBuilder</w>
TypeSizes</w>
UtilRt</w>
Enter
getScript
JTable</w>
MethodHandle</w>
Delay
ITI
assertEquals</w>
projectPath</w>
RON
fetchByGroup
partitionKey</w>
andOperator</w>
createType</w>
SocialRelation</w>
getDo
ModuleRootManager</w>
countAll</w>
protobuf</w>
PyStringLiteralExpression</w>
isDefault</w>
getFilter
isDefault
ents</w>
Physical
Plid</w>
Colored
myNew
element1</w>
PsiLocalVariable</w>
AFTER_
requi
getOrCreate
PsiLambdaExpression</w>
Keymap</w>
LookupElementBuilder</w>
typeParameter</w>
APPLICATION_
CATION_
Compiled
Checkbox</w>
DEPEND
setTitle</w>
getDate
loaded
Logging
tuple
callee</w>
timer
clustering
REN
getWorkflow
dep</w>
inal</w>
Execution</w>
myIndex</w>
setNew</w>
parti
ParameterInfo</w>
UISettings</w>
lockMode</w>
FOLDER_
pp
Login
Ignored</w>
XMLExtended
Failures</w>
consistency_level</w>
atisfiedBy</w>
DB
DebugProcess</w>
DIRECT
YES</w>
FileEntryId</w>
crumb
XmlElementDescriptor</w>
Finished</w>
newElement</w>
tm</w>
ExpandoColumn
getSuperclass</w>
ingData</w>
unsync
Clean
isInitialized</w>
forLanguage</w>
addParameter</w>
ModelDescription
fromString</w>
getTreeNext</w>
SchemaTableName</w>
HTTP_
ModelDescriptionConstants</w>
ake
Inner</w>
SQLQuery</w>
SessionErrors</w>
ited</w>
ComponentType</w>
decoder</w>
Segments</w>
adapter</w>
atable
findChild</w>
columnNames</w>
selectedRow</w>
QualifiedName
SdkType</w>
aut
ReferenceRegistry</w>
Indexed
bytes
BigDecim
Rol
getY</w>
structions</w>
ModuleDescription</w>
Family</w>
Ut
success
PyBinaryExpression</w>
Spacing</w>
PositionTo
Bulk
positions</w>
Replacer</w>
Side
NamingException</w>
getInt</w>
edImage</w>
P_PrevAndNext</w>
eredPane</w>
IIOP
ask
PsiUtilCore</w>
doGet
ipp
registerReference</w>
ServletException</w>
rootTag</w>
shards</w>
getPsiFile</w>
Excluded
getRule
deployment</w>
def
logg
Parti
step</w>
abase</w>
INGS</w>
BEAN_
Hyperlink
WRA
ticip
Documentation
ATTR</w>
READ</w>
Recovery
typeDefinition</w>
constant
Confirm
ProjectNode</w>
begin
DEPLOY
methodVisitor</w>
nemonic
mapper</w>
elt</w>
PsiAnnotation
Highlight</w>
SyntaxException</w>
ire
locale
canBe
Restriction</w>
routing</w>
eq</w>
StringWriter</w>
verse
myView</w>
loadClass</w>
Formatting
LOCAL_
Recursively</w>
PsiPolyadicExpression</w>
ARD_
blockBuilder</w>
Iterables</w>
connect</w>
Gi
UserTracker
anced
Restore
setInitialMode</w>
NULL_
setKaleo
GroupService
IndexOutOf
BoundsException</w>
IndexOutOfBoundsException</w>
STAM
Max</w>
')
TopLevel
Visibility</w>
Bidi
LD
Updater</w>
Fetch</w>
MEM
bl
GroovyElementTypes</w>
BUI
Sav
lier</w>
myBuffer</w>
Archi
NAMES</w>
metrics</w>
e2</w>
tel
equalTo</w>
Heap
evaluate</w>
transport</w>
jection
ResultSet
style</w>
Gram
DED</w>
PlatformDataKeys</w>
EscapedModel</w>
endLine</w>
getItem
STO
directories</w>
SVNURL</w>
getFirstChildNode</w>
alform
Threshold</w>
PrimaryKeys</w>
Random
_version</w>
fe</w>
pd</w>
getVersion
getInputStream</w>
PyElement
CodeConstants</w>
RoutingTable</w>
MUL
_layout
Timestamp
LineMarker
EnumSet</w>
Inference
ationScope</w>
Subscription</w>
Preview
ResourceBundle
callable</w>
SKI
30</w>
Ligh
getArguments</w>
DEC
disc
ImageId</w>
getServiceTarget</w>
IF
THashSet</w>
UtilBase</w>
setS
activity</w>
kit</w>
Repo
QueryDefinition</w>
BigInteger</w>
Hit
getEntry
isApplic
myPath</w>
pointer
Items
Driver
Placeholder
telli
myName
Undertow
BUFF
getArticle
semb
FIR
Constructors</w>
emptyMap</w>
editors</w>
uniqueResult</w>
ExportImport
STY
STRAC
ABSTRAC
getTree</w>
coordin
unregister
GrVariableDeclaration</w>
ANY</w>
GridConstraints</w>
bits</w>
createSpace
fileEntryTypeId</w>
18
GrAssignmentExpression</w>
Editing
assertIs
segment</w>
elementFactory</w>
SOL
baseClass</w>
runSQL</w>
IfNeeded</w>
fqn</w>
NoSuchArticleException</w>
objects</w>
getPl
transport
HashCode
isAssignable</w>
TAB
signed</w>
Past
i1</w>
ToolT
VarType</w>
getAnnotation
resourcePermission</w>
Targets</w>
ICON</w>
EQUAL</w>
ori
ationType</w>
Charset
closed</w>
Configure
')'</w>
snapshot</w>
getActivity
getQuestion
Env
removed</w>
POST_
Direction</w>
website
ldapServer
Jvm
RELAT
PROJECT_
Builders</w>
getIconHeight</w>
ition
readcrumb
typeText</w>
summary</w>
parameterType</w>
andom</w>
initialize</w>
BYTE_
pageContext</w>
Seconds</w>
Future
getShortc
EmailAddress
getCharsSequence</w>
PROXY_
OBJECT_
sin
wall
setClassNameId</w>
serviceBuilder</w>
severity</w>
actual</w>
Col</w>
ference</w>
UserId
EntryModelImpl</w>
completed</w>
myContent
QuerySpace</w>
Extra
DU
Focused
expectedType</w>
Physical</w>
NS
Methods
XmlUtil</w>
binding
TupleDomain</w>
prototyp
getWeb
Rel</w>
serviceTarget</w>
LinkId</w>
Platform</w>
PARENTH</w>
getCalendar
AsStream</w>
NodeIndex</w>
ceive
FINDER_PATH_FETCH_BY_G_
OUTPU
getExpression
ToM
ModuleType</w>
BitSet</w>
microblogsEntry</w>
REFERENCE_
EP</w>
isRow</w>
expandoValue
ChangesBrowser
enumeration</w>
keleton
ek</w>
descriptions</w>
kaleoLog</w>
Filtering
ortion</w>
isActive</w>
zon
element2</w>
getSchema
transi
Beans</w>
declare
grand
sElement</w>
getPlat
ResourcePermission
RelativePoint</w>
repositoryEntry</w>
shorten
Assignments</w>
Candidates</w>
StorageLink</w>
Synthet
Balloon</w>
PER_
naturalId
INITI
CommonRefactoringUtil</w>
mavenProject</w>
_portlet
Init
InMillis</w>
AtOffset</w>
TableMapper</w>
UsageView
CAS
LayoutManager</w>
Complete</w>
requency</w>
1000</w>
RadioButton</w>
getPrimaryKeyObj</w>
AddOperation</w>
roles</w>
Unsync
Inside</w>
Analysis</w>
g2</w>
selector</w>
Attachment
MyNode</w>
PERIOD</w>
Betwe
LocalizationUtil</w>
SIB
Sibling
dlFileEntryType</w>
roll
writeLong</w>
MAPP
IVE</w>
SH</w>
isExp
validator</w>
problems</w>
local</w>
MP
jaxb
team</w>
Libraries</w>
OPERAT
GE
kip</w>
AssignmentStatement</w>
fragment
customize
getModules</w>
Occurrences</w>
Lighter
getAuth
upModel</w>
MessageType</w>
ffectType</w>
Buf</w>
MethodInvocation</w>
elementAt</w>
_persistence</w>
Collap
VED</w>
PsiDeclarationStatement</w>
merged</w>
CONFIGURATION</w>
unexpected
getTableName</w>
saved
SEARCH_
DEPENDENC
_SQL_
cmp</w>
sFile</w>
croll</w>
isN
tick
StatsUser
TypePortlet</w>
ordinal</w>
activate</w>
OperatorFactory</w>
kflow</w>
lifecy
getFileName</w>
_dl
getFocu
juncts</w>
Started</w>
PyElementGenerator</w>
dst
DisplayName</w>
Detected
UserGroupRole</w>
B_
Goto
ErrorMessage</w>
JBO
prevSibling</w>
tab</w>
structureId</w>
Abstract</w>
MIN_VALUE</w>
NameException</w>
Hierarchical
TabbedPane</w>
hasDefined</w>
Download
patterns</w>
subject</w>
suspend
Digest
getRelativePath</w>
PropsUtil</w>
ned</w>
_setOriginalCompanyId</w>
Activation
_originalCompanyId</w>
Malform
Enh
seBranch</w>
archive
changed
ResourceException</w>
EQ</w>
sqle</w>
ole
mySource
start1</w>
SearchResult</w>
available</w>
_SQL_COUNT_
added
Price
atedKey</w>
JBColor</w>
getLineCount</w>
probe
injection</w>
VfsUtil</w>
VIEW_
Skip
abstr
dispatch
ShortcutSet</w>
social</w>
catalog</w>
Fore
wild
aniti
WindowState</w>
TIME</w>
art</w>
FontMetrics</w>
driver
STATIC_
NEW_
BufferedImage</w>
Domain
Postfix
getFontMetrics</w>
INVALID_
myTar
getMember</w>
RefClass</w>
tokenizer</w>
sign</w>
dirty
getLayoutSet
replic
lash</w>
PsiImport
shift</w>
MULTI
valid</w>
incom
Toolkit</w>
shoppingOrder
VARCHAR</w>
cancel</w>
account</w>
columnId</w>
ycle
ValuesMap</w>
Mac</w>
hi
ToBe
ProjectLevel
Throwables</w>
getJavaType</w>
unit
ColumnFamily
COMPLET
ac</w>
setForeground</w>
Prev</w>
Sample
PortalCache
EditorWindow</w>
kaleoTaskInstanceToken</w>
inser
filename</w>
FileEditorManager</w>
getLocation
FOR_
phone
Cassandra
PsiImplUtil</w>
POPU
_request</w>
RequestContext</w>
level
HI
_escapedModel</w>
Rewrite
ActionUtil</w>
indexShard</w>
Certific
oded
MethodCall
type1</w>
getContaining
PHAS
sStats</w>
ui</w>
InCode</w>
MethodSignature
Interceptors</w>
ownerId</w>
PsiLanguageInjection
setSelection
AccessStrategy</w>
Pressed</w>
PsiLanguageInjectionHost</w>
processHandler</w>
bookmarksFolder</w>
ToolWindowManager</w>
0x00000001</w>
layoutPrototype</w>
getRootElement</w>
pyClass</w>
tra
uts
REVI
MessageException</w>
ToPsi
more
Vector</w>
classLoader
expected</w>
kaleoInstanceToken</w>
assetVocabulary</w>
changeList</w>
getExtend
TAS
setBackground</w>
NoSuchFile
cator</w>
Divi
createError
ALIZ
Repr</w>
_groupId</w>
BeforeRun
menu
getTag
workflow</w>
cept
timated
EJB3Subsystem
JBoss
Sig
kale
isDefined</w>
setCurrent
setMax
primKey</w>
kaleo</w>
Tabs
rules</w>
ak
locations</w>
RED</w>
VC
tw
quote
SVNRevision</w>
positionOffset</w>
socket
Constraint
dlFileShortcut</w>
Desc
EL</w>
If</w>
myH
getCat
COLUMN</w>
anti
Factor</w>
Spatial
ModuleDependency</w>
configurations</w>
decomp
Scheduler
ormal
JavaResolveResult</w>
name1</w>
CLASS_NAME</w>
commandLine</w>
filterGetBy
KaleoTimer
RoleConstants</w>
evaluator</w>
InspectionToolWrapper</w>
collap
Lib
PsiReferenceList</w>
Activi
QuickFixAction</w>
versService</w>
Threads</w>
idden
p2</w>
lob</w>
typeParameters</w>
RangeTombst
EV
createType
getSdk
visitReferenceExpression</w>
Fabric
famil
notN
TokenSet</w>
viewName</w>
deserialize
comparis
Favorite
isUse
PsiParameterList</w>
areElements
WindowManager</w>
ddmFormValues</w>
EDITOR_
yTo
getNumber</w>
isJava
Streams</w>
SVNException</w>
US</w>
War
newElementName</w>
processed
Presentable
fragments</w>
equalsTo
typeSettingsProperties</w>
writeTo</w>
unlock</w>
KaleoTaskInstanceToken</w>
getSearch
transfer
sStatsUser
term</w>
psiType</w>
childNode</w>
propertyValue</w>
rename
nameIdentifier</w>
fill</w>
assignmentExpression</w>
sFix</w>
setClassPK</w>
ContextFactory</w>
direction</w>
Cause</w>
sPanel</w>
text2</w>
C_C</w>
notNullize</w>
hour</w>
getCvs
Origin</w>
codeStyle
Histo
RenderingHints</w>
CES</w>
Mach
FunctionCall</w>
getNon
POLIC
ysical
codeInsight
Wizard
Already
outer
weight</w>
CQL
getFileIndex</w>
excluded
Suspend
Spel
atio</w>
quick
XmlAttribute
LD_
indexMetaData</w>
NoSuchPage
ErrorString</w>
allocation</w>
StatsUser</w>
distinc
getLog
clause</w>
getFilePath</w>
MODE
getServlet
This</w>
Distribution</w>
ExportImportConfiguration
getPresentableName</w>
0x00000002</w>
ByteCodeExpression</w>
lon</w>
myUn
myConfiguration</w>
Quote
fields
Functional
registerSubModel</w>
Mvc
most
CommonCodeStyleSettings</w>
getCompany
explicit
TTuple
jar</w>
getContentType</w>
Polyg
PLAIN</w>
TTupleProtocol</w>
Bot
upload
sWeb
shardRouting</w>
DescriptionResolver</w>
SIGN
UP</w>
ARY_
DateCriterion</w>
Anchor
Ordinal</w>
ANNOTATION_
CKE
getURL</w>
Execute</w>
buildErrorString</w>
Public
PrintWriter</w>
NAMESPACE</w>
Beans
Heal
MBCategory
ShardId</w>
EnumConstant</w>
Placeholder</w>
TypeParameters</w>
oldName</w>
getBind
getComponentCount</w>
getSignature</w>
CONNECT
ElementImpl</w>
Outputs</w>
LED_
HttpResponse</w>
IllegalAccessException</w>
AnnotationDescriptor</w>
assetVocabulary
Deprecated
OPEN_
abstract
pass
originalElement</w>
sapEntry</w>
cut
ModCluster
createDate</w>
VariableKind</w>
DiffContent</w>
resourceName</w>
GROOVY_
LDAP
Prior
getFileEntry
Completed</w>
PORT</w>
OKAction</w>
RefEntity</w>
friendlyURL
VFile
rift
Editable</w>
applyFix</w>
verUserId</w>
bf</w>
PsiIdentifier</w>
parentFile</w>
IntentionAction</w>
Contributor</w>
Fly
upgrade</w>
Processors</w>
identifier
analysis</w>
possible
Distance</w>
MailingList</w>
Jndi
bb</w>
isAccep
ification
SmartPsiElement
TIMESTAM
Click</w>
gbConstraints</w>
getElements</w>
Configurator</w>
checkType</w>
getPort</w>
subList</w>
BigDecimal</w>
ListUtil</w>
ABSTRACT</w>
mv</w>
getInit
schemaName</w>
GU
another</w>
typeManager</w>
transaction</w>
_setModifiedDate</w>
HomePath</w>
getDataSource</w>
Show</w>
KaleoLog</w>
DIS
ProgressManager</w>
Arg</w>
Decoder</w>
operations</w>
isOnTheFly</w>
shared
Prepare
fileNames</w>
Live</w>
Loaded
getThen
LEG
_PrevAndNext</w>
dum
elem
Mut
getActual
isPhysical</w>
Id2</w>
PluginId</w>
executionContext</w>
getGeneric
Layouts</w>
RowIterator</w>
XMLExtendedStreamReader</w>
Union
Should
validation
kaleoTaskInstanceToken
LocalRepository</w>
ValueMap</w>
Disposable</w>
getContents</w>
categoryIds</w>
gi
Indexer</w>
argumentTypes</w>
Fixes</w>
NotificationRecipient
resolveMethod</w>
ogy</w>
PROTO
Intf</w>
Self</w>
KeyboardFocusManager</w>
TailType</w>
Distance
identity
Added
Advice</w>
Feature
softWrap
myRb
Zer
journalFolder</w>
AttributesKey</w>
Manifest
TED</w>
terName</w>
rect</w>
DecoratedKey</w>
getDefault</w>
ToString
ThreeState</w>
ean
isReference
Deleted
criteriaQuery</w>
Jaxb
Other
td</w>
align
showAndGet</w>
Total
logger
omet
text1</w>
SUF
NamedParameter</w>
objectInput</w>
sizeof</w>
REVIS
myStart
AndFe
POO
ibernate</w>
BR
getHeaders</w>
CharArrayUtil</w>
runtime
COLLECT
Mock
STATE_
getApplication
Configs</w>
socialRequest</w>
Trigger</w>
KaleoTaskAssignmentInstance</w>
Mask</w>
Locations</w>
name2</w>
Failed
CATEG
ResolvableType</w>
LAR
getRepositoryId</w>
getCall
converter
baseName</w>
shortName</w>
COLUMN_
HANDL
myRole
reflec
Splits</w>
Delegate
Suggestion
Drag
getRangeInElement</w>
WhileStatement</w>
getSelectedIndex</w>
declaringClass</w>
Layer</w>
moveToOffset</w>
Correc
ThreadPool
html
lst
itable
Caches</w>
foo</w>
Ignore</w>
ddmFormFieldValue</w>
batch</w>
Specific
positionCount</w>
getKind</w>
myChild
PortletInstance
tic</w>
taskName</w>
TypeArguments</w>
argTypes</w>
getEntityPersister</w>
Strict
teAssignment</w>
decode</w>
Advisor</w>
createFile
lying
SSL
nullSafeEquals</w>
SGi
hit
myRe
findByU_
portletResponse</w>
phone</w>
navigate</w>
myF
AnnouncementsEntry</w>
putIfAbsent</w>
forE
DLApp
attrs</w>
UnicodeProperties</w>
ballo
orVersion</w>
ResourceType
resources</w>
taskInfo</w>
DDMFormFieldValue</w>
catch
alker</w>
submit
Master
outputType</w>
literal
equalsToText</w>
FLOA
currentPosition</w>
IsNull</w>
getKeyCode</w>
inity</w>
Span
ExternalProjectPath</w>
ading
Own
securityDomain</w>
Hex
legacy
writeExternal</w>
EventModelImpl</w>
queryString</w>
constructors</w>
zzy
sList
agic
myError
unwrap</w>
OfWe
Parentheses
Memory</w>
PROCE
Yes
myTarget</w>
Id1</w>
URL_
Cal</w>
PHASE</w>
areElementsEquivalent</w>
slot</w>
LES</w>
lineStartOffset</w>
working
DDMFormField</w>
Deserializ
UIForm
CompositeType</w>
Conversion</w>
UNDER
runConfiguration</w>
segment
indexed
ruleGroup
getShortName</w>
accumul
NoSuchCategory
selectionPath</w>
creator
ReferenceProvider</w>
Readable
MapValues</w>
Edge
LENGTH</w>
TOO
SYSTEM</w>
PROPERTI
warn
layoutSetBranch</w>
Issue
queryInfo</w>
CURRENT_
''</w>
rer
PortletURL
Head</w>
Expanded
findByG_U_
insertString</w>
MONTH</w>
amod
Stage
Discriminator
SiteBinder</w>
Gossi
OUT</w>
Codec</w>
socialActivityLimit
impl</w>
NoSuchActivity
Release
userLocalService</w>
Problems</w>
lType</w>
Predic
Highlighters</w>
createErrorAnnotation</w>
Cart</w>
LocalChangeList</w>
Checkbox
searcher</w>
socket</w>
Sn
Intro
TypeDefinition</w>
encode</w>
PREF
subscri
waitFor
contact</w>
MapUtil</w>
qualifierType</w>
Scheduled
lst</w>
myData
Editors</w>
ResolveContext</w>
Metric
itemSelector
Must
bm
getControl
end1</w>
lastComparison</w>
serialized
LY_
kJs
mbolic
FontSize</w>
RANG
classpath</w>
ggle
ByteCodeBlock</w>
ProjectManager</w>
fromElement</w>
Distinc
RenderingContext</w>
repe
getEvent
getDialect</w>
isMac</w>
Stomp
ped</w>
getPassword</w>
UUID
NumberOf
alette
INFO</w>
asBoolean</w>
findModule
ACC_
createSpaceInCode</w>
antic
Theme</w>
removeCache</w>
ImportElement</w>
Semantic
infer
doOKAction</w>
ResourceAdapter
ttl</w>
ACTIVE</w>
KER_
edText</w>
ANO
getLineHeight</w>
socialRequest
CLI
Core
CacheException</w>
Regions</w>
statementList</w>
WHITE
ProjectLevelVcsManager</w>
pairs</w>
myOld
FileSystem
lang
Starts</w>
unknown
Margin</w>
tracef</w>
Audited
Fal
NS</w>
getRegistry</w>
tionType</w>
Complete
LtD_
oTime</w>
JBOSS_
sModel</w>
NullPointer
initializer
Allowed
StdFileTypes</w>
NullPointerException</w>
foo
depend
EntriesCount</w>
BREA
ForStatement</w>
pane</w>
contextPath</w>
TASK_
parenth
REMOT
ndr
Def
MarshalException</w>
allScope</w>
fileEditor</w>
rowCount</w>
AssetVocabulary
Severity
Main
trimm
ClassInfo</w>
localiz
Wrapped
portletConfig</w>
Scopes
sequence
Json</w>
pc</w>
leaf
resp</w>
PsiArray
SoftReference</w>
planation</w>
Modality
EO
async
myNode</w>
keep
N_H_
flag</w>
StringTokenizer</w>
removed
VcsRevisionNumber</w>
FLA
ync</w>
targetElement</w>
BuilderFactory</w>
socialActivity</w>
Conflicts</w>
assignment</w>
getPersistenceContext</w>
beanClass</w>
pu</w>
indexSettings</w>
ARRAY_
MDRRuleGroup</w>
normalize
YesNo
ComponentInstance</w>
Cat
eed
ParameterTypes</w>
drag
forEach</w>
getActionableDynamicQuery</w>
Inher
aptor
Loaded</w>
Detail
contextName</w>
toolti
versions</w>
PAGE_
Malformed
DOCU
mdrRuleGroupInstance</w>
Expiration
SELE
tables</w>
console</w>
operands</w>
getLabel
RU
myIcon</w>
marshaller</w>
Pending
Sample</w>
Plugins</w>
printWriter</w>
paintComponent</w>
checkCanceled</w>
DDMDataProviderInstance</w>
GroovyPsiElement</w>
Card
cc</w>
tail</w>
ARO
syn
gb</w>
ik
mk
isFile</w>
PyAssignmentStatement</w>
OperationHandler</w>
HttpSession</w>
KaleoTaskAssignment</w>
stagedModel
255</w>
LookAndFe
Most
Javac
XBreakpoint
device</w>
FileTemplate</w>
Merged
Attr
layoutFriendlyURL
SESSION_
connect
runner</w>
getShortcut
getRevision
management
ATTR_
DDMFormValues</w>
Restrictions</w>
TemplateImpl</w>
JavaErrorMessages</w>
getParametersCount</w>
recordSet</w>
Privileged</w>
credentials</w>
quote</w>
hasLength</w>
checkBox</w>
poly
MISS
'\''</w>
NoSuchPageException</w>
WorkingCopy
getPriority</w>
sourceSet</w>
NaturalId
getClasses</w>
MemberValue</w>
getIndexableActionableDynamicQuery</w>
PsiWildcardType</w>
Calcul
Registrations</w>
CC
ExecutorClassName</w>
ipelineAggreg
RUN
ServiceTracker
MBMessage
getId
getMetadata
start2</w>
ManagerFactory
NA
Comparable</w>
LayoutPrototype
socialRelation
JCheckBox</w>
getArray
getEnd</w>
RepositoryEntry</w>
SemanticException</w>
ok
ShoppingOrder
classNameIds</w>
NANO
newHashSet</w>
doFix</w>
estions</w>
toCacheModel</w>
INSER
PyNamedParameter</w>
subSequence</w>
FOLDER_ID</w>
writeByte</w>
ignored
gor
nd</w>
myElement
gorith
Jta
getEntry</w>
engine</w>
guess
XmlToken</w>
TIFI
getLineEndOffset</w>
ONE</w>
choi
Expan
FRO
json</w>
Protec
EngineId</w>
Compile</w>
msg
elementName</w>
DocString
Reply
v2</w>
pool</w>
DiffString</w>
Off
evt</w>
getNavigation
allowed
FileInputStream</w>
newText</w>
QueryPos</w>
idea
Combo</w>
PathName</w>
ProjectFileIndex</w>
RootElement</w>
WebApplicationContext</w>
myCache</w>
ReturnValue</w>
PackageSet</w>
JournalContentSearch</w>
rewritten
FieldData</w>
CodeStyleSettings
SocketAddress</w>
DiscoveryNode</w>
BIND
Success
DefinitionInjectionSource</w>
Er
subscription</w>
metric</w>
_to
Keep
keyword
Updated</w>
CommandName</w>
Created</w>
ioFile</w>
AROUND_
CT</w>
Into
extended
Integer
mirror
ssWeb
getSystem
mbCategory</w>
HashSymbol</w>
kaleoClassName</w>
NamedScope</w>
referent</w>
CheckedTreeNode</w>
fetch</w>
itial</w>
AttributeName</w>
scheduler
UncheckedException</w>
SED</w>
UTIL_
selectedItem</w>
Loaders</w>
getMetaData</w>
toMillis</w>
executor
SocialActivityCounter
endIndex</w>
XmlName</w>
QueryOptions</w>
JDK_
Breadcrumb
InParent</w>
Params
Markers</w>
Members
QUO
getOwner</w>
PsiPrefixExpression</w>
rootType</w>
xmlFile</w>
HeaderAccessor</w>
getCategoryId</w>
visitElement</w>
listFiles</w>
Closure
getConnection</w>
IP
Caching
ModuleSource
refEntity</w>
_column</w>
man
IDENT
gr</w>
v1</w>
Possible
getChildRole</w>
scrollTo
IProperty</w>
DEBU
protocolVersion</w>
REGULAR_ATTRIBUTES</w>
Zoom
PsiMethod
compression</w>
RootBeanDefinition</w>
kaleoClassPK</w>
Inspector</w>
Keywords</w>
ASH</w>
extends
InspectionsBundle</w>
HttpMethod</w>
MemberInfo</w>
UTF8
NANOSECONDS</w>
rhs
getStub</w>
complex
Operand
PropertyPath</w>
ChangeInfo</w>
nanoTime</w>
Checkout
SECUR
variants</w>
Registered
Hour</w>
afterRevision</w>
SOR</w>
Substitution
OfExpression</w>
propertyNames</w>
ternative
calendarNotificationTemplate
artifacts</w>
FindUsages
SEM
atel
myPackage
css
matching
VISIB
Where</w>
editorText</w>
ConsistencyLevel</w>
_cql
payload
getNamed
ByType</w>
ToMove</w>
myChildren</w>
produ
timestamp
PrivateData</w>
hibernate</w>
addPortlet
mbMessage
XmlConstants</w>
inality</w>
MILLISECONDS</w>
agram</w>
UIFormXmlConstants</w>
AIN
rc
MapLanguageIds</w>
JAVA_UTIL_
Producer</w>
iki</w>
DB</w>
coverage
ticaster</w>
fillRect</w>
'}
myProperties</w>
Connector</w>
getChildAt</w>
XPath2
CtClass</w>
'}'</w>
TECT
millis</w>
SourcePosition</w>
delivery
myElements</w>
newContent</w>
tempor
selectedNodes</w>
CONTEXT</w>
rt
lipsi
ONE_
0f</w>
lambda
GrDoc
AnnotationElement</w>
okie
Interpreter
definitionTerms</w>
STATEMENT</w>
redirect
RET
advanceLexer</w>
primaryKey
Scanner</w>
OW
USER
termin
slices</w>
Global</w>
Sc
score</w>
recovery
FileShortcut</w>
toEscapedModel</w>
trigger
parents</w>
ToolWindowAnchor</w>
strategy
OFF
visitMethodCallExpression</w>
VcsDataKeys</w>
ancestor</w>
sstables</w>
15</w>
isAccessible</w>
optim
prepared
Needed</w>
RESUL
x1</w>
getCommit
newSize</w>
spaces
Guest
loc</w>
Entities
layoutBranch</w>
writeUTF</w>
sstable
Uid</w>
Parse</w>
Unavailable
Suite
utton</w>
codeInsightSettings</w>
Meetups
proce
ClassType
registerOperationHandler</w>
evaluate
ann
PsiParenthesizedExpression</w>
BuilderMessage</w>
sEntryId</w>
igh</w>
AtCaret</w>
Poj
userPersistence</w>
ProjectView
repositories</w>
getTypes</w>
Remain
dataStream</w>
Debugger</w>
feed
ENGLI
Init</w>
Indexable</w>
sourceType</w>
Loading
getDocument
SourceTree
getParameterType</w>
isWritable</w>
isWindows</w>
toList</w>
classNames</w>
SelectionModel</w>
SettingsMap</w>
argList</w>
Marshall
highlightInfo</w>
JDOMExternaliz
PACKAGE_
Sol
colate
PostDate</w>
codeBlock</w>
MAT
jsp
ued
ClassDefinition</w>
type2</w>
LIST
portletDisplay</w>
Numbers</w>
_setOriginalGroupId</w>
isP
_originalGroupId</w>
workflowContext</w>
LOCAL</w>
showErrorDialog</w>
LITERAL</w>
ableCollection</w>
cedure
sEnabled</w>
getInsets</w>
Symbolic
ActionHandler</w>
TreeSet</w>
colon</w>
ConfigurationType</w>
SERVER_
ToPsiMap</w>
SourceTreeToPsiMap</w>
YE
zoom
Ext
myArtifact
ProjectModel</w>
RequestValidationException</w>
HighlightUtil</w>
roleName</w>
libraryName</w>
createAction
PROP_
COMMENT_
ByUuidAndGroupId</w>
Paste
zed
WorkflowInstance
Blob
tmp</w>
stmt</w>
promp
psiPackage</w>
Weigh
EXTENSION</w>
wildcard
vm</w>
XmlDocument</w>
PropertiesComponent</w>
CanceledException</w>
PackagingElement
Done</w>
IR
ingType</w>
keyword</w>
_portal
assignee
myLock</w>
SecurityManager</w>
amodel</w>
SAM
getVcs
constraint</w>
Now</w>
JavaDoc
sources</w>
off
sOn
redirect</w>
RequestHelper</w>
KaleoInstance</w>
EXCEPT
SocialActivitySet</w>
concrete
Ok
MBBan</w>
Aggregations</w>
Aspect
getDouble</w>
wid
getGrid
Undo
psiField</w>
HighlightSeverity</w>
AuditingData</w>
OrMap</w>
parentClass</w>
StatEdge</w>
PreferredSize</w>
DEFAULT_PARENT_FOLDER_ID</w>
_logger</w>
ExpandoColumn</w>
domain</w>
destroy</w>
Suc
getTab
resolv
assetTag</w>
ResolveUtil</w>
CustomShortcutSet</w>
paintIcon</w>
COLOR</w>
codeStyleManager</w>
mmary
TypeParser</w>
lines
Joiner</w>
CONTAIN
DescriptionBuilder</w>
TransformationDescriptionBuilder</w>
cf</w>
QueryException</w>
PsiTypeCastExpression</w>
assertIsDispatchThread</w>
unwrap
modelName</w>
Resolved</w>
replaced</w>
findByG_P_
WEST</w>
getFields</w>
PropertyFactoryUtil</w>
contextClassLoader</w>
BooleanFilter</w>
Hbm
unbox
AtLe
Bindings</w>
DAY</w>
getInitializer</w>
NoSuchCategoryException</w>
CHAN
ascade
wiki</w>
HashUtil</w>
DL_
EntityKey</w>
fromIndex</w>
HighlightDisplay
Play
PACL
HOR
home
tmp
Appro
FIX_
Generation</w>
ConnectionFactory
LangDataKeys</w>
Aspect</w>
Known
TProtocol</w>
Possi
ENGLISH</w>
getPosition</w>
getRevision</w>
ableBeanFactory</w>
interval</w>
Association</w>
pool
inherit
getServer
Unresolved
SvnTarget</w>
DATA_KEY</w>
DependenciesNode</w>
Watch</w>
manifest
getSeverity</w>
PsiBlockStatement</w>
Notif
firstChild</w>
JAVA
fm</w>
NoSuchFileEntry
socialActivitySet
COMMENT</w>
Tail</w>
indexes</w>
SIST
getElementAt</w>
documents</w>
SECOND</w>
XY</w>
Collect
ared</w>
treeElement</w>
QUOT
finder</w>
setValue
AndTooltip</w>
PortletConfig</w>
layoutId</w>
fetchByC_C_
Publisher</w>
getAccess
Suite</w>
elementText</w>
ECUT
Metric</w>
aggregations</w>
EXECUT
WorkflowDefinitionLink</w>
Raptor
aggregation
getCompletion
TreeModel</w>
getDefaultValue</w>
Agent</w>
compression
SCHEM
BACKGRO
12
Cart
Let
settingsMap</w>
inspec
IndexableType</w>
NoSuchMessageException</w>
Taglib
TOR</w>
eetupsEntry</w>
getByUuid_PrevAndNext</w>
scopes</w>
RAM
pas
Notifications</w>
capacity</w>
BorderFactory</w>
DLFileEntryType
Moved</w>
Compound
Html</w>
jpa
FileUtils</w>
ByteArrayInputStream</w>
ttp</w>
VcsLog
website</w>
jdk
ENTS_
ChangeListener</w>
Relo
definiteAssignment</w>
BIN
PR
\'</w>
Decision</w>
selectedValue</w>
Information
classMember</w>
propertyType</w>
webElement</w>
aque</w>
PsiReturnStatement</w>
processed</w>
Connect
DumbService</w>
setLastPublishDate</w>
Trust
Associated
Save
myRepository</w>
plan</w>
ColumnIdentifier</w>
cacheKey</w>
Singleton</w>
Phase
Synthetic
desc
SocialRelation
FailureException</w>
LighterASTNode</w>
0_
ba
getOptional
asp
getSite
Creation
tracker</w>
ActionCallback</w>
getLong
NotificationType</w>
SqlBase
objectOutput</w>
PARAMETER</w>
Mov
logs</w>
Minute</w>
DesignerBundle</w>
Scrip
ci
Execute
STYLE_
prec
sc</w>
etyp
end2</w>
Ord</w>
MDRRule</w>
Bridge
FINDER_PATH_COUNT_BY_UUID_G</w>
amele
ScrollBar</w>
finispan
remaining
bd</w>
mbDiscussion</w>
HttpUtil</w>
getByUuid_C_PrevAndNext</w>
FLOAT</w>
Pair
basic
handlers</w>
Docs
caseSensitive</w>
SKIP_
num</w>
getColumns</w>
ased</w>
UserGroupGroupRole</w>
vars</w>
JDB
isTrue</w>
added</w>
rectangle</w>
forced
Destro
itemId</w>
StdArrangement
prototype</w>
Shelved
itors</w>
actualValue</w>
Agent
IDENTIFI
da</w>
mbCategory
TabInfo</w>
STRI
methodInvocation</w>
Isol
Increment</w>
visitMethod</w>
AUTH_
ged
incomplete
Enclo
ADD</w>
HTML</w>
HttpRequest</w>
PsiDocTag</w>
myId</w>
gram</w>
Scala
sAre
isMulti
Contact</w>
lick
PolicyId</w>
nextOffset</w>
getFileEntryId</w>
getOptions</w>
getDB</w>
getTemplate</w>
step
transformer</w>
OPTIONS</w>
getBean</w>
ContentDescriptor</w>
getMark
getMaven
thenExpression</w>
ReaderContext</w>
Sql</w>
endpoints</w>
ContextNames</w>
visualLine</w>
LanguageLevel
getBackground</w>
JournalFeed</w>
renderer
a1</w>
tionMap</w>
resourceRegistration</w>
ToMany</w>
theme</w>
MethodException</w>
PyBundle</w>
LOG_
Expand</w>
jboss</w>
XDebug
Primitive</w>
SwitchStatement</w>
Blan
Middle
selectedFile</w>
OptionalString</w>
Normaliz
WIN
combo
actionGroup</w>
dlg</w>
IdeaPluginDescriptor</w>
dynamicQuery
Lat
Redirect</w>
TypeUtils</w>
getPropertyValues</w>
getQuestionIcon</w>
tryStatement</w>
MessageListener</w>
varName</w>
getBeforeRevision</w>
git
Editable
MailingList
getIdentifier</w>
RESOL
MIT</w>
WORD_
Phone
WID
dc</w>
Reason</w>
hasPermission</w>
Metamodel</w>
ShoppingCategory</w>
Answer
lat</w>
setFont</w>
fileSystem</w>
PathManager</w>
VariableValue</w>
StagedModelDataHandler
SmartPsiElementPointer</w>
urround
username</w>
searchScope</w>
displayStyle</w>
getCount</w>
Quote</w>
TreeStructure</w>
Help</w>
clone
schedule</w>
contro
idAllocator</w>
newHighlightInfo</w>
ROW
lastParent</w>
ModificationService</w>
'\\'</w>
control</w>
URE_
JoinNode</w>
ScopeProcessor</w>
Worker</w>
workflowDefinitionLink</w>
PsiFormatUtilBase</w>
setModifierProperty</w>
EntityManagerFactory</w>
ipeline</w>
Tpch
getLocalization
statistic
declaredType</w>
('</w>
getDeleg
vered</w>
GroupNode</w>
VirtualHost
Repair
recordSetId</w>
Conflict</w>
getLeft</w>
DaemonCode
DLFolderConstants</w>
setBounds</w>
AUTO_
Supplier</w>
addChild
ExternalSystemTask
DECLAR
'('</w>
myW
Pop
visitor
SessionFactoryImplementor</w>
LookAndFeel</w>
ffix
Running</w>
advanced
filesTo
GrBinaryExpression</w>
DiffUtil</w>
Generics</w>
substitute
compressed
replacement
toolbar
DialogWrapper</w>
Compression
Embedded
mx
NotS_PrevAndNext</w>
notation</w>
expand</w>
getRootPane</w>
daemon
compress
JournalFolder
Rollback
getAddress</w>
getWindow
FileModificationService</w>
shap
indexName</w>
getLocalizationMap</w>
CB
LS</w>
ExpressionContext</w>
getProcess
findByCompany
resolveContext</w>
roleIds</w>
style
MIT
Overrides</w>
ToRe
createJSONObject</w>
Disk
subPlan</w>
UIDesignerBundle</w>
getFolder</w>
newProxy
assetRendererFactory</w>
stringBuilder</w>
getInitParameter</w>
_state</w>
ured
readUnsigned
socialRelation</w>
Mark</w>
Credential
clipse
pac
getExternal
setContextClassLoader</w>
pathTo
framework</w>
CHARACT
journalContentSearch
Ari
SSTables</w>
js
Inputs</w>
NOTIFI
PROTECT
occurrence</w>
Orc
minute</w>
AccessExpression</w>
MOUSE_
FORMA
StepHandler</w>
DBManagerUtil</w>
sistency</w>
PropertiesSet</w>
SvnBundle</w>
MDRAction</w>
ProfileManager</w>
Shape
SGiService
getHost</w>
Cookie</w>
myLocal
addChild</w>
getFriendly
pollsVote
Integr
ToolTip
getIO
recursi
GrIfStatement</w>
mapper
getProtocol</w>
textAttributes</w>
SystemEvent</w>
kaleoDefinition</w>
paramAs
UserGroupRole
DLFileEntryMetadata</w>
compareAndSet</w>
ChangeListManager</w>
getThenBranch</w>
Equ
TIT
getOpen
Infinispan
DataProvider</w>
getCode
userNotificationDelivery
PersistentClass</w>
isDone</w>
Advanced
estimated
superType</w>
Divider
getServletContext</w>
always
Choose
trashEntry</w>
BYTE</w>
ParenthesesUtils</w>
sourceRoot</w>
fetchByUuid_Last</w>
Self
PROVIDER</w>
cookie</w>
LOW
relation
ServiceRegistration</w>
removeImpl</w>
initializers</w>
ProxyImpl</w>
XPathType</w>
getBlock
KaleoDefinition</w>
paramTypes</w>
sired
BlogsStatsUser</w>
Occur</w>
GENERIC_
newProxyInstance</w>
Servlet</w>
TemplateId</w>
kaleoInstanceId</w>
ConfigurationBuilder</w>
MAL</w>
Final
50</w>
ique</w>
rd</w>
getHandler</w>
already
regex</w>
ParameterName</w>
RenderRequest</w>
COMPO
ManyTo
hit</w>
AnnotationUtil</w>
artbe
getFullName</w>
getElseBranch</w>
abs</w>
mySize</w>
Indexer
TableMapping</w>
OrgLab
RETUR
findByGroup
SearchException</w>
lineHeight</w>
Too
requestor</w>
attributeDefinition</w>
Repo</w>
Geomet
SEMI
Eclipse
ean</w>
sString</w>
thmet
targetLayout</w>
Coupon</w>
Const
ClassReferences</w>
Dn
oted
ager
exchange</w>
rawType</w>
Synchronization</w>
bottom
PackageDependenciesNode</w>
Verifier
deletion
cfId</w>
GeoPoint</w>
InitializerExpression</w>
family</w>
caretModel</w>
getPrefix</w>
NON_
solet
getOSGiService
ColumnFamilyStore</w>
getOSGiServiceIdentifier</w>
',
responses</w>
GrCodeReferenceElement</w>
dlSync
getArtifactId</w>
','</w>
40</w>
getLine</w>
spaces</w>
ruleGroupId</w>
_Last</w>
mac
brace
VcsUtil</w>
SqlUpdate</w>
getLastChild</w>
Encryp
seconds</w>
FileCollection</w>
SystemProperties</w>
annotated
BRACKE
GradleUtil</w>
Plugins
SEMICOLON</w>
same
satisfiedBy</w>
ActionIds</w>
Executable</w>
CommonBundle</w>
DateFormat</w>
isShowing</w>
tten</w>
Env</w>
Rpc
assemb
setEnabled
getLook
VersionException</w>
conversion
showYesNo
PsiScopeProcessor</w>
pom
line1</w>
classNameLocalService</w>
get_
Responses</w>
getTemplatePresentation</w>
failures</w>
adding
getScreen
TransactionSynchronization
ClassLoaderUtil</w>
_uuid</w>
TOP</w>
Specs</w>
RENDER_
SystemKeyspace</w>
CASE_
getRepository</w>
repo
Handles</w>
assetLink
SPEC
resourceBlockId</w>
FINDER_PATH_FETCH_BY_C_
Transient
ating</w>
getHeader
memberInfo</w>
problemElement</w>
ISTR
les
requireNo
getCategory</w>
download
QualifiedNameReference</w>
assertNotNull</w>
IdeActions</w>
expandoValue</w>
commandLine
getAfterRevision</w>
Cpu
Canonical
Manifest</w>
dt
have
ForWrite</w>
force</w>
PopupFactory</w>
Else</w>
needs
remote</w>
jections</w>
ARY</w>
serialize
Public</w>
segments</w>
socialRequestModelImpl</w>
Iter</w>
hg
setSource</w>
Compact
LOW_
MBDiscussion</w>
nchronous
opping</w>
Hide
recordId</w>
VirtualFileManager</w>
getPlatform</w>
isEnum</w>
readByte</w>
TaskInfo</w>
visibleArea</w>
Multim
TS
getStructure
buff</w>
Setup
DOT</w>
eventType</w>
umb</w>
DO_
printStackTrace</w>
WORK
Cir
XmlTag
DOT_
CompositeElement</w>
country</w>
getBaseDir</w>
getNo
getFacet
embedd
Executable
Conditions</w>
Scale</w>
setSelectedIndex</w>
cd</w>
jms
mbDiscussion
ModuleVersion
SelectionIndex</w>
changeInfo</w>
RatingsEntry</w>
opcode</w>
dlFolder
accumulate</w>
adle</w>
TextWith
PostProcessor</w>
serverName</w>
0x00000004</w>
Stateful
ActionButton</w>
Commits</w>
CollectionUtils</w>
calendarResourceId</w>
OTH
i2</w>
ModuleManager</w>
TYPES</w>
getSubs
myMin
Replacement</w>
InspectionGadgetsFix</w>
ExpectedTypeInfo</w>
BLOCK</w>
ProjectBundle</w>
ILD
Ellipsi
getModification
isSimple
Bus
UpTo
buildSQL</w>
entityPersister</w>
0xFF
XmlNS
RootResourceDefinition</w>
Adjust
DiffFragment</w>
VAL_
ModifiableRootModel</w>
SCOPE</w>
Dummy
Fast
Rnc
mi
FileNotFoundException</w>
descriptionAndTooltip</w>
getApp
perform</w>
uby
ddmForm</w>
ManagerService</w>
cvsFileSystem</w>
INTERNAL_
JAVA_LANG_OBJECT</w>
SERVLET_
getInterfaces</w>
getSchemaName</w>
global</w>
x2</w>
myDocument
actionIds</w>
checker</w>
acing
FileOutputStream</w>
SearchUtil</w>
LINES_
organizations</w>
titleMap</w>
hidden</w>
getSync
itch</w>
Edit</w>
VcsFileRevision</w>
journalFolder
tagWriter</w>
bookmarksFolder
VOID</w>
SHORT</w>
pipelineAggreg
lastModified</w>
ShoppingItem</w>
Cfg</w>
enabled
NotS</w>
methodSignature</w>
CacheManager</w>
requested
SCROL
Formula</w>
OPERATORS</w>
Timed
interrup
OutputPath</w>
EvaluationContext</w>
ParserUtils</w>
ConsoleView
PollsQuestion</w>
CacheEntry</w>
RenderResponse</w>
getFo
SIMP
BOD
required</w>
CHECK_
Grid</w>
myRef
shut
InstanceException</w>
myMerge
ShortcutId</w>
ILE_
NER_
mediaType</w>
getVariable</w>
Deep
Failed</w>
FunctionImplementation</w>
drop</w>
setStatus
GroovyFile
InvalidDataException</w>
Bidirec
getIOFile</w>
gc</w>
constrain
getLanguageLevel</w>
SUFFIX</w>
HORIZ
getImplement
ClassFilter</w>
minimum
rootModel</w>
Prompt
POLICY_
ApplicationBundle</w>
MESSAGE_
FileTemplate
reader
REQUI
DELI
DisplayContext</w>
roz
Overriding
icket
ItemImpl</w>
requiredType</w>
VIRTUAL_FILE</w>
loo
ugh
javax</w>
GT</w>
_classLoader</w>
derived
Imported
SIS</w>
Backward</w>
setSelectedItem</w>
Media
used</w>
ByElement</w>
toSelect</w>
regular
actionContext</w>
textLength</w>
JBPopupFactory</w>
SvnVcs</w>
getJdbc
PoolSize</w>
Tw
newMethod</w>
cleanUp</w>
netty
Increment
card</w>
getInfo</w>
Refactoring</w>
activityCounterDefinition</w>
UnavailableException</w>
milli
agno
ocity
ARGU
CommentOwner</w>
getStartOffset
chunks</w>
findFileByPath</w>
DEFINED</w>
logging
wac</w>
file1</w>
fileElement</w>
moduleLoader</w>
Separators</w>
PARENTHESIS</w>
Decomp
contentManager</w>
Cluster</w>
toolbar</w>
OpenIn
CACHE</w>
Defined
COMPON
getResponse</w>
ics</w>
ERS_
taskExecutorClassName</w>
Ele
Remin
Calls</w>
Immediate
trashHandler</w>
PARAMETERS</w>
13</w>
RESP
Rect
EventException</w>
StreamSource</w>
queryAnn</w>
maxSize</w>
SymbolicName</w>
Kind
TARG
isFor
forStatement</w>
getByC_
discus
PT_
grid</w>
myContent</w>
NotSupported
localRepository</w>
CalendarResource
prime</w>
myAll
delim
ResourceConstants</w>
getDL
factories</w>
complete</w>
ON_DE
Bro
cb</w>
Subclass
kaleoDefinition
MIT_
GrClosure
getEntryId</w>
msHolder</w>
Visit
Validation</w>
enium</w>
Multimap</w>
AS</w>
XValue
includes</w>
wikiNode</w>
CBUtil</w>
RESPON
toModel</w>
CLASSES</w>
packages</w>
IONAL_
detect
primiti
SwingConstants</w>
CONFIGURATION_
SchemeId</w>
Alpha
SH_
iterable</w>
kaleoLog
assetLink</w>
GraphEdge</w>
urlTitle</w>
Delay</w>
ick</w>
where</w>
Website
IdeFrame</w>
fetchByUuid_C_Last</w>
JMSException</w>
Labeled
CCE
getPro
addBefore</w>
Variant
SUCCE
recentLayoutRevision
SELECTED_
dimension</w>
reformat</w>
createNew
alization</w>
nextSibling</w>
compareTo
IMPORT
flag
myG
question
TypeParameter</w>
marshall
Where
componentConfiguration</w>
ThisExpression</w>
CONTENT_TYPE</w>
calendarBookingId</w>
grandParent</w>
Qualified</w>
_originalUuid</w>
Dimensions</w>
EditorColorsManager</w>
ames</w>
Thrift</w>
Collectors</w>
startsWith
sourceFile</w>
errorCode</w>
Email</w>
virtualHost</w>
AND</w>
getRight</w>
navigatable</w>
primaryKeys</w>
Pag
ulator</w>
ste
tributed
Packages
getEffective
multiResolve</w>
WildFly
dynamicQueryCount</w>
OVER
revalidate</w>
readUTF</w>
Deleted</w>
translate
PsiFormatUtil</w>
Arithmet
probe</w>
inputString</w>
LOCAL
Installation</w>
proceed</w>
DDMContent</w>
JoinType</w>
webRequest</w>
Buttons</w>
REQUEST_
isApplicable</w>
isC
isPrivateLayout</w>
myRight
ARCH
resourceResponse</w>
admin</w>
timeout
getByCompanyId_PrevAndNext</w>
getReferences</w>
incoming</w>
KS</w>
fileShortcut</w>
groupLocalService</w>
myCustom
GA
getLev
methodHandle</w>
NoSuchStructure
CalendarNotificationTemplate</w>
SocialActivityAchievement</w>
JavacRemoteProto</w>
ied
scr
EntityType</w>
CompletionUtil</w>
MEMB
PyClass
AnnotationInstance</w>
isAnnotationType</w>
getClientProperty</w>
asure</w>
Explanation</w>
anges
ATIVE_
ProcessCanceledException</w>
currentValue</w>
NotSupportedException</w>
middle
Callback
getSelectedValue</w>
tabbed
ExpandoColumnConstants</w>
Possible</w>
buildFile</w>
CompletionResultSet</w>
Semi
Health
rev
forElement</w>
ON_DEMAN
evic
getSample
GrAccessor
ListableBeanFactory</w>
mazon
CONTRO
DebuggerBundle</w>
myMax
UserId_PrevAndNext</w>
debugger
poller
BOT
FUNCTION_
High
Jms
ers
announce
isSu
parseBoolean</w>
MODE</w>
platform
WebServiceAction
require</w>
FROM_
stage
isAuto
Than</w>
LayoutFriendlyURL
Sections</w>
workflowTask
Clause
readObject</w>
NoSuchMethodException</w>
CharArray</w>
registered
mented
THREAD_
ParserContext</w>
refMethod</w>
transformSQL</w>
clientEnvironment</w>
HTML
ddlRecordSet
wikiPageResource
SECURITY_
names
toByteArray</w>
Related
Weight
lite
account
Texts</w>
mbd</w>
HOST</w>
LookupItem</w>
pollsChoice
Launch
SETTINGS</w>
staging
NotFound</w>
findByGroupId_PrevAndNext</w>
ProjectPath</w>
PRES
socialActivitySetting
dump
CAR
enversService</w>
calEvent</w>
resolveClassIn
VariableInstruction</w>
selectedFiles</w>
Compatible
uration
lib</w>
Allocation</w>
DDMForm</w>
getSqlUpdate</w>
getPlace</w>
XClass</w>
ANY_
RunContentDescriptor</w>
Sqlite
SqliteTables</w>
Jql
TT</w>
ets</w>
inner</w>
myFont
propertyReplacer</w>
SqlUpdate
CompileSpec</w>
CUSTO
STORE_
Frequency</w>
General</w>
DomElement
clon
resourceTypePermission
Reject
ClassPath</w>
Unary
ExpressionText</w>
Organizations</w>
Activate</w>
FILTER_
HashCodeBuilder</w>
shortenClassReferences</w>
visitorClass</w>
ha
sPath</w>
ization</w>
converted
PollsVote</w>
addresses</w>
Main</w>
copyFrom</w>
il</w>
sName</w>
Primary</w>
afterPropertiesSet</w>
JN
nown</w>
VariableName</w>
plugins</w>
dispose
chooser</w>
Builtin
Palette
Annotator</w>
MessageId</w>
getContentManager</w>
logicalPositionTo
destinationName</w>
POPUP</w>
SqlUpdateFactoryUtil</w>
_submit
Quanti
DataSize</w>
Whole
NORTH</w>
_submitted</w>
nodeIndex</w>
lockOptions</w>
author</w>
DLFileRank</w>
mimeTypes</w>
RewriteContext</w>
Remaining</w>
STRAT
NavigationItem</w>
BASE_
MBThreadFlag</w>
dictionary</w>
ATED</w>
TextAttributesKey</w>
dot</w>
ComponentIdentifier</w>
DLSync
getPrevious
getFocus
addParameters</w>
StringLiteral</w>
findAnnotation</w>
UserLocalServiceUtil</w>
cluster</w>
deleted
NamedArgument</w>
DirectoryService</w>
Coupon
CHANNE
inputs</w>
Identity</w>
expectedValue</w>
getOriginalFile</w>
liveGroup</w>
env
queries</w>
persistedModel</w>
THRE
StatementBase</w>
BLANK_
GeneralCommandLine</w>
MESSAGE</w>
Bootstrap
TEMPLATE_
False</w>
ately</w>
_update
ves</w>
KaleoTransition</w>
save</w>
unmodifiableList</w>
VectorsRequest</w>
Amazon
Der
bas
ra</w>
getContainer</w>
arepoint
disable
LogEntry</w>
ScalarFunction</w>
screenName</w>
ReferencesSearch</w>
_First</w>
isReadOnly</w>
myAction
PyClassType</w>
linked
XmlAttributeDescriptor</w>
INST
DataType</w>
ddmDataProvider
FileNameMatcher</w>
width
setResult</w>
layouts</w>
INSTANCE_
pageSize</w>
IGNOR
CommittedChanges
HEADER_
EVENT_
NO</w>
affected
setStatus</w>
AndVisible</w>
parentGroupId</w>
Backup
Placement</w>
Labels</w>
Ordinal
DEPLOYMENT_
OFFSET</w>
alType</w>
arity</w>
fallback
NodeName</w>
javaClass</w>
CvsRoot
getSelectionPaths</w>
FileTypeManager</w>
OfWeek</w>
fileObject</w>
kaleoTask</w>
PartitionUpdate</w>
Lifecycle</w>
character</w>
WRITE</w>
Between</w>
PsiConditionalExpression</w>
T_PrevAndNext</w>
begin</w>
templates</w>
Hot
Slash</w>
Defs</w>
Notation
addLast</w>
Contact
ATIONS</w>
Disable
KEN</w>
VariableGroups</w>
ClientProperty</w>
Digit</w>
MINUT
Bind</w>
EE_
mi</w>
mirror</w>
childElement</w>
reversed</w>
databaseName</w>
aired
AnnotationHolder</w>
RowCount</w>
FrameworkSupport
MembershipRequest</w>
Ear
ME</w>
LES_
kaleoNotification
BooleanQuery</w>
getKeyStroke</w>
DependentName</w>
composed
n1</w>
file2</w>
Subclass</w>
Transform</w>
deleteChild
CountParameterTypes
sequence</w>
UnfilteredRowIterator</w>
deliveryType</w>
rest
REPLAC
ConstantExpression</w>
strict</w>
REFERENCE</w>
readLine</w>
FIND_
VersionImpl</w>
toSystemDependentName</w>
_def</w>
erve
BindException</w>
A_PrevAndNext</w>
beforeRevision</w>
watch
myV
Topol
DefaultActionableDynamicQuery</w>
timeZone
getByGroupId_PrevAndNext</w>
functions</w>
prepareStatement</w>
AssetCategoryProperty</w>
BeansException</w>
JAR_
free
myPath
Parsed
addAfter</w>
reds</w>
ConnectionFactory</w>
UPDATE_
override
PsiDocComment</w>
bb
ds</w>
ivy
Groups
states</w>
TIC
DEPENDENCI
YEAR</w>
Using
pid</w>
ReferenceType</w>
WebRequest</w>
companyProvider</w>
ixel
cursor
isAvailable
Updates</w>
Singular
weigh
mbThreadFlag
platform</w>
Insertion
filterCount
loaded</w>
CommandResult</w>
referenceName</w>
Buffers</w>
tlm
EditingUtil</w>
GrAnnotation
ddmDataProviderInstance</w>
blogsStatsUser
importStatement</w>
encoded
HexString</w>
leav
Setup</w>
syncAccountId</w>
objectName</w>
Stubs</w>
BuildTarget</w>
PlatformIcons</w>
percenti
mbBan
DataOutput
Always
ProjectData</w>
Clob</w>
getter
TypeException</w>
Warning</w>
JaxbHbm
getDat
alloc
moduleDescription</w>
partitioner</w>
getIndent
ticket
HandlerMethod</w>
PollsChoice</w>
SPACE_AROUND_
ExpandoBridge
getStatusBy
fetchByCompanyId_Last</w>
blogs</w>
ater
isArray</w>
Rev</w>
hasSelection</w>
InterceptorOrder</w>
shortcuts</w>
GrAccessorMethod</w>
BIT_
_ddmStructure
LocalSearchScope</w>
ContentImpl</w>
implicit
contextElement</w>
symbols</w>
focusOwner</w>
ied</w>
getBundle
getAdditional
siv
emon</w>
classType
getConfig
getUrl
myMethod
derive
Tra
DefaultValue</w>
kaleoTransition
BRACKET</w>
GroupLocalServiceUtil</w>
fileOr
EventId</w>
wrapper
journalArticleImage
fuzzy
ChangesBrowserNode</w>
STRATEG
Previous
ResourceTransformationDescriptionBuilder</w>
InstanceOf</w>
superMethods</w>
checkedCast</w>
Alignment
SPACE_BEFORE_
Wrappers</w>
ModalityState</w>
BOTTO
TRE
arm</w>
myVersion</w>
myFrame
Modules
getFileSystem</w>
TOKEN</w>
editorSettings</w>
dlFileEntryMetadata
Parentheses</w>
absolutePath</w>
capitalize</w>
ationState</w>
subtype</w>
IndexEntry</w>
URLConnection</w>
LibraryTable</w>
usageInfo</w>
Coordinator</w>
AuthorizationHeader</w>
getMetadataCollector</w>
registerService</w>
byteBuffer</w>
getSupported
mySearch
keymap</w>
kaleoCondition</w>
afk
SocialActivitySetting</w>
versionType</w>
dlFileEntryMetadata</w>
MBeanServer</w>
myVersion
FieldValue</w>
updates</w>
incrementAndGet</w>
getNodeId</w>
Processed</w>
callSiteBinder</w>
AtLeast</w>
Eager
tools</w>
getFrom
Inf
contexts</w>
Spaces
ChangeLists</w>
projectScope</w>
Limits</w>
imports</w>
HasFocus</w>
BookmarksFolder
SizeInBytes</w>
IGN_
Monitor</w>
Selenium</w>
Utc</w>
OK_
background</w>
myChanges</w>
MavenId</w>
Temporary
isLeaf</w>
myKey</w>
Subject</w>
originalFile</w>
Translator
PROTOCO
getCommon
dataSource
DomValue</w>
Country</w>
Determin
channels</w>
userGroupRole</w>
interceptors</w>
_value</w>
cores</w>
addText</w>
Substring</w>
VALI
Activities</w>
hex
amps</w>
resourcePath</w>
Chance</w>
DirPath</w>
pp</w>
ServiceImpl</w>
FindModel</w>
packageSet</w>
OR_WARNING</w>
Trigger
NORMAL</w>
ERROR_OR_WARNING</w>
BeforeRunTask</w>
Fil
INVO
spi
decl</w>
basePath</w>
LeafElement</w>
Embed
underlying
rase
contact
NativeSQL
BLOCK_
destroy
JPA
kedExpression</w>
getRevisionNumber</w>
myVcs
InetSocketAddress</w>
txObject</w>
Percenti
statistics</w>
getLock
physical
evaluationContext</w>
persistentClass</w>
ParsingException</w>
encryp
extendsList</w>
renderingContext</w>
docId</w>
JspException</w>
peek</w>
Red
endOf
GrMethodCallExpression</w>
services</w>
Checksum</w>
Sign</w>
LEGAC
InvocationContext</w>
Extract
Discard
commitDocument</w>
findByUuid_PrevAndNext</w>
InterceptorContext</w>
getDelegee</w>
getLookup
WildFlySecurityManager</w>
Effec
Classifier</w>
profiles</w>
ModuleUtilCore</w>
tempFile</w>
DocumentEvent</w>
button
ThreeSide</w>
partitions</w>
Painter</w>
_values</w>
tx</w>
DataInput</w>
getMo
Serializer
ename
getJar
istic</w>
ext</w>
Validator
DocValues</w>
ascending</w>
getNavigationElement</w>
DnD
ON_DEMAND</w>
Wait
getV
ClassResolveResult</w>
templateName</w>
scale
cmd
isH
TemplateException</w>
ChangeSignature
parameterIndex</w>
APPRO
versionString</w>
sink</w>
myImport
Untyped
modelNode</w>
moduleSpecification</w>
tokenStream</w>
DebuggerSession</w>
fetchByUuid_C_First</w>
WIDTH</w>
Manage
ColumnMetadata</w>
whiteSpace</w>
Machine</w>
trunc
Exclu
TableLayout
lastName</w>
ErrorElement</w>
scopeName</w>
SpatialRelation</w>
setEnabledAndVisible</w>
Cr
ENCE</w>
SOCKE
getSuperClass</w>
Recipient
propagate
compiled
notNull
Than
users</w>
XmlMapping</w>
CacheMode</w>
KED_
UI_
MAIN_
SvnBindException</w>
Clauses</w>
dlFileRank
LAB
mail
rewrite
buffers</w>
StringArray</w>
Referenced
N_KC
folders</w>
Criterion
KaleoTaskInstanceToken
KCN_KC
mkdirs</w>
MAC
Random</w>
isPopup
myFactory</w>
chamele
JavaDirectoryService</w>
Appli
Convert</w>
IdentifierPart</w>
innerClass</w>
findByUuid_C_PrevAndNext</w>
MODEL_
ToolTipText</w>
agnos
Arithmetic
xad
SuperClass</w>
eeModuleDescription</w>
PROPERTIES</w>
xads</w>
intelli
TextEditor
XmlText</w>
layoutBranch
Workspace
afka
skip</w>
Procedure
getInvoc
DataAccess</w>
NODE_
LinkException</w>
coming
dlFileRank</w>
domain
dere
getClo
urlMenuItem</w>
SC_
Top</w>
fileName
Resolution</w>
sqlException</w>
Dictionary
d1</w>
jvm
GrTypeElement</w>
Boost</w>
PsiClassInitializer</w>
Mnemonic</w>
VLong</w>
mySelection
FileChooser
Interpreter</w>
CLASS
GitPush
getComponents</w>
jarFile</w>
functionName</w>
journalContentSearch</w>
tableMetadata</w>
getLocalized
StubElement</w>
getKaleoDefinitionId</w>
propagate</w>
ndrBuffer</w>
WorkingCopyFormat</w>
Aop
BTree</w>
VER</w>
float
ToSelect</w>
classDefinition</w>
getClu
EJBClient
fetchByUuid_First</w>
Terminal</w>
exitCode</w>
getListCellRendererComponent</w>
PASSWORD</w>
like
UserTracker</w>
Gray</w>
atures
ential</w>
RoleBase</w>
XPathExpression</w>
getCanonicalName</w>
PS</w>
getHelp
docComment</w>
StackTrace
myInitial
CHANGED</w>
fetchByGroupId_Last</w>
getResult
getChanges</w>
Dif
methodInfo</w>
Callable
InputStreamReader</w>
OpenBlock</w>
Escape
MavenDomProjectModel</w>
CodeInsightBundle</w>
isAnnotationPresent</w>
As</w>
seq</w>
lucen
userIds</w>
QueryParser</w>
replaceExpression</w>
JarFileSystem</w>
INDENT_
NUMBER_
fileVersionId</w>
getPayload</w>
ddmContent</w>
ACTION</w>
ScrollType</w>
canonicalize</w>
getDependencies</w>
getExpected
eder
kaleoTaskAssignment</w>
uter</w>
shopping</w>
getLExpression</w>
P_Last</w>
StreamOutput</w>
ratingsEntry</w>
JDOMUtil</w>
LineMarkerInfo</w>
FUL
FF_
due
ping
ResourceAction</w>
isInside
pollsVote</w>
kaleoTaskAssignmentInstance</w>
ault
presentation
Feature</w>
proxim
INGS_
loggerElement</w>
IF_
getTrash
finally
Resources
toJSONArray</w>
Route
CompletionParameters</w>
Enhanc
HIVE_
isLocal
tions
sourceFileName</w>
SockJs
fireTable
column_parent</w>
PROTECTED</w>
DT
must
findByUserId</w>
parameters
Country
matchedNode</w>
Continu
getInvo
DED_
ParameterInfo
login</w>
StreamWriter</w>
Immedi
FORM_
UserGroupGroupRole
JournalArticleResource</w>
pkg</w>
initial</w>
mbBan</w>
PropertyValues</w>
when
Notifier</w>
ExpressionStatement</w>
DI_
nowled
customizeCellRenderer</w>
Age</w>
Blob</w>
m_
ology</w>
ModelAnd
ronology</w>
selectedNode</w>
CategoryIds</w>
Multipart
commands</w>
catalogName</w>
progressIndicator</w>
TOOL
Portal</w>
CenterPanel</w>
RangeTombstone
GENERIC_ERROR_OR_WARNING</w>
APPROVED</w>
toURI</w>
tecode
parentTag</w>
FromImportStatement</w>
AttributeChecker</w>
THRESHO
myExpression</w>
getFin
VIG
ProxyUtil</w>
getTableCellRendererComponent</w>
Monitor
USER</w>
NAVIG
zip</w>
exit</w>
indexer
elseExpression</w>
browser</w>
EQUAL
isNull
starts</w>
DataOutputStream</w>
ValueType</w>
EditorUtil</w>
Filtered
performRuntime</w>
Macro</w>
18n
FocusedComponent</w>
comboBox</w>
Bi
pages
assigned</w>
Trinity</w>
portletName</w>
SessionId</w>
POINT_
UTF8</w>
JFrame</w>
migration
peri
ToLive</w>
ActionEnabled</w>
tailOffset</w>
Broadcast
InMemory
getSubclass
Feeds</w>
Coordinate</w>
TIMEOUT</w>
FIRST_
OS
_is
dst</w>
Toggle
events</w>
Sorter</w>
exprent</w>
DateTimeFormatter</w>
GeneralSettings</w>
_updated</w>
getParam
queryBuilder</w>
IfNotNull</w>
isInProject</w>
cluding
getContextClassLoader</w>
refreshAnd
Network
ederation
effective
iface</w>
master</w>
Scheduler</w>
09
myProxy
newIndex</w>
getSing
where
liferayPortletResponse</w>
Proportion</w>
Polygon</w>
getControlPanel
JAX
_userLocalService</w>
FileEntries</w>
addFile
newAdd
WebElement</w>
Stored
HASH_
compareToIgnoreCase</w>
questionId</w>
isQualified</w>
addKeyword</w>
Diam
createMethod
IdProperty</w>
Line1</w>
facebook
week
Hints
OUTPUT_
getNative
lip
FileAttributes</w>
NameFor
myMain
ElasticsearchException</w>
ones</w>
getHeader</w>
anonymo
setState</w>
impl
KaleoAction</w>
QualifiedObjectName</w>
UsageTarget</w>
owning
recentLayoutBranch
Histogram</w>
_userId</w>
getWrapped
myBranch
EntityBean
splits</w>
HibernateProxy</w>
Extract</w>
pollsQuestion</w>
'=
May
n2</w>
fileShortcutId</w>
DataFlavor</w>
removeAll
EditorHighlighter</w>
'='</w>
wnd</w>
getMetadata</w>
orElse</w>
LayoutSetBranchId</w>
Sender</w>
Compatibility</w>
Migr
Inser
myId
Trailing
URLException</w>
CONTENT</w>
ToolWindowId</w>
ksm</w>
Man
amel
newNode</w>
support</w>
startDate</w>
calendarNotificationTemplate</w>
Balloon
literalExpression</w>
RENDER_PHASE</w>
duration</w>
alled
FieldNames</w>
IndexRequest</w>
BYTES</w>
fontMetrics</w>
ANNOTATION</w>
TIMESTAMP</w>
mob
RowExpression</w>
DAY_
Thrott
BUIL
Foreign
intellij</w>
getToolWindow</w>
isAbstract</w>
ListType</w>
ChildRoleBase</w>
getDate</w>
cations</w>
kaleoInstance</w>
Applicable
META
IGHT</w>
pipelineAggregators</w>
rad
TypeManager</w>
fetchByUser
writeObject</w>
TransactionSubsystem
CONTIN
isSetSuccess</w>
PsiClassOwner</w>
Days</w>
BIT_SET</w>
4j</w>
v_
HiveColumnHandle</w>
ulticaster</w>
setLength</w>
ume
getPu
storage</w>
UNDERLINE</w>
myEnd
newHashMap</w>
kaleoTransition</w>
SPI
IdeFocusManager</w>
ExecutionBundle</w>
STATUS_APPROVED</w>
commenter</w>
Clear
Safe</w>
atCaret</w>
urse
TextDiff
startX</w>
MessageDialog</w>
Original</w>
BaseInjection</w>
xmlElement</w>
getDeclarationScope</w>
vention</w>
INSERT_
OUT_
cmis
Include</w>
socialActivitySet</w>
Analyzer
stringWidth</w>
1024</w>
ech
GrArgumentList</w>
lave
CodeFragment
BeanReference</w>
MavenArtifact
related
Encoder</w>
userGroupRole
OneTo
inserted
MS
Xa
myLex
written</w>
XMLAttribute</w>
countByC_
applicationClasses</w>
BEAN_NAME</w>
myDescription</w>
myVariable</w>
REF</w>
invocation
REQUEST</w>
hierarch
POOL_
balloon</w>
todo
adow
edObject</w>
getCell</w>
TableAlias</w>
Liven
constant</w>
lifecycle</w>
zy</w>
getStructureId</w>
isVersion
myD
secure
applicationContext</w>
Around
cu
getItems</w>
setRe
terms
DataInputStream</w>
interpret
AnnotationValue</w>
Info2
servletRequest</w>
getSelectionPath</w>
journalArticleResource
TAB_
INITIALIZ
Mail
iness</w>
Stop</w>
PyParameter</w>
ContainingClass</w>
ObjectArray</w>
ShoppingOrder</w>
dlFileEntryType
PopupMenu</w>
Make
getAffected
showYesNoDialog</w>
LEGACY_
ROW</w>
ModuleIdentifier</w>
DLContent</w>
PackageName</w>
backup
SchemaChange</w>
CompileContext</w>
Cannot
FRAM
Ms
suppres
enclo
ANTI
AssetRendererFactory</w>
libraries</w>
setMin
branchName</w>
WrapperOptions</w>
wasNull</w>
atew
myFirst
forClass</w>
resourceBlock</w>
PERSIST
WorkflowException</w>
cells</w>
TupleType</w>
Greed
MalformedURLException</w>
s3
isIdentifier</w>
INIT_
Listenable
getMain
generator
scrollToCaret</w>
mL
sAs
getInspection
DIR</w>
showDialog</w>
pollsChoice</w>
mappingDocument</w>
Through
myMember
union</w>
trigger</w>
ticket</w>
StartException</w>
LanguageManager</w>
RoleId</w>
portalCache
IndentOptions</w>
modifiedDate</w>
getUnique
abili
ArgumentTypes</w>
SuperMethods</w>
getExit
ONLY</w>
ResponseHandler</w>
python
JComboBox</w>
MBean</w>
sConfiguration</w>
FormEditingUtil</w>
Outgo
typeInfo</w>
parseLong</w>
categories</w>
countryId</w>
ExtensionPoint</w>
reverse</w>
Instantiator</w>
rollback
getInvocation
Flush</w>
mgr</w>
coer
utf
Alarm</w>
Messages
secondary
Panels</w>
cursorOffset</w>
saniti
getPattern</w>
exc</w>
toRemove</w>
mount
Spell
getTypeName</w>
AvailableSettings</w>
CLUST
getURL
ValueSet</w>
columnHandle</w>
writeBoolean</w>
isInLibrary
getTypeSignature</w>
Whitespaces
stringValue</w>
wikiNode
duplicate</w>
dictionary
InBackground</w>
toIndex</w>
UserIds</w>
LER</w>
ThreadLocal
BOLD</w>
passwordPolicyId</w>
changes
Txn
OP</w>
getConstraints</w>
myLeft
edName
addBinding</w>
GrImportStatement</w>
EndLine</w>
orderEntries</w>
functional
InternalAggregation</w>
ONT
GridBagLayout</w>
getAnd
Ing
visited
FromTrash</w>
fontType</w>
Sink</w>
Enclosing
Line2</w>
kaleoCondition
dispatch</w>
cacheAddress</w>
getRootTag</w>
selectionPaths</w>
sizeOf
JOIN</w>
';
Put</w>
_search
send</w>
TreeMap</w>
Results
Characters</w>
EXPR
';'</w>
Linear
RequestDispatcher</w>
Signifi
debugProcess</w>
HORIZONT
InsertionContext</w>
small
getBundle</w>
ReferenceFactory</w>
ColumnInfo</w>
NoSuchThread
stored
getValueAt</w>
commonSettings</w>
UriString</w>
OuterJoin
DOCUMENT_
insertion
FilePatch
adding</w>
ForClass</w>
layoutModelImpl</w>
Matri
WhiteSpace
dlFileEntryModelImpl</w>
DDMStructureLink</w>
Structural
Min</w>
Exit</w>
readOnly</w>
Regexp
ORG
layoutRevision
getBin
JButton</w>
ShouldMatch</w>
Receive
myInput
EmptyBorder</w>
mdrRuleGroup</w>
variableName</w>
mbThreadFlag</w>
ENTRY</w>
natural
OrSelf</w>
Grouped
ome</w>
beanDefinition</w>
LOAD</w>
advancedResolve</w>
Drop</w>
bility
addCell</w>
ITEM_
InspectionManager</w>
SUBSYSTEM</w>
delay</w>
Affected
ok</w>
setSubsystem
stand
ToVisible</w>
KaleoNotification</w>
DLE_
detector</w>
Superclass</w>
Anonymous</w>
alignment</w>
setSubsystemXmlMapping</w>
Dem
PropertyNames</w>
BeanFactory
Startup
renderedImage</w>
GE_
Mnemonic
_default
cor
getCo
route
stru
propertyData</w>
contentRoot</w>
prevLeaf</w>
expandoColumn
splitter</w>
InterfaceType</w>
FIELD_NAME</w>
myShould
CATEGORY_
ired</w>
TargetClass</w>
KaleoDefinitionId</w>
UsageSearchContext</w>
ModificationTracker</w>
ConvertContext</w>
TABLE_NAME</w>
WHITE_
PsiAnnotationMemberValue</w>
sw
Reset
HttpStatus</w>
ControlContext</w>
PluginSetting</w>
socialActivityCounter</w>
Special
getTableId</w>
getScheme</w>
Delimited
offsetToLogicalPosition</w>
Elem</w>
getCluster
TABLE</w>
ences
EditorImpl</w>
P_First</w>
come</w>
MultiValueMap</w>
getResourceAsStream</w>
mdrAction
expando</w>
FINDER_PATH_COUNT_BY_G_
osen
snapshotId</w>
delay
getSize
AllDocuments</w>
scala
ificationHandler</w>
getConstructors</w>
Opaque</w>
EditorOptions</w>
MBO
ING_NAME</w>
postProcess
Period
Shape</w>
mobile</w>
unc</w>
unset
qualified</w>
serviceRegistration</w>
Cells</w>
sToMove</w>
Navigator
vcsRoot</w>
digest
Sources
dx</w>
getVirtual
getHttpServletRequest</w>
extern
INDI
Entities</w>
outputPath</w>
Parents</w>
breakpoint
framework
STRING_ARRAY</w>
Bidirectional
ANTIALI
$'</w>
'$'</w>
announcementsEntry</w>
grouping
ProjectRoot</w>
CommonAttributes</w>
GutterIcon
PlainText
gen
myGroup</w>
FileEntries
ized</w>
Begin
reply
RecentLayoutSetBranch</w>
propName</w>
topLevel
notify</w>
Transferable</w>
fd</w>
mySub
reground
Alternative
Fork
analyze
TimeoutException</w>
Ok</w>
isUpperCase</w>
endTime</w>
RootPane</w>
EditorFactory</w>
future
gc
t2</w>
getPersister</w>
createCenterPanel</w>
classInfo</w>
getSo
GrLiteral</w>
getMap
RefMethod</w>
SHI
navigation
operationName</w>
TryStatement</w>
FT_
IMI
mBean
FileContent</w>
Acc
ContentTypes</w>
KaleoNotificationRecipient</w>
getFind
SimpleNode</w>
versions
Intention</w>
enu</w>
DocString</w>
includeIn
RecentLayoutBranch</w>
DELETED</w>
Autom
CLIENT_
JDK_1_
getTransaction
lass</w>
PsiTree
ClassDescription</w>
INCLU
recurr
UserData
ImmutableOpen
SocialActivityCounter</w>
ReflectionUtils</w>
DISPLAY_
KeyboardShortcut</w>
JOIN_
Scan</w>
ConsoleViewContentType</w>
insn</w>
TypeBy
JavaClass</w>
tagId</w>
SYMBO
Benchmark
getGlobalScheme</w>
RandomAccess
WINDO
Distributed
psiReference</w>
Running
HgFile</w>
parserDefinition</w>
getSecurity
Payload</w>
_bitField0_</w>
setParent
Annotated</w>
ContentEntry</w>
getPage
Negated</w>
getOwnerType</w>
60</w>
getFieldName</w>
myInfo</w>
AnActionButton</w>
fromArray</w>
aggregation</w>
instantiator</w>
DataInputPlus</w>
PAREN</w>
BuildingContext</w>
getPropertyValue</w>
membershipRequest</w>
contrib
Worker
Loadable</w>
CURSOR</w>
addValue</w>
StringValue</w>
RootForFile</w>
getBroadcast
MavenServer
ATTACH
eredIcon</w>
TRANSACTION_
NOTIFICATION_
EXPRENT_
Send
getTimestamp</w>
Services
files
rootPath</w>
PROP</w>
parameterizedType</w>
graphics</w>
peer</w>
KaleoTimerInstanceToken</w>
cut</w>
built
mbean
getScal
findByT_
resolution</w>
getMulticaster</w>
origin</w>
filterChain</w>
ObjectMapper</w>
DOC
blogsStatsUser</w>
levant
cellHasFocus</w>
DOWN_
findMethodsByName</w>
alk
Overridden
Units</w>
Comma
LayoutException</w>
rootNode</w>
EXIT_
pageId</w>
DfaValue</w>
duplicate
COLLECTION_
MetricName</w>
IDENTIFIER</w>
GT
Scroll</w>
ClassReference</w>
Selectable</w>
KER</w>
OnScreen</w>
Decod
ExpandoTable</w>
bookmarks</w>
WallEntry</w>
Bool
Pack</w>
cannot
getAncestor
modified</w>
CvsBundle</w>
portalPreferences
ZipEntry</w>
CharsetToolkit</w>
UntypedResultSet</w>
mid</w>
PsiEnumConstant</w>
PsiErrorElement</w>
classReference</w>
ResourceBlock</w>
PATH
RecentLayoutRevision
resolvedClass</w>
scopeGroupId</w>
ICON_
showErrorHint</w>
getDiff
recover
setCursor</w>
mistic
JpsJava
conditional
ldapServerId</w>
chameleon</w>
toCharArray</w>
createBuilder</w>
hasRemaining</w>
Tasks
GlobalInspection
StorageService</w>
getInitializers</w>
myType2</w>
PsiNameHelper</w>
abilities</w>
14</w>
tain
getNumberOf
imal
SourceRoot
Leading
superClass
sessions</w>
getModelClassName</w>
ConsoleView</w>
FoldingDescriptor</w>
Widget</w>
Alpha</w>
tabbedPane</w>
LBRACE</w>
ToElement</w>
DDMStorageLink</w>
LAST_
LibraryTable
UnaryExpression</w>
Pk</w>
getComment</w>
PyImportElement</w>
psiElements</w>
visitClass</w>
buildingContext</w>
ProviderService</w>
SvnBranch
Commenter</w>
PSI_ELEMENT</w>
Succ
UD
sm</w>
myScope
classTo
getNextId</w>
intersection</w>
EditorColorsScheme</w>
lickCount</w>
Cursor
ES
Test
formation</w>
ORDER_
ColumnSpecification</w>
expandoTable
hostname</w>
DfaVariableValue</w>
aspect
BOTTOM</w>
getProxy
Reser
Prefs
fetchByU_
syncAccount</w>
Criteria
StoreResourceDefinition</w>
Cfg
ense</w>
fail</w>
findByCompanyId_PrevAndNext</w>
indexShard
dlFileVersionModelImpl</w>
assetEntryModelImpl</w>
ffectColor</w>
RegExpTT</w>
zziness</w>
AW
sle
getAssociated
Spacing
Contains
selectedIndex</w>
httpServletRequest</w>
initActionableDynamicQuery</w>
customize</w>
orderByCol</w>
RenderingHint</w>
Continue
comparison
REMOTE_
NoSuchFileEntryException</w>
55
80</w>
b1</w>
NameUtil</w>
resourceAction</w>
rootFolderId</w>
TOK
getPrefix
getContentComponent</w>
CHANGE_
shiftRight</w>
HyperlinkEvent</w>
unexpectedElement</w>
SOCKET_
b2</w>
sam
getCache</w>
getEndpoint
Except
vert
MapType</w>
ActiveMQ
visibleRect</w>
getLevel</w>
has</w>
getSQL
light
layoutUuid</w>
RendererFactory
Save</w>
Rate</w>
projections</w>
FilePatch</w>
Any</w>
userTracker</w>
portletItem</w>
textRect</w>
Expanded</w>
sWri
QualifiedExpression</w>
CopyPaste
PointerManager</w>
ApiUtil</w>
TMemory
myRemote
myAuto
defs</w>
plain</w>
Assert
PropertyUtils</w>
EndOf
InputTransport</w>
activation
oogle
ful</w>
CHARSET</w>
memoryTransport</w>
Distinct
TMemoryInputTransport</w>
Google
audi
cn
getTo
getTransaction</w>
Deferred
PyStatementList</w>
JavaMethod</w>
CvsHandler</w>
conversionService</w>
fileOrDir</w>
Hit</w>
LPARENTH</w>
oprot</w>
getPrivateData</w>
myValue
fetchByUUID_G</w>
entityManager</w>
presentable
deploymentReflectionIndex</w>
ACCESS_
THRESHOLD</w>
Less
S3
inc</w>
getNested
myAdd
PsiReplacement
ModuleLoader</w>
ContextClassLoader
CLOS
getOriginalGroupId</w>
getSummary</w>
Suggestion</w>
PsiReplacementUtil</w>
plic
getDirectories</w>
stamp</w>
GrNamedArgument</w>
projectData</w>
DynamicQuery
MavenProjectsManager</w>
MethodInfo</w>
Disabled</w>
Hex</w>
KaleoTask</w>
ship</w>
Since
setShow
Projects
Implementation
RecentLayoutRevision</w>
Parsers</w>
constants</w>
DOUBLE_
Back</w>
Kafka
TS_
getNotification
InEditor</w>
arrayType</w>
getModuleName</w>
DDLRecordVersion</w>
Release</w>
getInitializer
CancelDialog</w>
Replication
orgLab
myKey
getBoolean
CollectionPersister</w>
webDriver</w>
windows</w>
jars</w>
revisionNumber</w>
Stripe</w>
Dar
Find</w>
Hard
elec
migr
Redis
myDisabled
ClassUtil</w>
Thrift
Summary
FunctionName</w>
passwordPolicyRel</w>
LEVEL</w>
addr</w>
OrExpression</w>
guest
Preference</w>
InspectionProfile
ddlRecord</w>
WikiPageResource</w>
getBackgroundColor</w>
HierarchicalMethodSignature</w>
strument
brid
ked
ang</w>
acquire
endDate</w>
solr
PostConstruc
pollsQuestion
RelationType</w>
JournalArticleImage</w>
setAccessible</w>
AbstractBlockWrapper</w>
PartitionIterator</w>
getResourceDescriptionResolver</w>
RegionAccessStrategy</w>
HintManager</w>
Reload
BLANK_LINES_
otential
setDocument</w>
GroupException</w>
executable</w>
ItemId</w>
princip
offset1</w>
bootstr
Holders</w>
webDAVRequest</w>
getChannel</w>
isTo
ingStrategy</w>
setType
imum</w>
TargetType</w>
ErrorCode</w>
RecordSet</w>
mapTo
Secondary
MicroblogsEntry
DELIMIT
VALIDAT
NameBy
replaceString</w>
UserGroups</w>
crc</w>
Excluded</w>
ORGAN
Describe
Jump
getResponse
desired
PyKeyword
viewRect</w>
EvaluationException</w>
Week
decorator</w>
fetchByCompanyId_First</w>
getVertical
Managers</w>
brace</w>
parentLayoutId</w>
COMPARATOR</w>
Wildcard</w>
boost</w>
passwordPolicyRel
wildcardType</w>
ighb
ActionException</w>
RenderParameter</w>
DLAppServiceUtil</w>
KCN_KCPK_
getPubli
klass</w>
getTimeZone</w>
myPopup</w>
checked</w>
endsWith
decision</w>
getBrea
DiffRequest
solute</w>
getReturnValue</w>
translated
DDLRecordSet
assandra</w>
BUFFER</w>
Predicate
CodeStyleSettingsManager</w>
Higher</w>
hibernate
getDirectory</w>
actionName</w>
ResourceActions
currentFieldName</w>
line2</w>
CompositePackagingElement</w>
FILTER</w>
sDriver</w>
getThrow
newValues</w>
formul
currentBranch</w>
NODE</w>
ServletContext
Controls</w>
Cloud
bit</w>
Exp</w>
setText
ROW_
XmlPatterns</w>
colon
NoSuchTask
runManager</w>
STATUS</w>
resourceBlockPermission
LocalizedValue</w>
getColorsScheme</w>
TH_
btree</w>
getFolding
addIfNotNull</w>
orizontal</w>
11
Ra
eq
Inplace
myClassName</w>
Accessed
CONSO
BytesReference</w>
conditions</w>
organizationIds</w>
URISyntaxException</w>
cp</w>
pi
getStatistics</w>
processDeclarations</w>
parentPath</w>
BeanClass</w>
marker
MBStatsUser</w>
AnnotationType</w>
FacetType</w>
headerName</w>
DOWN</w>
isNew
expo
myLabel</w>
collapse
IGNORE_
Ssh
Tick
bg</w>
tely
UserType</w>
REPOSIT
MBMailingList</w>
SelectionEvent</w>
FAI
JoinColumn</w>
socialActivityAchievement</w>
retVal</w>
SocialActivityLimit</w>
getShard
MODIFIER_
cp
myUpdate
ClassMember</w>
SetUtil</w>
PropertyChangeEvent</w>
NodeException</w>
Shards
extract</w>
umeric</w>
PersistentCollection</w>
namespaces</w>
preferredSize</w>
BUN
y1</w>
Via
PortalCache</w>
Upload
elementGenerator</w>
variant</w>
showMessageDialog</w>
problem</w>
normalize</w>
produce</w>
'-
getOnly
alle
alize
serviceComponent
Browse
define
getRawType</w>
history</w>
'-'</w>
high</w>
launch
MessageHeaderAccessor</w>
erged
currency
InputMap</w>
ConnectorId</w>
concat
PythonSdk
ClusteringIndex
earance</w>
Flav
getFilter</w>
setError
searchCount</w>
getSelectedNode</w>
stats
FontType</w>
getTheme
YS</w>
flavor</w>
jta
emf</w>
EditorWith
ExecutionContext</w>
changeLists</w>
StackFrame
getRelation
EditorColors</w>
managedCtClass</w>
ORGANIZ
Float
ix</w>
r1</w>
myRevision</w>
TypeSignature</w>
kaleoInstanceTokenId</w>
nodeName</w>
availableLocales</w>
getBaseLanguage</w>
shoppingItemPrice
sValue</w>
getUriString</w>
pref
findByR_
projectName</w>
Attachments
mdrRule
LEVEL_
Mirror</w>
getFrame
PsiThisExpression</w>
ExceptionUtil</w>
userGroupGroupRole</w>
getOrderEntries</w>
sTable</w>
ListOrMap</w>
propertyPath</w>
StatusType</w>
EMPTY_STRING_ARRAY</w>
activityType</w>
V2</w>
addTableMapping</w>
Percolate
WITH
OutputUtil</w>
ExpandoRow</w>
bindTo</w>
ParseUtils</w>
executionController</w>
DataInputOutputUtil</w>
Priority
56</w>
LT</w>
ired
myOutput
myAnchor</w>
ToTrash</w>
updateImpl</w>
kaleoTimer</w>
initPACL
dlFileShortcut
toUnescapedModel</w>
listenerGroup</w>
ticky
Ee
Jpa
Stopp
Person</w>
Suppression
DocumentImpl</w>
getDefaultInstance</w>
WorkflowTask</w>
Copyright
Occurrence</w>
builderClass</w>
Privileged
setVersion</w>
seen
EditorTaglib
cant
replaceWith
SvnUtil</w>
inputEditorTaglib
ddmStructureLayout
binarySearch</w>
INTERCEPT
revert
PsiDocCommentOwner</w>
SAXReader
inputEditorTaglibAttributes</w>
started</w>
parentType</w>
CommonProblemDescriptor</w>
sToProcess</w>
fullName</w>
Best
KeyValue
GrMethodCall</w>
executable
getBase</w>
ExternalResource
receiverUserId</w>
metaData
major</w>
BODY</w>
_map</w>
_level
getWarning
otal</w>
configurable
AccessAllowed</w>
loadState</w>
HandlerMapping</w>
DirectoryMapping</w>
docString</w>
calendarResourceModelImpl</w>
EXPRESSION_
SCHEMA_
IDE
SSO
ded
ycle</w>
getConstructor</w>
excludes</w>
KeyGenerator</w>
actionMapping</w>
kaleoInstanceToken
CONFIG_
SYNCH
getLabel</w>
MINUTE</w>
reloc
isPrimitive</w>
elap
createFrom
OrHigher</w>
getSli
comments</w>
socialActivityAchievement
FindFileBy
Deserializer</w>
Operands</w>
Cls
kLines</w>
getOutput</w>
getActive</w>
rev</w>
exclude</w>
myE
createComponent</w>
fileId</w>
ModuleOrderEntry</w>
StartPosition</w>
CommitDetails</w>
QUER
Weak
NUMBER</w>
uploadPortletRequest</w>
ResourceTypePermission</w>
JTextField</w>
VcsConfiguration</w>
ExpressionImpl</w>
GitUtil</w>
ConnectorServices</w>
getTreePrev</w>
SOURCE</w>
statusBar</w>
HelpID</w>
routingTable</w>
RANGE</w>
Ping
ban
classifier</w>
id1</w>
createAddOperation</w>
keyCode</w>
Aggregate
Deliver
AutoDeploy
recentLayoutBranch</w>
HierarchyNodeDescriptor</w>
foldRegion</w>
ALIAS</w>
Coded
PAN
seed</w>
getInitial
JavaRefactoring
reduce
Qualifier
inct
ESC
getDeployment
myRoots</w>
myGutter
FileStatus
PyPsi
Recurr
ancel
INTERFAC
LikeThis
tuple</w>
CodeInsightSettings</w>
counterLocalService</w>
consoleView</w>
PhysicalOperation</w>
STRATEGY</w>
Darcul
DY
best
goto
entries
dateTime
poll</w>
persistenceUnit
TIntArrayList</w>
ATTR_NAME</w>
TranslatorImpl</w>
CAL
myAdditional
Particip
GrAnnotation</w>
PyStatement</w>
index1</w>
findByG_C_
LegacyCell</w>
refreshAndFindFileBy
getSoft
DYNAM
bulk
asInt</w>
setAs
ATOR_
Subtype</w>
iring</w>
utors</w>
hostRange</w>
RestRequest</w>
isDumb</w>
AnnotatedElement</w>
Bootstrap</w>
KeyspaceMetadata</w>
Confirmation
setSelectionInterval</w>
Correct
TREE_
myPosition</w>
TokenStream</w>
getPh
matches
ous</w>
VisualLine</w>
HomeDir</w>
XsltSupport</w>
_i
getLinked
allocate</w>
PyResolveContext</w>
Depend
SoftWrap</w>
ExpirationDate</w>
GRE
isChecked</w>
Locally
Forward
firstName</w>
Black
GET</w>
Details
instructions</w>
isPublic</w>
PyArgumentList</w>
Heartbe
componentDescription</w>
iled</w>
Bridge</w>
fetchByGroupId_First</w>
localized
Rate
_bundleContext</w>
getTasks</w>
isClass
SetKey</w>
childName</w>
converted</w>
STATIST
wrapped</w>
STATISTIC
Zen
isProject
myTag
setLocation</w>
mount</w>
SessionFactory</w>
requestId</w>
DebuggerTree
Enhancer
NER</w>
hints</w>
getJoin
myHandler</w>
conn</w>
toHexString</w>
getInner
getSched
SER</w>
returnStatement</w>
requestStatistics</w>
BlogsEntry
sm
FileVisit
compaction
Thumbnail
PyElementTypes</w>
EventListener
getFileEntry</w>
Exprents</w>
SocketBinding</w>
PsiArrayInitializerExpression</w>
getModifiableModel</w>
GroovyCommonClassNames</w>
RefIng
Sessions</w>
namedElement</w>
TIME_Z
getStats</w>
luenc
PortletDataException</w>
resourceAction
containsAll</w>
BuilderProvider</w>
isReferenceTo</w>
luencers</w>
mav
getPreferences</w>
GroupName</w>
JavaElement
MAKE_
Jca
getEntries</w>
classPath</w>
PyFromImportStatement</w>
Addition
ForLocation</w>
XmlChildRole</w>
shoppingCategory</w>
Capit
activate
getPluginId</w>
allocationId</w>
aN</w>
myRepository
FileTree</w>
Setter
CacheServletResponse</w>
ModuleName</w>
Comments
DocumentContent</w>
XPathTokenTypes</w>
getLibrary</w>
JRootPane</w>
_query
Regex</w>
Called
Arguments
ddmStorage
RefEd
pathArray</w>
myCvs
irth
Estim
Ratings
convertToMost
occurrences</w>
TableLayoutHandle</w>
ListenableFuture</w>
Succinct
convertToMostSuccinct
Cql
UP_
di</w>
ffixes</w>
oted</w>
attemp
createReference
Checkin
result1</w>
findChildByRole</w>
Invoker</w>
HIDE_
Certificate
Geometry</w>
delimiter</w>
lr
sSize</w>
tible
ClassedModel</w>
subelement</w>
foreground</w>
nextTag</w>
DocCount</w>
getCategory
substituted</w>
indentLevel</w>
auth</w>
myRole2</w>
THashMap</w>
big
isSet</w>
myDiff
portletContext</w>
gradle</w>
RecordCursor</w>
ChangesUtil</w>
activityDefinition</w>
ExternalSystemApiUtil</w>
recentLayoutSetBranch</w>
Cfs</w>
Nav
mvc
Ints</w>
Anti
modes</w>
PyQualifiedExpression</w>
ENTITY</w>
refName</w>
application</w>
Substitution</w>
MANAGER</w>
FLAG_
discussion
dy</w>
fqName</w>
createDocument</w>
TypeLiteral</w>
MethodVisitor</w>
kaleoAction</w>
dlContent</w>
Ready</w>
osgi
getSessionFactory
workflowInstanceLink</w>
SIMPLE_
nettyFabric
deleteChildInternal</w>
ixels</w>
Immediately</w>
Jo
_ddmTemplate
unic
ots</w>
userMappings</w>
dataProvider</w>
getSelectionStart</w>
finished</w>
jdbcEnvironment</w>
prompt
Notify</w>
getBreak
200</w>
rt</w>
chain</w>
ForPsiElement</w>
lineSeparator</w>
ApplicationState</w>
Delimiter</w>
getLayoutSetBranchId</w>
ContextClassLoaderPrivileged</w>
isAtLeast</w>
myColor
Speed
Languages</w>
specifi
EX_
SPE
Detec
ddmStructureKey</w>
companyStatistics</w>
isInheritor
Apply</w>
layer</w>
32
VED_
getVariants</w>
newExpr</w>
FieldMatcher</w>
Publisher
Foundation</w>
declaration
RPARENTH</w>
prior
IOR
lazy
getPassword
layoutTypePortlet</w>
GroovyPropertyUtils</w>
localNode</w>
ACTOR
REFACTOR
LAYOUT</w>
getSchema</w>
Recursive</w>
socialActivityCounterModelImpl</w>
WEL
verse</w>
setActive</w>
Previou
KaleoCondition</w>
URLs</w>
documentManager</w>
ExternalSystemNode</w>
initPACLImpl</w>
rv</w>
id2</w>
findModel</w>
createElement</w>
SECT
syncSite</w>
LockOptions</w>
StackFrame</w>
PACL</w>
strict
ByteCodeNode</w>
kaleoTimerInstanceToken</w>
VARIABLE_
suspendContext</w>
repeat</w>
flow
lt</w>
pparent</w>
sChanged</w>
Shut
KaleoTimer</w>
SessionMessages</w>
RefactoringUIUtil</w>
ReadWriteVariableInstruction</w>
suggestion</w>
precision</w>
ImmutableOpenMap</w>
myGutterComponent</w>
Jet
Datagram</w>
Unused
parentRegistration</w>
SerializedSize</w>
DateFormat
shoppingCategory
erialized
getTargetException</w>
Terminal
ComparisonExpression</w>
getInternalName</w>
err
myStart</w>
myListeners</w>
Prob
addAttribute
DataJSONObject</w>
IndexTree</w>
TimeStamp</w>
JoinColumn
codec</w>
fetchByG_U_
storageType</w>
cas
pack</w>
Into</w>
TargetSource</w>
TableBinder</w>
fieldId</w>
visitInsn</w>
canNavig
expandoColumn</w>
dom4j</w>
journalArticleResource</w>
ProtocolException</w>
mbThreadModelImpl</w>
BIT
getUpdate
lass
myMessage</w>
myListModel</w>
views</w>
createSynchronized
RED_
AndSet
ParameterNames</w>
NODE
DateValue</w>
deploymentRoot</w>
ClientException</w>
CommentPrefix</w>
vcsManager</w>
PythonSdkType</w>
getThis</w>
BASE</w>
TRACKER_
Introspec
createSynchronizedSQLQuery</w>
48</w>
EGER</w>
a2</w>
enable</w>
Conjuncts</w>
Typed</w>
ENCO
newOffset</w>
CommitId</w>
LANGU
boundNames</w>
Sync</w>
INTEGER</w>
IIOPLogger</w>
isAcceptable</w>
PrefsPropsUtil</w>
udo
getWeight</w>
seudo
createDefault
lastElement</w>
queryConfig</w>
SdkVersion</w>
SizeField</w>
eachParent</w>
getMember
ControlFlowUtils</w>
getShortcuts</w>
Pojo</w>
onFailure</w>
conjunc
regexp</w>
checkCan
VcsDirectoryMapping</w>
socialActivityLimit</w>
TrashVersion</w>
userGroupGroupRole
help
Ords</w>
ActualProperties</w>
RONIZ
CUSTOM_
Custom</w>
spare</w>
true
cookie
mise</w>
Append
super_column</w>
Plural
AuthRequest</w>
Pages
sue</w>
sImpl</w>
getStub
toInstance</w>
Pom</w>
TRASH</w>
getPreferredFocusedComponent</w>
termVectorsRequest</w>
TARGET_
Draw
getProtocol
ooled
toLanguageId</w>
processing
ModuleDescriptor</w>
resolveScope</w>
Orientation</w>
ViewDescription</w>
getParentFolderId</w>
socialActivitySetting</w>
appendTo</w>
EJB_
scheduler</w>
scrollPane</w>
recentLayoutSetBranch
journalArticleImage</w>
PasswordPolicyRel</w>
PsiNameValuePair</w>
&=</w>
'[
ision
wm
orth
lifi
addAttributes</w>
parentTitle</w>
lastPostDate</w>
PageBuilder</w>
FORCE_
RemoveOperation</w>
dynamicElement
driver</w>
tooltip</w>
getSingle
'['</w>
Free
XStream
getAnchor</w>
ingUtils</w>
ALIGN_
ScrollBar
getSources</w>
Activation</w>
teamId</w>
raw</w>
ggers</w>
ExpandoValue
MetadataBuildingContext</w>
phan
ssl
isSame
this_present_success</w>
that_present_success</w>
getContainingDirectory</w>
Warm
uted</w>
getUse
myLibrary
resolveGenerics</w>
visitField</w>
rootPane</w>
entityClass</w>
getTool</w>
SUPPORT
SAXException</w>
ProjectStructureElement</w>
Certificate</w>
high
getWrite
admin
NonCode
ScopeOwner</w>
0x00000008</w>
Shift
UpdatedFiles</w>
Pay
sArray</w>
Ask
SessionBean
documentRepository</w>
Prefixes</w>
getTargets</w>
myEditors</w>
ScalarFunctionImplementation</w>
CURRENT</w>
Norm
favorite
uted
getLogicalPosition</w>
myStorage</w>
SourceRoot</w>
ToolState</w>
EnumConstant
Missing</w>
wallEntry</w>
Letter</w>
Circu
custom</w>
home</w>
coord
decre
getFail
ResultMessage</w>
Queued
overrides</w>
VARIABLE</w>
Quantity</w>
uch
unpack
ALWA
Paint</w>
_has
getItem</w>
ingLevel</w>
ASSIGN
LanguageFileType</w>
Bookmark</w>
recentLayoutRevision</w>
Guard</w>
goti
uiSettings</w>
JCalendar</w>
Ticket
cn</w>
mock
myTask
Arr</w>
addEntity</w>
Tracing</w>
TargetElement
Second</w>
cacheManager</w>
pluginSetting</w>
Topic
PsiFileFactory</w>
Compilation
Clone
ruleGroupInstanceId</w>
findModuleForPsiElement</w>
ExpandoBridgeFactoryUtil</w>
rType</w>
getImage
getDebugProcess</w>
toCheck</w>
findField
columnCount</w>
Suppress
handleElement
override</w>
VIRTUAL_FILE_
tionDomain</w>
PsiCallExpression</w>
addListener</w>
LayoutLocalServiceUtil</w>
ressor</w>
AnnotationException</w>
getByName</w>
javac</w>
StagedModelDataHandler</w>
getStatusCode</w>
Click
getSpli
incompleteCode</w>
mavContainer</w>
myFilter
Directories
layoutBranchId</w>
Adj
ConnectorTableHandle</w>
HEIGHT</w>
expanded
Corrup
exportImportConfigurationId</w>
resolveClassInType</w>
Demand</w>
BTree
CI
Named</w>
recv_
Round
Hashtable</w>
PropertyDescriptor</w>
typeSettings</w>
StartContext</w>
DIR_
committed
FOUND</w>
Merged</w>
delivered</w>
getThreadId</w>
RESULT</w>
tw</w>
Rewriter</w>
ationLevel</w>
LayoutUuid</w>
checkbox
registerCustomShortcutSet</w>
LIMIT</w>
findByG_F_
Creation</w>
self
negated</w>
Answer</w>
isSearch
myComponents</w>
estamps</w>
InstanceOfExpression</w>
kaleoNotificationRecipient
MavenArtifact</w>
DoNot
1_0</w>
Mirror
sRegistrar</w>
ele</w>
deo
createTemp
StateChanged</w>
LocalName</w>
Intersection
services
XmlReader</w>
VocabularyId</w>
ddmStructureId</w>
GAP</w>
33
mailing
instruction
getSelection</w>
Modes</w>
ableFuture</w>
factor</w>
database</w>
registerQuickFixAction</w>
Mount
Dimension
varType</w>
resourceTypePermission</w>
mar</w>
ResourceRequest</w>
VarExprent</w>
attrName</w>
METHOD_NAME</w>
CalendarBookingId</w>
VISIBLE</w>
Ire</w>
NEXT_
_remove
struts
myIgnore
Program
parentOrganizationId</w>
TemplateConstants</w>
closure
note
fromLanguageId</w>
getTypeElement</w>
myInner
Enumerator</w>
expirationDate
ComboBoxModel</w>
StagedModelDataHandlerUtil</w>
JVM
_classPK</w>
setRequest
createOptionsPanel</w>
PortletConstants</w>
LINE_BREA
snapshots</w>
CA
advice
semi
classname</w>
putClientProperty</w>
GrOpenBlock</w>
OpCode</w>
elementTypes</w>
replaced
nulls</w>
labels</w>
FIND_BY_
SAXReaderUtil</w>
sDir</w>
Nullability</w>
parentId</w>
PropertyData</w>
getPage</w>
Readonly
maxWidth</w>
FilterFactory</w>
ExecutionSettings</w>
Archetyp
running
producer</w>
REVISION_
DAY_OF_
ensi
course</w>
myParameter
setAdd
Bug
ParameterInfoImpl</w>
fetchByPrimaryKeys</w>
limits</w>
Loop</w>
Prompt</w>
GroovyFileBase</w>
ive</w>
getOrganizationId</w>
psiDirectory</w>
Fraction</w>
LIBR
versionLabel</w>
Mappers</w>
vocabulary</w>
nested</w>
UNKNOWN_
Bottom</w>
Cur
hyperlink
timistic
isVar
myActions
created
WebDriver</w>
UsageView</w>
treeElementTo
curr</w>
statusDateCriterion</w>
assetCategoryProperty</w>
WithoutExtension</w>
modifiedDateCriterion</w>
CatchSection</w>
CQL3
stagedModelDataHandler</w>
GuestPermissions</w>
treeElementToPsi</w>
CLE
Magic
mediate
scroll</w>
lid
isLanguageLevel
myOptions</w>
layoutRevisionId</w>
SETS</w>
AGES</w>
templateKey</w>
Decorator
getCanonicalPath</w>
ddlRecordSet</w>
implementation
restricted
_repository
SEPAR
importList</w>
C_C_T_
MappedFieldType</w>
meetupsRegistration</w>
Evic
isOpen</w>
EntrySoap</w>
removeService</w>
kaleoNotificationRecipient</w>
ExternalException</w>
WriteExternalException</w>
StandardBasic
epState</w>
Conflicts
MimeType</w>
StandardBasicTypes</w>
Milli
USE</w>
aValue</w>
toImmutableList</w>
predic
ReturnValue
pluginDescriptor</w>
SinglePartition
realm</w>
nsDescriptor</w>
getState
getXmlTag</w>
ved</w>
GrListOrMap</w>
getLive
heap
sub</w>
Printer</w>
clazz
Externalizable</w>
Dragg
HAND
lhsType</w>
LwXmlReader</w>
']
DIT
Jac
getTool
addInstruction</w>
hasError
Portlets</w>
Matchers</w>
Login</w>
Ordering</w>
EMPTY_ADDRESS</w>
templateResource</w>
codeFragment</w>
mdrAction</w>
limit
ddmTemplateModelImpl</w>
BASIC</w>
CREATE</w>
calendarBookingModelImpl</w>
createFileFromText</w>
primaryKeyObj</w>
StackTraceElement</w>
']'</w>
IContainer</w>
getProgressIndicator</w>
getStatementList</w>
myFiles</w>
mySettings
myProgress
setLayout</w>
private
SettingsToken</w>
boundary</w>
DLFileShortcut
postfix
CaseSensitive</w>
Receiver</w>
IS</w>
_show
getHomePath</w>
ByName
endArray</w>
shardFailures</w>
VirtualHost</w>
nullable</w>
configurationValues</w>
getSecond
BACK_
DotName</w>
Significant
NLS</w>
_total</w>
getRecent
getTopLevel
Approxim
Upgrade</w>
AppId</w>
RepositoryUtil</w>
VARTYPE_
regionName</w>
getSuffix</w>
Codec
OTHER_
getInvokedExpression</w>
Msg</w>
Http</w>
astNode</w>
Repositories
getRExpression</w>
JBTabs
BaseDir</w>
DDMStructureLayout</w>
offset2</w>
Feedback</w>
Gui
DDMTemplateVersion</w>
InjectedLanguageManager</w>
packed</w>
edNameInfo</w>
ne</w>
myField</w>
UserException</w>
PortletItem</w>
DefaultTreeModel</w>
ContentManager</w>
ContextMap</w>
ActivityId</w>
BufferSize</w>
hostId</w>
facets</w>
cent</w>
sProcessor</w>
sClause</w>
getLogger</w>
Rev
getInjected
GroupIds</w>
Ops</w>
intdata</w>
QueryParameters</w>
capability
ProblemsHolder</w>
partitionKey
DDMTemplateKey</w>
compose
Coding
polyg
ESCAP
findFirst
textField</w>
LineRange</w>
valueChanged</w>
shouldBe
TTL</w>
ACTIV
BRAN
_closed</w>
qualify</w>
MethodIntf</w>
ServiceContextFactory</w>
defaultUserId</w>
lastLayoutRevision</w>
Counts</w>
ReturnType
Invoker
directoryObject</w>
staticRow</w>
Example
ENU
searchQuery</w>
node1</w>
requestContext</w>
systemEvent</w>
DirectoryObject</w>
Authentic
InnerClass
DECLARATION</w>
Accumul
CR
PLE_
oc</w>
getTags</w>
licit</w>
DefaultListModel</w>
GradleException</w>
JdkOrderEntry</w>
normalized
Suggest</w>
_layoutLocalService</w>
isExpanded</w>
TransactionSubsystemRootResourceDefinition</w>
au
setContentType</w>
ToRemove</w>
Nullness</w>
parentStub</w>
FactoryImpl</w>
getColumnId</w>
DDMStructureVersion</w>
Requirement</w>
Passiv
layoutSetPrototypeId</w>
menuItems</w>
JR
ree</w>
reload</w>
myCount</w>
JavaFileObject</w>
ReferenceList</w>
checksum
area</w>
RequestAttributes</w>
Admin</w>
threadLocal
passwordTracker
QuickFixes</w>
GROUP_ID</w>
preference</w>
Attrs</w>
surround
invalidate</w>
ActionName</w>
returnType
AnnotationUtils</w>
lineNum</w>
Print</w>
ManagerListener</w>
handleInsert</w>
Mappings
BOARD_
registration
REGISTR
DEFINIT
CK_
r2</w>
sFor</w>
reload
PropertyImpl</w>
tableNames</w>
BUTTO
liferaySelenium</w>
PresentationData</w>
NAMESPACE_
EXIT_CODE</w>
gColor</w>
pag
stati
LineFeeds</w>
Renderers</w>
SourceFolder</w>
ddmFormLayout
repaint
commitAllDocuments</w>
getWap
ItemSelectorCriterion</w>
SUCCESS</w>
NS_
ressW
addItem</w>
Checkpoint</w>
getMime
registerConverter</w>
childType</w>
callback
Equality
shoppingCart</w>
collectionPersister</w>
RestResponse</w>
netAddress</w>
Realm</w>
aggregationName</w>
Influencers</w>
Codes</w>
ON</w>
isol
compiler</w>
Indic
currentClass</w>
moduleGroup
GitBranch
spaceIf</w>
Parenth</w>
pluginPackage</w>
SvnChangeList</w>
CES_
getException
ADDIT
AdditionalData</w>
_report</w>
utf8
EnhancerConstants</w>
exportImport
myColor</w>
Notation</w>
false
NameValuePair</w>
ITAL
fieldData</w>
getTypeSettings</w>
sInProgress</w>
essboard
DDMTemplateLink</w>
getCatalogName</w>
OVERRI
PyPsiUtils</w>
ifiable
newState</w>
Variables
Facets</w>
drawString</w>
optionsPanel</w>
AUTO
getNodeName</w>
findFileByIoFile</w>
inferred
invalidate
truc
GrIntroduce
COVER
getLim
ddmStorageLink</w>
PAGE</w>
END_ELEMENT</w>
PsiReferenceParameterList</w>
OUTPUT</w>
Cmd</w>
Jre
Num
smart
sJSONArray</w>
erasure</w>
getStyle
ToAdd</w>
classpath
ServiceException</w>
LOper
BeanProperty</w>
refText</w>
Converters</w>
construct
joinType</w>
backgroundTaskId</w>
alette</w>
suc
getPsi
isR
Exist</w>
Report</w>
FilePath
XmlRpc
systemId</w>
externalSystemId</w>
feature</w>
Boost
facetConfiguration</w>
Destroy
cassandra</w>
intr
getDependency
FileCollection
ToReplace</w>
createProblemDescriptor</w>
Validate
ExceptionHelper</w>
getNameIdentifier
assignments</w>
DynamicQueryFactoryUtil</w>
getFunctional
publication</w>
Rewrite</w>
PathMacro
currentToken</w>
lastPathComponent</w>
sToDelete</w>
view_state</w>
Reflected
AUTH
Bases</w>
Temporal
lambdaExpression</w>
Compare</w>
moved
ServiceComponent
ByteBuf</w>
IndexMetadata</w>
lastIndex</w>
ContextUtil</w>
ArtifactType</w>
TERN
Transformer
ddmStructureLayout</w>
upperBound</w>
coordinates</w>
NEW_LINE</w>
getStartOffsetInParent</w>
MACRO
JavaRefactoringSettings</w>
birth
jected</w>
ached
Asc</w>
PathField</w>
updateUI</w>
minor</w>
Doclet
CellPath</w>
getComponentName</w>
ddmStructureModelImpl</w>
ButtonGroup</w>
ResourceBlockPermission</w>
FlushMode</w>
orderByAsc</w>
ControllerClient</w>
PLUS</w>
Zero
TransactionSynchronizationManager</w>
Matrix</w>
getRoles</w>
myIndex
myScope</w>
myVisible
toFile</w>
Diagnos
ForElement</w>
entryName</w>
shoppingItem</w>
PrimaryKeysMap</w>
AssetTagStats</w>
Compatible</w>
getDomElement</w>
getNamespaceURI</w>
myTf
regroundColor</w>
getBroadcastAddress</w>
1L</w>
4_
Gap
_token</w>
getOrganization
Assigned
ActionUrl</w>
superclass</w>
RepositoryException</w>
WikiNode
kaleoTaskInstanceTokenId</w>
getStartLine</w>
structureKey</w>
ByUuidAndCompanyId</w>
VCS_
SYNCHRONIZ
getMapped
ToPath</w>
PyParenthesizedExpression</w>
NoSuchGroupException</w>
make</w>
LineFragment</w>
PARSE_
COMMIT_
languages</w>
PageSource</w>
Tupli
thisVariable</w>
boxed
WEB_
receive
PsiCompiled
ParameterType</w>
KaleoNodeId</w>
GroovyScript
workspace
Restrictions
getActiveMQ
AnswerPlaceholder</w>
newAddOp</w>
_path</w>
createEditor</w>
PortletFile
Removed
paramNames</w>
WindowInfoImpl</w>
TRU
selectionStart</w>
XMLStreamConstants</w>
Distribution
EEModuleDescription</w>
DO_NOT_
NativeSQLQuery
Ker
_Fields</w>
const
ResourceDescriptor</w>
iterate
QueryShard
comma
Images</w>
LogLevel</w>
Titled
symbolAllocator</w>
ct</w>
getLOper
ProjectView</w>
getUserUuid</w>
UIManager</w>
GroovyDoc
ApplicationContext
SpecInternal</w>
applyTo</w>
findByUuid_C_First</w>
getValueElement</w>
modifiableModel</w>
failedTo
DIRECTORY</w>
reflection
Bad
Ratio</w>
mx</w>
getNodes</w>
getQName</w>
ortr
Compressed
ClassNode</w>
addMessage</w>
ComponentAdapter</w>
charWidth</w>
PERMISS
getActionId</w>
deployed
Archive</w>
ARGUMENT</w>
Ticket</w>
_r
mask
classedModel</w>
TextComponent</w>
visitFile</w>
initialized
IntArray</w>
JBossWeb
getDDMFormField
TimedOut
fy
mbStatsUser
indexIn
NoSuchTemplateException</w>
ItemWrapper</w>
tokenMetadata</w>
extractionContext</w>
repaired
PLEM
DfaMemory
TransportAddress</w>
getSuspend
Skeleton
toBytes</w>
addDefault
supp
HttpWhite
targetMethod</w>
getRootPortletId</w>
myCbUse
PsiFileImpl</w>
boardConstants</w>
HTTP_WHITE
CONTINUE</w>
HttpWhiteboardConstants</w>
HTTP_WHITEBOARD_
Jmx
findProperty
NoSuchContent
localSyncFile</w>
MapBuilder</w>
SSH_
blogsEntry
majorVersion</w>
manifest</w>
enh
setRenderingHint</w>
move</w>
MethodDefinition</w>
supers</w>
Supers</w>
marked
getSelectedRow</w>
templateVariableGroups</w>
ShoppingCart</w>
SocialRequest
C_C_PrevAndNext</w>
combine
WRAP_
getCatalog</w>
mapperService</w>
solete</w>
ae</w>
skeleton
Rec</w>
readVLong</w>
Algorith
WithTimeZone</w>
VersionedValue</w>
deletePersistedModel</w>
docCount</w>
declarationScope</w>
Invoke
SELECTION_
Travers
getList</w>
urity</w>
Edu
modelType</w>
requested</w>
ImageSelector</w>
Vocabularies</w>
getSelectionEnd</w>
BeanDefinitionParser</w>
RIGHT_
lifecycle
strategySelector</w>
MeetupsRegistration</w>
ention
isEnabled
Redu
identity</w>
Async</w>
DirDiff
importElement</w>
counts</w>
totalSize</w>
findByUuid_First</w>
getSuperClass
JAVA_LANG_STRING</w>
clusive
ThreadPoolExecutor</w>
shake
N_T_
dlContent
escaped
ScrollPane
externalName</w>
getAssignee
WorkingDirectory</w>
myTargetClass</w>
jo
inference
rebuild
Cover
servlet</w>
ByKey</w>
Absolute</w>
Work</w>
DeploymentReflectionIndex</w>
getContainer
copyTo</w>
findByUuid_Last</w>
Delegating
referrer
PLUG
BINDING</w>
_nettyFabric
mang
integ
isOne
myFilter</w>
edException</w>
setCustom
ENCE_
readOptionalString</w>
EventSource</w>
deleted</w>
author
executeQuery</w>
getLanguageId</w>
Propag
successful
PsiMethodReferenceExpression</w>
SqlBaseParser</w>
annotatedElement</w>
TimedOutException</w>
_resolved</w>
isWith
isRunning</w>
advice</w>
addSub
getROperand</w>
LinkCacheModel</w>
Advice
XContentFactory</w>
userIdMapper
REVISION</w>
PortletFileRepositoryUtil</w>
Amount</w>
TO</w>
coded
ferred</w>
addAction</w>
failed</w>
startParameter</w>
serviceReference
rowId</w>
AttributeType</w>
portalCache</w>
userNotificationDelivery</w>
SOURCE_
arepointRequest</w>
Liveness
ois</w>
mmet
starting
ORB
requestDispatcher</w>
phase</w>
AnalysisScope</w>
DING</w>
Jax
bw</w>
mG
FileUtilRt</w>
ServiceAdapter</w>
subTag</w>
Categories
valueAt</w>
CONF
RoleException</w>
contentLength</w>
retry
getExtra
SelectIn
LegacyLayout</w>
ExpectedType
stagedModel</w>
attachments
authentic
myRole1</w>
SpellCheck
getSoftWrap
LT
mot
wise
isType
covery</w>
StringDescriptor</w>
TreeBuilder</w>
ForName</w>
NoSuchLayoutException</w>
kaleoNode</w>
valueElement</w>
Blocking
GitSimple
Need
goal</w>
cleanup
userTrackerPath
FORMAT</w>
alph
INPU
ElementPattern</w>
PyCallable</w>
oldText</w>
nameHint</w>
ickness</w>
FILE_NAME</w>
Occurrences
Chained
Collapsed
PyKeywordArgument</w>
Ele</w>
fg</w>
inside
getStyle</w>
isWhitespace</w>
myEnd</w>
setCache
ComparingUtils</w>
ITI_
getDrop
ErrorTree
FORWAR
invokeMethod</w>
workflowDefinitionLinkModelImpl</w>
weightx</w>
MethodSignatureUtil</w>
MustHave
Fxml
isCanceled</w>
Coord</w>
toSet</w>
ColumnFilter</w>
KaleoInstance
escaped</w>
changeLog</w>
lockUuid</w>
authVerifier
ShortLength</w>
Management</w>
LivenessInfo</w>
GroupConstants</w>
kaleoInstanceModelImpl</w>
listOwner</w>
sourceClass</w>
Markup
CHILD
Replay
BOLD_
findByUuid_C_Last</w>
dstR</w>
getActualTypeArguments</w>
myExpected
GroupPermissions</w>
grouped
Unified
DEPRE
QueryInfluencers</w>
TimeZone
SourceType</w>
moduleId</w>
ordinal
userGroupIds</w>
TermVector
expirationDate</w>
HANDLER_
GreedyTo
ZenCoding
Ring</w>
Scr
setContent
setUse
regexp
Contains</w>
ALT_
ProjectSettings</w>
PropertyUtil</w>
VersionSoap</w>
pluginSetting
Margin
OptionsProvider</w>
Master</w>
lead
createChild
EditorManager</w>
Permissions
Injected</w>
ShardRouting
ordered</w>
resultSet
GenericDomValue</w>
mdrRule</w>
ArrangementSettingsToken</w>
ManagedReferenceFactory</w>
userId1</w>
SELECT_
EllipsisType</w>
NoSuchThreadException</w>
INTERCEPTOR</w>
safe</w>
getObjectName</w>
isLeft
IdData</w>
writer
Roots
getUserGroup
getCurrentKeyboardFocusManager</w>
itemElement</w>
declaredElements</w>
handlerMethod</w>
WITHIN_
getLOperand</w>
Exchange</w>
ends</w>
StringReader</w>
MethodArgument
TimeNanos</w>
getResourceBundle</w>
Topic</w>
cardinality</w>
MavenDomDependency</w>
folding
sleep</w>
statics</w>
Whe
y2</w>
anno
async</w>
findReference
S_IN_
EditorMouse
Pointcut</w>
AssociationType</w>
PostfixExpression</w>
PAGE_SIZE</w>
OWNER_
mountPoint</w>
pt</w>
pi</w>
ServiceReference
MessageDigest</w>
parameterInfo</w>
Committed</w>
threadPool
IMPLEM
expandPath</w>
getNewPrimaryKeysMap</w>
injectionPoint</w>
canonicalText</w>
Diamond
Ca
getHint</w>
getDestination
myContext
quet
ained
removeAttribute</w>
RecordSet
deploymentName</w>
expandoRow
navigate
TransportException</w>
liferayPortletRequest</w>
getMinimumSize</w>
LiferayPortletResponse</w>
LayeredPane</w>
ControlFlowUtil</w>
PASSWOR
macro</w>
VIRTUAL_FILE_ARRAY</w>
ql</w>
ended</w>
threshold</w>
FileVersion
Dialec
fileInfo</w>
dialog
currentName</w>
kaleoNotification</w>
MessageFormat</w>
relation</w>
Fully
fuzziness</w>
gridy</w>
QUOTE</w>
border</w>
C_G_
GenerationException</w>
superName</w>
ScalarOperator</w>
getDescriptor
rtn</w>
<'</w>
Cycle
getNot
myContainer</w>
setHeader</w>
Asci
NameFactory</w>
LineSeparator</w>
listType</w>
parseDouble</w>
EXPORT_
WorkflowInstance</w>
configFile</w>
snipp
Compression</w>
getArticleId</w>
getNameIdentifierGroovy</w>
SWIT
algorith
myProcess
createJSONArray</w>
Definitely
serviceTracker
OfMonth</w>
registerMapper</w>
journalFeed</w>
portalPreferences</w>
assetTagNames</w>
Braces</w>
STRUCTURE_
decompo
SHIFT</w>
EffectType</w>
GUtil</w>
Payload
getRun
Datas</w>
serviceRef
buildFix</w>
shoppingOrder</w>
IdeaPlugin
CoverageSuite</w>
PresentableText</w>
BACKGROUND</w>
getFocusOwner</w>
REFACTORING_NAME</w>
MU
done
getProvider</w>
getDirectory
getEnvironment</w>
getGradle
InRange</w>
Exact
myHas
Proto
toPath</w>
GroupBy
AsUncheckedException</w>
Bookings</w>
Evaluated
LINK_
throwAsUncheckedException</w>
Merger</w>
COMPANY_
getNewValue</w>
reverse
FUNCTION</w>
PSI_FILE</w>
scanner</w>
HighlightDisplayLevel</w>
AWT
mid
myAttributes</w>
compil
Called</w>
sections</w>
toolWindowManager</w>
rightBlock</w>
rangeInElement</w>
ffected</w>
TAG_NAME</w>
Audited</w>
ATTACHMENT_
getOnlyElement</w>
STAC
divi
intermediate
lineEndOffset</w>
orderBy</w>
PointerImpl</w>
LabelNode</w>
resourceBlockPermission</w>
getChars</w>
JAVAX_
Equation</w>
scrip
getBranch
FileService</w>
REF_
AndFile
getCast
Marked
ColorUtil</w>
getReal
findByC_C</w>
Consumer
CHARACTERS</w>
paramAsBoolean</w>
'<'</w>
CED_
border
not</w>
acent
Excludes</w>
setUser
Anim
ATED_
Interaction</w>
TokenSets</w>
columnFamily</w>
getAttributeNames</w>
appendNull</w>
Navigatable
ParseResult</w>
HighlighterIterator</w>
getOrderBy</w>
DELIMITER</w>
getConnection
myActive
sep</w>
addSearch
shred</w>
ElementInfo</w>
EditorFontType</w>
DON
CommentText</w>
ValidationResult</w>
ratingsStats
ReadWriteAttribute</w>
WorkflowInstanceLink</w>
isInheritorOrSelf</w>
BL
Horizontal
MeetupsEntry</w>
myBefore
Synchronous
getSort
DataOutput</w>
methodParam</w>
doCreate
XmlStringUtil</w>
KaleoInstanceTokenId</w>
ThreadReference</w>
Retri
MERGE_
Css</w>
GET_
anImport</w>
ASSET_
ftp
totalCount</w>
VisualLine
Restore</w>
announcementsDelivery
WHITE_SPACE</w>
SmallImage
_fields</w>
jax
oId</w>
CallInfo</w>
targetFile</w>
Rows
STATUS_IN_
STATUS_ANY</w>
COPY_
tracked
Buckets</w>
Simple</w>
Bottom
CONNECTION_
FS</w>
GB</w>
GrReturnStatement</w>
PortletRequest
MessageListener
AGES_
RuntimeBeanReference</w>
InvalidUser
Transformers</w>
SplitSource</w>
AttributesDescriptor</w>
Dependents</w>
userId2</w>
ShoppingItemPrice</w>
TX
getOption
getOrder</w>
getTop
NotS_Last</w>
INFO
selector
ParameterMetadata</w>
dataProvider
SessionProperties</w>
showOk
getTypeSettingsProperties</w>
worker</w>
CompileMessage</w>
TermQuery</w>
logicalLine</w>
AnnouncementsDelivery</w>
wikiPageResource</w>
anno</w>
embedded
Reminder
bbCode
SYMBOL</w>
Pipeline</w>
getOutputStream</w>
myParameters</w>
setReply
createInstance</w>
newFolderId</w>
subclass
startArray</w>
Variant</w>
redu
Base64</w>
Customizer</w>
IdeBorderFactory</w>
BinarySpec</w>
convertPoint</w>
FILE_ENTRY_
WatchEvent</w>
iconRect</w>
announcementsFlag
inspectionProfile</w>
comparison</w>
GutterIconRenderer</w>
vert</w>
myWindow</w>
mbStatsUser</w>
findByUser
doNot
searchEngineId</w>
large
STATE</w>
runtime</w>
Steps</w>
InterceptorFactory</w>
assetEntryLocalService</w>
FOLDER</w>
memState</w>
ModelAndView</w>
Pur
Rated
getTemp
isBinary</w>
myMatrix</w>
ToProcess</w>
Differ
LayoutTypePortlet</w>
visibility</w>
fieldValue</w>
MAP_
DateTimeZone</w>
LibraryEditor</w>
Transformation</w>
JpsModule</w>
requires
distinct</w>
getSubstitu
RatedResolveResult</w>
JGroups
myRecent
Regular
FINAL_
selectedElement</w>
Controllers</w>
TransactionObject</w>
GitLine
formatted
DebuggerSettings</w>
getReferenceNameElement</w>
tabs</w>
getErrorMessage</w>
castType</w>
Chunks</w>
ogy
unsyncStringWriter</w>
addPortletBreadcrumb
ThreadPool</w>
isInclude
TransactionStatus</w>
annotationClass</w>
getRequire
accessControl</w>
sendMessage</w>
LAYOUT
Utf
It</w>
IMA
href</w>
lback</w>
tch
xbit</w>
zz</w>
lex</w>
sixbit</w>
KeyValuePair</w>
ailed
Writes</w>
layoutSetBranch
rangeMarker</w>
PORTAL_
AuthenticationManager</w>
filterGetByGroupId_PrevAndNext</w>
Gossiper</w>
PREFS_
SinglePartitionReadCommand</w>
effectType</w>
isSupported</w>
Incoming
versed</w>
QueryId</w>
Configurables</w>
index2</w>
forward</w>
DDMDataProvider
MessageCategory</w>
getBorder
ConfigUtils</w>
otherState</w>
ruleDefinition</w>
substituted
restrictions</w>
Partial
particip
DEF</w>
fieldNames</w>
lineStart</w>
Comp</w>
workflowStatus
JAVA</w>
getNameElement</w>
getErrorIcon</w>
ATTRIBUTE_NAME</w>
BUFFER_
sAreEquivalent</w>
DaemonCodeAnalyzer</w>
AdvancedCache</w>
decrement
FxmlConstants</w>
BAT
myUrl</w>
GrReferenceElement</w>
distance</w>
spi</w>
getDown
myCreate
baseMethod</w>
RepositoryLocation</w>
completed
ApplyPatch
steps</w>
Circuit
MX
NI_
isAfter
Inactive
setModel</w>
MethodBuilder</w>
getCap
entityMetamodel</w>
Relative</w>
contentId</w>
pageSource</w>
UrlInfo</w>
virtualFiles</w>
notificationType</w>
LazyInitializer</w>
myEditorComponent</w>
Prepared</w>
TITLE</w>
DebuggerTreeNodeImpl</w>
Skip</w>
cing
getRow</w>
stable</w>
isPrimitive
setPreferredSize</w>
Deep</w>
Ack
Discover
JavaScript
indexOf
TaskAction</w>
Building
FilterChain</w>
Features</w>
country
ddmStructureLink</w>
isSetIre</w>
trashVersion</w>
timp
ortimp
asSource</w>
myTab
PsiEllipsisType</w>
exportimp
ItemNode</w>
ResolveMetaData</w>
attributeNames</w>
getCurrentAddress</w>
BuilderArgs</w>
Capability
myMacro
initialValue</w>
encoded</w>
globalTableBinder</w>
subsystemRegistration</w>
PARENTHESES</w>
workflowStatusProperty</w>
exportimport</w>
Hyper
PI
normal
painter</w>
Intelli
portletRequest
RootPath</w>
myCaret
JBPopup</w>
StatusBar
SPACE_WITHIN_
Externalizer</w>
MODIFIED_
Snitch</w>
US_
InCurrent
person
ipher
BeanHandler</w>
getActionIds</w>
StructureViewTreeElement</w>
RUN_
assigneeClassName</w>
OrgLabor</w>
Slash
_date</w>
bin</w>
eces</w>
lon
getVcs</w>
isE
myEndOffset</w>
myChanges
ableComponent</w>
Cached</w>
owire
ServiceHandler</w>
VcsFull
Does
IfNot
come
cally
sizeInBytes</w>
Escape</w>
JDBC
minimumShouldMatch</w>
anonymous
VcsFullCommitDetails</w>
getRead
findSub
minute
MessageBus
RangeHighlighter
consume
LongArray</w>
NEW</w>
SOURCES</w>
sAndFormul
Wrapping
filterCountByG_
DOWN_MASK</w>
509
getAssignments</w>
exe
setRow
Writable
UNDEFINED</w>
rootDir</w>
FindBundle</w>
mergeWith</w>
COMPI
EXCEPTION</w>
handleElementRename</w>
IdeaPluginDescriptorImpl</w>
unescape
achStatement</w>
JavaParameters</w>
PathTo
indexService</w>
LineNumber</w>
whileStatement</w>
SIVE</w>
getContentRoots</w>
getResourcePrimKey</w>
ArrangementEntry
directDataSource
Lightweight
MINUS</w>
getEditors</w>
directDataSourceInjectionSource</w>
HEL
getRef
getRegion</w>
getDestination</w>
verificationHandler</w>
ElementFactory</w>
encies</w>
AttributeHandler</w>
buildVisitor</w>
Streaming
callbacks</w>
ConfigTreeNode</w>
RefactorMessage</w>
RoutingAllocation</w>
CONSOLE_
CDATA</w>
rase</w>
myOffset</w>
STRO
JavaLanguage</w>
psiFacade</w>
Initialization
getRootModel</w>
prepareFile
BytesUsed</w>
NOT_FOUND</w>
LambdaUtil</w>
Optimizer</w>
Confirmation</w>
_dlApp
DataOutputPlus</w>
PS_
Pending</w>
sTree</w>
Expo
myDialog</w>
TypeMigration
True
ReferenceAliases</w>
ParameterListOwner</w>
parent2</w>
discriminator
Annotations
nextInt</w>
Breakpoints</w>
cellIndex</w>
FlowLayout</w>
sListTypes</w>
BuiltinCache</w>
TIME_ZONE</w>
_update</w>
readBytes</w>
getBatch
TargetDirectory</w>
ReturnTypes</w>
getColumnCount</w>
PartitionColumns</w>
Snapshots</w>
mdrRuleGroupInstanceModelImpl</w>
focused
combin
mutations</w>
Netty
getMarkupModel</w>
Fq
cm</w>
lExpression</w>
tc</w>
compati
addSystem
ResourceRoot</w>
InternetAddress</w>
ProjectSystemId</w>
DefinitionBuilder</w>
ambda</w>
intersects</w>
FIRST</w>
Catalog</w>
msglen</w>
_cql3_
deriveFont</w>
sAndFormulasSource</w>
Dvcs
m2</w>
myProperty
myComponent
myHost
Statements
getLay
localDeletionTime</w>
getFetch
ContainerUtilRt</w>
outputFile</w>
contextObjects</w>
getKeyword
MergeWith</w>
skipped</w>
getDeclaredMethod</w>
advisor</w>
SeverityRegistrar</w>
owningBucket
insertedElement</w>
CQL3Type</w>
HIGH
gParent</w>
getSettings
getExecution
str1</w>
ToFile</w>
findDirectory</w>
classElement</w>
LEFT_
lineCount</w>
Buildable
array2</w>
MARKER</w>
ConfigurableBeanFactory</w>
reporter</w>
containingMethod</w>
leaves</w>
VS</w>
XExpression</w>
getTitle
getUrls</w>
updat
decess
Verb</w>
LOOK
TableScan
ValueException</w>
AppEngine
resourceClassNameId</w>
SOUT
projectNode</w>
ArticleId</w>
scheme
expression1</w>
offsetIn
dereference</w>
lucene
Hardcoded
19
Over</w>
getArtifacts</w>
myDescriptor</w>
doProcess
ResourceDescriptionResolver</w>
date_submitted</w>
ImportLocale</w>
filterString</w>
propertyAuditingData</w>
LinkSoap</w>
contextNode</w>
jsonWebServiceAction
ResourceBlockId</w>
SyntaxHighlighter</w>
poolName</w>
REQUIRED</w>
betwe
isRoot</w>
addValidation
tured
Checksum
titles</w>
FunctionRegistry</w>
ACTION_ID</w>
microblogsEntryModelImpl</w>
indicesOptions</w>
STRUCTURE</w>
virtualHostname</w>
CANCE
RestrictionsFactoryUtil</w>
getChannel
getVariables</w>
myTemplate</w>
myPresentation</w>
lop</w>
createFromText</w>
ipulator</w>
Columns
TaskId</w>
EndPosition</w>
writeLock</w>
VersionLabel</w>
DomFileElement</w>
includeMount
transactionManager</w>
MicroblogsEntryId</w>
Carets</w>
MODIFIED</w>
column_family</w>
ticky</w>
getOpenProjects</w>
INVOKE
mangle
STATUS_IN_TRASH</w>
Fu
rs
getProperties
toObjectArray</w>
Locked</w>
classPKs</w>
getSvn
DataAccessException</w>
Nulls</w>
Highlighted
fieldMapper</w>
DomUtil</w>
ThrowStatement</w>
getPredefined
objectMapper</w>
SITE_
QuickFixBundle</w>
FORMATT
Delayed
HeapSize</w>
ResourceTypePermission
CardLayout</w>
ConstValue</w>
Studi
ModelRule
GrClass
preview
findByUUID_G</w>
NoSuchUserNotification
Schemes
StyleGroupId</w>
deploymentUnit
clusterName</w>
ParserDefinition</w>
jobName</w>
Optimized
extraDataJSONObject</w>
flatten
VM_
getModified
setAttributes</w>
Envs</w>
endor</w>
Unfiltered</w>
PortalRuntime
Positional
hashPosition</w>
sourceLayout</w>
Strategies</w>
ShoppingCategory
ButtonText</w>
MapperParsingException</w>
InitialContext</w>
memo
Clone</w>
Decompiler
JNDI_
GO
Was
_ascending</w>
restart
myProcessor</w>
mbMailingList</w>
formation
ResourceLoader</w>
processIntention</w>
ComponentData</w>
UTF_
MessageHandler</w>
None
PREFIX_
Break</w>
revisions</w>
preparePsiElement
PartitionPosition</w>
hostName</w>
ENABLE_
HgRevisionNumber</w>
SecurityDomain</w>
variableKind</w>
encoder</w>
Recovery</w>
logicalPositionToOffset</w>
Darcula</w>
thrift
setKey</w>
undo
MethodIdentifier</w>
RootNode</w>
000</w>
getMerged
intern</w>
common</w>
ThreadContextClassLoader</w>
JoinFragment</w>
roleModelImpl</w>
without
Splitter
jarPath</w>
DfaConstValue</w>
statuses</w>
functionRegistry</w>
namespacePrefix</w>
SINGLE_
getMessageId</w>
BackedPortletURL
isUnderDarcula</w>
subscribe
XDebugSession</w>
Lang</w>
_classNameId</w>
_groupLocalService</w>
sInfo</w>
comet
NotAudited
Dispatch</w>
XmlSerializer</w>
TimeInMillis</w>
generation</w>
Closed
LibraryEx</w>
BackgroundColor</w>
getTri
fetchByG_P_
interfaceName</w>
FQN</w>
BYTE_BUFFER</w>
certific
sKey</w>
TextField
Modificator</w>
ComponentConfiguration</w>
Writing</w>
LIF
queryName</w>
ordered
sqlType</w>
vocabulary
offsetToVisualPosition</w>
peek
dragObject</w>
DEBUG</w>
getBreakpoint
addSystemDependency</w>
17</w>
Gatew
isSuper</w>
myAfter
Chronology</w>
getDes
Iterator
connector</w>
Focused</w>
ClusterBlock
SHAR
scheduled
layoutPrototypeId</w>
archived</w>
FileVisitResult</w>
InvalidUserDataException</w>
warnings</w>
getHttp
getConfigurable</w>
Quoted
ProperTextRange</w>
findIn
ROLE_
RootContainer</w>
getUserNotification
ExpressionUtils</w>
Dock
Commands</w>
tangle
CTR
changeList
META_
prefixLength</w>
features</w>
WSLogger</w>
Transferable
Registered</w>
GroupServiceConfiguration</w>
getExitCode</w>
INFO_
_create
numeric
slave
ta</w>
myCommit
myMouse
Enter</w>
createSingle
GroupServiceName</w>
PySubscription
ResourceResponse</w>
iph
DDMStorage
getParentTag</w>
BuildException</w>
ProviderComposite</w>
Existing</w>
StagingHandler</w>
EditorWithProviderComposite</w>
ITALIC</w>
PySubscriptionExpression</w>
Q_
ntlm
req
exec</w>
PsiTryStatement</w>
ClassSymbol</w>
FAIL
getColumnFamily
Weights</w>
EagerSingleton</w>
priority
isSuper
ServiceComponent</w>
Started
StreamId</w>
PARSE</w>
BuildProperties</w>
PageContext</w>
javaParameter</w>
cfg</w>
getTextAttributes</w>
Navigator</w>
Staged
_setOriginalUserId</w>
Phrase
conflict</w>
windowState</w>
Futures</w>
dispatcher</w>
lifiable
Traversal
GET
Ps</w>
Pain
ason
toURL</w>
instanceOf</w>
pos
Post</w>
targetName</w>
parentCalendarBookingId</w>
openStream</w>
folderName</w>
Initializers</w>
Negoti
actualType</w>
RELATIVE</w>
MAPPING_
SocialRelationConstants</w>
getFriendlyURL
JOIN_BY_
memoized
dc
ert</w>
acted
myItems</w>
REPL
DefaultActions</w>
Forced
mav</w>
Transpar
ObjectReference</w>
ceptionType</w>
PrefixMatcher</w>
getCharset</w>
coContainer</w>
omg</w>
removeByG_
secure</w>
BuildEvent</w>
_originalUserId</w>
running</w>
ratingsStats</w>
Renames</w>
getSlice</w>
HIGHLI
CM
Total</w>
mR
some
vector</w>
getRegistered
createEmptyBorder</w>
groupBy
predefined
kaleoNodeId</w>
Identifiers</w>
Records</w>
CriteriaQuery</w>
collectionType</w>
accessType</w>
getRowHeight</w>
ejbClient
this_present_ire</w>
that_present_ire</w>
PrintStream</w>
unmodifiableSet</w>
switchStatement</w>
dateTimeFormatter</w>
verify</w>
createMetricName</w>
GrStringUtil</w>
ROLE</w>
systemProperties</w>
getByte</w>
viewer</w>
withParent</w>
SizePolicy</w>
SmartEnter
Dispatcher
getTail
userIdMapper</w>
ProcessingInstruction</w>
Suggester</w>
WeldExtension</w>
getFieldValue</w>
history
convertToMostSuccinctTimeUnit</w>
birthday
MustHavePermission</w>
Scores</w>
getSt
Struts
create_
getSum
MessageElement</w>
ownIn
Publication</w>
leftBlock</w>
getKaleoNodeId</w>
getDDMStructure
getIntercep
Ctx</w>
SerializationHelper</w>
instantiate</w>
prepareFileForWrite</w>
f2</w>
asEagerSingleton</w>
adoc</w>
mySource</w>
ByDefault</w>
PyTuple
PortletMode</w>
checksum</w>
key2</w>
EntityEntry</w>
ShoppingCoupon</w>
ShortName</w>
AssertionFailure</w>
INITIAL_
EJB3SubsystemXMLAttribute</w>
Err</w>
showOkCancelDialog</w>
FileImpl</w>
ClassElement</w>
ModelVersion</w>
MethodType</w>
Hashes</w>
ObjectInputStream</w>
fromFile</w>
expressionList</w>
shoppingCart
fullPath</w>
Lazy</w>
IntentionAction
Cancelled</w>
REMOVE</w>
getExportData
DecompilerContext</w>
toIdentifier</w>
TypeFor
LookupImpl</w>
authorization
Patches</w>
shoppingItemField
HANDLER</w>
BUTTON
0d</w>
Dot</w>
TAG
aRectangle</w>
getWindow</w>
ilent</w>
myPlace</w>
setData</w>
FIX
meta</w>
InspectionConfigTreeNode</w>
binder
Levels</w>
consistencyLevel</w>
Calculator</w>
Topology
Lesson</w>
getQualified
Classifi
concurrent
createParser</w>
GrMember</w>
NoSuchRoleException</w>
Executer</w>
LIKE_
DeploymentContext</w>
SelectionInterval</w>
expressionStatement</w>
ships</w>
ExecutorService</w>
trimEnd</w>
duplicates</w>
getExtendsList</w>
PortletInstanceSettings</w>
PASSWORDS_
ATTACHMENT_KEY</w>
ise</w>
confirm
filePaths</w>
JavaConstants</w>
PortletDisplay</w>
PropertyException</w>
Convertor</w>
ApplicationException</w>
FacetConfiguration</w>
buffered
JournalArticleImpl</w>
feed</w>
GenerationInfo</w>
MetaDataParser</w>
inheritor</w>
DocumentationProvider</w>
redirectTitle</w>
QUERY_
isExcluded</w>
agn
Bytecode
NotS_First</w>
Asser
typeArguments</w>
ContextType</w>
canShow
DEFAULT_POLICY_
annotationName</w>
leftType</w>
RecentLayoutBranch
CompilerConfiguration</w>
ChildrenRenderer</w>
nedClass</w>
Receiver
authentication</w>
atomic
getFoldersAnd
Prioriti
HighlightDisplayKey</w>
PASSWORDS_DEFAULT_POLICY_
Foo
mNLS</w>
ptions</w>
prep
Outbound
SearchRequest</w>
resourceLoader</w>
cacheEntry</w>
Materialized
NativeWebRequest</w>
SIZE_OF_
isApplicable
Coder</w>
FX_
imm
getMapping
myTabbedPane</w>
Highlights</w>
targetNode</w>
A_Last</w>
PRECE
getLayoutId</w>
Subscri
GeoDistance
EXTENSION_
zipFile</w>
FLAG</w>
BINARY</w>
Pare
UMB
VER_
eof</w>
getCopy
Explain
PsiForStatement</w>
FileCopy
addCriteria</w>
classLoaders</w>
GrBlockStatement</w>
ORDER</w>
node2</w>
IfInstanceOf</w>
BOTH</w>
InstanceTokenException</w>
boxedType</w>
GeoPoint
ILITY</w>
srcFile</w>
getCollectionPersister</w>
suggestions</w>
propagateIfInstanceOf</w>
YC
Convention</w>
Viewport</w>
searchContainer</w>
pointcut
month
DLFileEntryMetadata
UserNotificationDelivery</w>
getEndLine</w>
hasMoreTokens</w>
OKActionEnabled</w>
getMessageBus</w>
_serviceTracker</w>
meetupsRegistration
ServicesTemplateVariableGroup</w>
random</w>
ratio</w>
getZip
setSelection</w>
Type1</w>
Vcss</w>
ThreadInfo</w>
getSelectedElements</w>
ProviderUtil</w>
COMPOSIT
CLOSE_PARENTHESIS</w>
DDMFormLayout
Discard</w>
sendRedirect</w>
getNameWithoutExtension</w>
assetCategoryIds</w>
LayeredIcon</w>
NoSuchStructureException</w>
elapsed</w>
Pipeline
getRoots</w>
stro
Asset</w>
actionRequired</w>
called
HashEntry</w>
coll
DIFF_
dependencies
TopN
enchmark
assetCategoryModelImpl</w>
getSpace
ControllerMessage</w>
IndexShardState</w>
DIRECTORY_
polyadicExpression</w>
ProjectViewPane</w>
CopyPasteManager</w>
_server
atEnd</w>
lee
getReferences
oos</w>
PsiCatchSection</w>
INFORM
ActionListener</w>
PyBuiltinCache</w>
isInTrash</w>
regions</w>
sortedTokens</w>
Between
trimmed</w>
TASK</w>
esTo
ClassMember
ServiceRegistry
Addon
Framework</w>
Breaker</w>
getPortletName</w>
overriding
branches</w>
KeymapManager</w>
BuiltIn
ModuleComponentIdentifier</w>
resourcePermissionModelImpl</w>
KEEP_LINE_BREA
RangeTombstone</w>
Histogram
findByCompanyId_Last</w>
findByCompanyId_First</w>
pollsVoteModelImpl</w>
dynamicElementElement</w>
EDI
_configuration
setContent</w>
FileSet</w>
getCode</w>
EntryTable</w>
parentName</w>
Viewer
SelectionPath</w>
nameNode</w>
bindToElement</w>
Capabilities</w>
getExtr
urlConnection</w>
tiveName</w>
Duplicates
controller
METHOD_HANDL
BeanDefinitionException</w>
isReversed</w>
BACK</w>
unmodifiableMap</w>
brevi
sUtc</w>
resources
Reverse
BySignature</w>
TypeCode</w>
MethodCandidateInfo</w>
getCannot
ArgumentValues</w>
NodeIds</w>
ItemEvent</w>
ProgressEvent</w>
Counters</w>
Daemon</w>
AnnouncementsFlag</w>
BinderService</w>
QUICK_
greater
trimmed
lesson
getWarningIcon</w>
mix
getEntity</w>
Concat
setAuto
Optimistic
ForComponent</w>
AttributeValue
propertyChange</w>
CONSTAN
ENTITY_ALIAS</w>
InspectionVisitor</w>
getColumnName</w>
libraryEditor</w>
multipart
velocity
ProductName</w>
AggregationFunction</w>
SortedSet</w>
ComboBoxItem</w>
VisibilityUtil</w>
CATEGORY_ID</w>
gap
yc
getQuery</w>
myLines</w>
addFile</w>
ElementGroovy</w>
TypeVariable</w>
methodIntf</w>
TableUtil</w>
criptions</w>
projectsManager</w>
Author</w>
blogsEntryModelImpl</w>
getElementText</w>
joinMap</w>
Namespaces</w>
eetupsEntry
BasicBlock</w>
managementClient</w>
rozen</w>
OK_EXIT_CODE</w>
BackedPortletURLFactory</w>
l1</w>
arge
elas
creation
Viol
TableMetadata</w>
ComponentView</w>
ControlFlow</w>
RuntimeOnly</w>
otherType</w>
roleLocalService</w>
BundleContext</w>
PARAM_
builders</w>
Formula
DEPENDENCIES</w>
PREFS_OWNER_
asure
Instructions</w>
sha
Disjunc
ParameterIndex</w>
currentIndex</w>
board</w>
SERI
selectionEnd</w>
Java</w>
InnerClass</w>
layeredPane</w>
findFieldByName</w>
FRI
hot
getEnabled
isIgnored
doRead
TokenKind</w>
sync</w>
FromContext</w>
getFileVersion</w>
getFileTypeBy
StatusBar</w>
Folded
RecentLayoutSetBranch
_finder</w>
eer</w>
getConsole
setColumn
regori
S_ENABLED</w>
processInvocation</w>
ProjectInternal</w>
Generators</w>
localPath</w>
AnnotationFactory</w>
Injector
Iconable</w>
Detail</w>
socialActivityCacheModel</w>
leftBlock
srcR</w>
srcB</w>
srcG</w>
TIntHashSet</w>
getLocationOnScreen</w>
CEL
meetupsEntry</w>
sParameterTypes
ToParse</w>
locator
ModelNode
EMA
visitPy
writeVInt</w>
VcsRef</w>
Filtered</w>
Closing
PluginPackage</w>
xmlAttributeValue</w>
InvocationType</w>
ruleGroup</w>
CommittedChangesProvider</w>
getFinder</w>
FilePatchInProgress</w>
atically
myNext
myExcluded
toFileEntryId</w>
FieldError</w>
getCaret
TableWriter
CharBuffer</w>
HttpClient
PluginSetting
getParameterNames</w>
sessionFactory
errorResult</w>
getResourceBlock
schemaTableName</w>
logicalName</w>
Vertical</w>
persistenceContext</w>
dotIndex</w>
addValidationError</w>
PortalRuntimePermission</w>
Saniti
_instance</w>
getHolder</w>
ModelId</w>
Trait
STAR</w>
deprec
SourceContext</w>
AssetRenderer</w>
AccessToken</w>
baseType</w>
ScopeManager</w>
LightMethodBuilder</w>
extend</w>
isJavaIdentifierPart</w>
PROTOCOL</w>
RefIngEntity</w>
QueryShardContext</w>
Prioritized
mit</w>
padding
getLoaded
isNon
izerFactory</w>
T_Last</w>
createModule
ARE
startTime
Matching</w>
MarkupModel</w>
MapFactory</w>
await</w>
foreign
importLayout
getPortletDisplay</w>
StorageType</w>
PolicyConfiguration</w>
OPEN</w>
HEAD</w>
SerializationHeader</w>
POST_MODULE_
AspectJ
Deepest
CD_
GE</w>
Paint
nav
myGradle
started
targetPlatform</w>
TokenRange</w>
signatures</w>
deletion</w>
Alive</w>
Joined
Uuid_C</w>
Adapters</w>
repositoryUrl</w>
TEMPLATE</w>
ssh
getGetter</w>
getVisualPosition</w>
amBytesUsed</w>
myNode
myContents</w>
PsiModificationTracker</w>
INSP
findPackage</w>
getParameterMap</w>
getAttributeCount</w>
LeafReaderContext</w>
SIGN</w>
UpToDate</w>
getCannotRefactorMessage</w>
INSPECT
GG
ruby
inject
getWriter</w>
rest</w>
Projection
FileReference</w>
Attemp
Regex
distribu
Affin
VERTIC
IMP
bucketOrd</w>
imageId</w>
Releas
LABEL_
BAR_
Mg
XBreakpoint</w>
rec</w>
mySplitter</w>
unmangle
IndexShard</w>
currentNodeId</w>
parseFieldMatcher</w>
OptionMap</w>
sToRemove</w>
XML_NAME</w>
placeholder</w>
ResourceBlockPermission
Exporter</w>
orientation</w>
getSdkType</w>
socialActivityLimitModelImpl</w>
isMultiCell</w>
XmlNSDescriptor</w>
kaleoLogModelImpl</w>
journalArticleImageModelImpl</w>
MODIFIER_LIST</w>
Utf8</w>
Bit</w>
getHits</w>
stage</w>
myTableModel</w>
Dev
Power
ListPopup</w>
TaskExecution
removeFrom
updateEntry</w>
columnsAndFormulasSource</w>
visitAssignmentExpression</w>
ScrollTo
getKeywords</w>
BoxLayout</w>
policy
substitutor
DIRECT_
ForeachStatement</w>
Css
FMap</w>
RP
many
isPartition
alleng
portlets</w>
ContentFactory</w>
removeChild</w>
resourceLocation</w>
getFoo
Encoded
ClusteringValues</w>
Percent
DocStringFormat</w>
getModificationStamp</w>
getDatabase</w>
myFrameBounds</w>
isVarArgs</w>
_length</w>
bal
thumbnail
GrModifierList</w>
TemplateLanguage
nodeDescriptor
BaseInspectionVisitor</w>
handleRequest</w>
syncPublisher</w>
joinChannel
getJob
myCbShow
OPTION</w>
PACKAGE</w>
WRITE_
POST_MODULE</w>
elemType</w>
Wel
aband</w>
myField
MethodError</w>
key1</w>
javadoc
ComponentItem</w>
Splitters</w>
InsertHandler</w>
IDENT</w>
conflict
shoppingOrderItem</w>
homePath</w>
BB
aSuper</w>
azon
amazon
myScheme</w>
unfiltered</w>
consistency</w>
FileColor
instanceOfExpression</w>
STIC_
JavaScript</w>
typeClass</w>
Generated</w>
VcsRoot</w>
MatchCondition</w>
getBoo
UsageAdapter</w>
UsageInfo2
ClusterState
SSION</w>
highlighters</w>
_setOriginalClassNameId</w>
EncodingException</w>
secondSettings</w>
LightVirtualFile</w>
adjusted
Partial</w>
JndiName</w>
shutdown
scram
NavBar
Approximate
UsageInfo2UsageAdapter</w>
Ax
BAR</w>
Center</w>
Pairs</w>
Ten
qp</w>
sResult</w>
except
Devi
ClassHint</w>
readFile</w>
Disk</w>
PropertyList</w>
Translog
Requested</w>
Ready
printer</w>
RangeCriteria</w>
_originalClassNameId</w>
ClientState</w>
SizeValue</w>
Scorer</w>
DataSourceDefinitionInjectionSource</w>
themeId</w>
InstantiationException</w>
getDocComment</w>
SCROLL
getLinkedExternalProjectPath</w>
canNavigate</w>
sde</w>
ElementNode</w>
OrEmpty</w>
selectedElements</w>
baseFile</w>
isInContent</w>
MappingMetaData</w>
BreakStatement</w>
expandoRow</w>
Credential</w>
Accept
PUBLISH_
MODIFICATION_
Introduc
TermsFilter</w>
pass</w>
SPECI
getForeground</w>
Capitalization</w>
CTRL_
CAP
Gdk
getException</w>
getRange</w>
fid
addColumn</w>
doEquals</w>
KED</w>
data2</w>
resourceBundle
await
countDown</w>
getTypeId</w>
Sdks</w>
nullValue</w>
Created
encoding
DDMFormFieldValue
PortletPreferencesFactoryUtil</w>
PasswordPolicyRel
browserTracker
UTF8_
UTF_8</w>
SR
getFrame</w>
conf
readLock</w>
getMa
Serialized
getBl
taskFile</w>
cfname</w>
Limiter</w>
vcsKey</w>
announcementsDelivery</w>
LISTEN
constraintName</w>
c_
ial</w>
getProxy</w>
str2</w>
IdsTo
newValue
EntryLocalService</w>
QueryableCollection</w>
useDefault</w>
FontName</w>
VirtualFilePointer</w>
CONFIG</w>
ddmTemplateKey</w>
EndpointState</w>
STORE</w>
Placeholders</w>
tooltip
choice
descr</w>
JavaElementVisitor</w>
LDA
aging</w>
abo
PyType
getDet
Expir
AttributeSource</w>
AccessControl</w>
synchronized
inputFile</w>
Driven
waiting
PortletDataHandlerBoolean</w>
DummyHolder</w>
Auth</w>
Renamed</w>
getAvailableLocales</w>
rollback</w>
migrate
Flavor
ME_
Natural
jump
myEnabled</w>
DataLimits</w>
ColumnData</w>
oldSize</w>
Schemes</w>
DefinitionBody</w>
PARSER</w>
DiffElement</w>
transformed
findFileByUrl</w>
getCellRect</w>
UnsignedVInt</w>
quotes</w>
0xFFL</w>
TXN_
SmartEnterProcessor</w>
_className</w>
ltype</w>
reth
getPrimary
getBox
getPortal</w>
FileUrl</w>
addOr
newList</w>
Unti
ALLOW_
ForRow</w>
rootInfo</w>
PluginManager
cfg
ArrangementEntry</w>
tabPlacement</w>
stackFrame</w>
assignmentStatement</w>
getFriendlyURL</w>
RESPONSE_
primitive</w>
setText2</w>
DEPRECAT
It
_url</w>
_themeDisplay</w>
getBuilder</w>
Including
emp</w>
addInternal</w>
ElementDescriptor</w>
ActionRequestValidationException</w>
Alt
subQuery
Filters
IdentifierOwner</w>
EJBBound
ParseContext</w>
SecurityException</w>
stopWatch</w>
shoppingItemPrice</w>
requencies</w>
InferenceVariable</w>
findByGroupId_Last</w>
findByGroupId_First</w>
getStyleFormat
Gen</w>
gutter
lo</w>
sAction</w>
myB
myReplace
setId</w>
Preview</w>
ALS</w>
visitMethod
propertyTypes</w>
Markup</w>
beanType</w>
Returns</w>
expression2</w>
getPropertyNames</w>
wrapIn
TAG_START</w>
ANNOTATIONS</w>
Outgoing
JOption
days
InGroup</w>
PsiDirectory
setup</w>
Encap
ended
doAction</w>
TableNames</w>
updateContext</w>
InspectionProfile</w>
HgRepository</w>
bookmarksEntryModelImpl</w>
exportLayout
SETTING</w>
kaleoTimerInstanceToken
combine</w>
bookmarksFolderModelImpl</w>
standard
dlFileShortcutModelImpl</w>
JOptionPane</w>
Encaps
Abo
Ahead</w>
Cb</w>
KAction</w>
Src
average
isEqual</w>
InNanos</w>
myIcon
email</w>
ReferenceProxyImpl</w>
doExecute</w>
Substit
getRetur
layoutSetId</w>
nullable
PlanBuilder</w>
RemoveStepHandler</w>
joins</w>
getOKAction</w>
SHOW_NAME</w>
UserIdMapper</w>
declareMethod</w>
recursive</w>
GoogleDocs
LF</w>
getDisabled
Redirect
Utils
getCancel
ume</w>
NoSuchUserException</w>
Iterators</w>
L_P_
ExpressionType</w>
Completions</w>
Hosts</w>
DebuggerUtils
_setOriginalClassPK</w>
getLayoutRevisionId</w>
FullName</w>
Released</w>
STATEMENT_
ScopesHolder</w>
calendarNotificationTemplateModelImpl</w>
isSimpleProperty
DebuggerUtilsEx</w>
'*
XA
acenter</w>
addProperty</w>
classForName</w>
readValue</w>
GrCall</w>
Shipp
resolvers</w>
TaskState</w>
value1</w>
valueTo
A_First</w>
ResultTransformer</w>
_originalClassPK</w>
webSocket
expandoBridge</w>
modifiableSettings</w>
unmangleNames</w>
'*'</w>
Mask
RBRACE</w>
getFormat</w>
myRenderer</w>
createActions</w>
ResourceName</w>
WithShortLength</w>
parseAndSet
PackageEntry</w>
SuperColumn</w>
Exceptions
Extraction
placeholder
assetTagStats</w>
libDir</w>
injectedTo
getHorizontal
SynchronizedStatement</w>
CheckboxOptionsPanel</w>
BlankLines</w>
findReferenceAt</w>
parseAndSetParameter</w>
EVAL_
Src</w>
emd</w>
addComponent</w>
addAll
newElements</w>
newChildren</w>
subBlocks</w>
Suffix
EntryIds</w>
exprs</w>
NoSuchNodeException</w>
visitNewExpression</w>
CONDIT
IfPossible</w>
continue
WITH_TIME_ZONE</w>
inputMessage</w>
Retry
canonical</w>
CONTROL_
TargetElementUtil</w>
XLine
fer</w>
sor
getChange
Course</w>
OrderBy
rootEntity
VersionString</w>
StreamCoder</w>
GridLayoutManager</w>
ProxyFactory</w>
getGroupName</w>
ADDED</w>
jbossWeb
ModuleComponentSelector</w>
PROCESS
RETURN_
CHANNEL</w>
Payment
SOUTH</w>
DC</w>
Ms</w>
fb</w>
vault
getUpgrade
getResolved
separ
findClass
dateFormat</w>
NoSuchRuleGroup
MessageOut</w>
timeToLive</w>
callSite</w>
getShort</w>
Drivers</w>
OPTIMI
batchSizes</w>
scorer</w>
pkg
temporary
Authenticated
16
Gregori
pvs</w>
getCheck
getOperands</w>
asMap</w>
setOpaque</w>
tombst
createClass
getLBrace</w>
FromRoot</w>
documentWindow</w>
configs</w>
DDMFormFieldValues</w>
toStringHelper</w>
Invoke</w>
DOC_COMMENT_
assignedInfo</w>
Configurer</w>
DLSyncEvent</w>
specific
Db
XProperty</w>
X509
lings</w>
Implement</w>
undant
allback
ViewDefinition</w>
Secure
UpdateBuilder</w>
PsiElementVisitor</w>
Emit
TimerPersistence</w>
Extends</w>
Month
driverContext</w>
RUNN
sd
myListener</w>
Assigned</w>
copied
GrModifier
Verifier</w>
ResourcePermissions</w>
matched</w>
generationState</w>
ps_to
selectedChanges</w>
ibility</w>
SignOn
ArtifactMetaData</w>
extraData</w>
xmlSettings</w>
getReplic
UnsupportedEncodingException</w>
ship_total</w>
Fully</w>
FORE
ClassLoaderService</w>
_in_version</w>
_information</w>
producibility</w>
_reproduce</w>
Appropri
sorship_total</w>
ps_to_reproduce</w>
getProblem
myTextField</w>
FieldDefinition</w>
ProjectJdk
path1</w>
SettingsEditor</w>
getLastChildNode</w>
VarVersion
MANAGER_
kaleoTaskInstanceTokenQuery</w>
concreteIndices</w>
128</w>
DaemonCodeAnalyzer
addChildResource</w>
concaten
Paren</w>
getStatic
ation_map</w>
ableTo
getSte
XmlElementType</w>
AssetAddon
NotificationListener</w>
superset
otherKey</w>
EMPTY_OBJECT_
scrollRect
InjectedLanguageUtil</w>
Ancestors</w>
scoped
SqlBaseLexer</w>
RETURN</w>
myDisabledSettings</w>
EMPTY_OBJECT_ARRAY</w>
scrollRectToVisible</w>
ydr
myRevision
Unpack
Begin</w>
ComponentSelector</w>
Terminated</w>
Activities
manent
MATCH</w>
Heartbeat</w>
ctor</w>
m1</w>
sorted</w>
itud
GroupPermissionUtil</w>
Shred</w>
Shared</w>
PortletInfo
CacheServiceName</w>
MatchRule</w>
LoadEvent</w>
executeInternal</w>
StaticStatement</w>
getInstanceImpl</w>
sdkType</w>
getResolveHelper</w>
PsiImportStatementBase</w>
itude</w>
Lic
oAuthRequest</w>
std
login
INIT</w>
GrCase
PortalPreferences</w>
ParametersList</w>
typeDescriptor</w>
childElements</w>
componentName</w>
irl
MappingDocument</w>
sendResponse</w>
SETTINGS_
UndertowService</w>
ALWAYS</w>
Tx</w>
utions</w>
isSub
Conf</w>
Compare
addRequired
INFIN
Caching</w>
Modification</w>
Timing</w>
invoked</w>
SettingsExternalizable</w>
SyncAccount</w>
CompletionType</w>
SocialActivitySetting
getFirstItem</w>
BackedBy
interceptorContext</w>
Machine
ClauseOccur</w>
getValid
tee</w>
addRoot</w>
NamePrefix</w>
JavaModuleSource
currentNode</w>
QUALI
Recursive
CHECK
meetupsEntryId</w>
sampleWeight
setKaleoDefinitionId</w>
formula
INPUT_
Concaten
MODIFICATION_COUNT</w>
UTF8_CHARSET</w>
ET</w>
Pixels</w>
getOperator</w>
myChange
getSocial
opType</w>
LineIndent</w>
HOTS
renam
sitemap
goals</w>
REGULAR</w>
StagingGroup</w>
zzUnpack
expandoValueModelImpl</w>
MISSING_
HORIZONTAL</w>
bootstrap
alpha</w>
HOTSWA
Ep
ICvs
gRevision</w>
myConfig</w>
ToInsert
TypeIds</w>
newPath</w>
Grace
datagram</w>
getLValue</w>
textTo
DefaultLocale</w>
LineNumber
ENTRI
grType</w>
RANGE_
JDialog</w>
Prec
_count</w>
ose
wc
getManaged
isProcess
myViewer</w>
getInt
newChild</w>
getSnapshot</w>
keyed</w>
commits</w>
TOT
mapType</w>
detail
CountBy
TAB</w>
PollsQuestion
Duplicates</w>
FragmentSide</w>
SETTING_
socialActivityCounterImpl</w>
GitSimpleHandler</w>
NoSuchUserNotificationEventException</w>
sass
att
getAnt
myUser
myDirectory</w>
quoted
addProperty
LayoutConstraints</w>
expire
ASING</w>
ServletRequest
getReport
fully
ddmFormFieldRenderingContext</w>
ExternalProjectPojo</w>
Moved
ANTIALIASING</w>
PostConstruct</w>
I32</w>
ving
xa
StringAttribute</w>
ModelBuilder</w>
T_First</w>
Name1</w>
ARTI
FormLayout</w>
RootDescriptor</w>
colors</w>
updateAll
StartIndex</w>
ItemResponse</w>
RemoteBranch</w>
contentEntry</w>
LOCK</w>
prepared</w>
XML_ATTRIBUTE_
SHIF
isSatisfiedBy</w>
SliceNode</w>
atomRequestContext</w>
BoolUtils</w>
'>
CTOR</w>
getEmail
isSingle
Buil
spacing</w>
ColumnDiff</w>
keyPressed</w>
LineBreak
HttpURLConnection</w>
getClassName
fromName</w>
maxValue</w>
abular
blockIndex</w>
[...]
